<unk>	0
<s>	0
</s>	0
▁,	-3.03288
▁.	-3.381
▁die	-3.7562
▁der	-3.78888
▁und	-3.83366
##	-3.88804
AT	-4.31061
en	-4.32123
▁in	-4.43599
n	-4.50633
▁	-4.54879
s	-4.62935
▁zu	-4.7279
-	-4.79687
▁den	-4.80318
▁von	-4.82821
▁ist	-4.97586
▁##	-5.00235
▁für	-5.02075
▁mit	-5.13581
▁das	-5.15934
▁auf	-5.17799
▁des	-5.2535
▁eine	-5.30375
▁Sie	-5.4131
▁im	-5.42745
▁nicht	-5.44116
▁ein	-5.48218
▁werden	-5.49105
e	-5.50971
;	-5.55596
▁dem	-5.55784
▁dass	-5.56613
▁sich	-5.5786
▁Die	-5.58312
▁wir	-5.60239
▁es	-5.65239
▁auch	-5.7081
▁&	-5.72327
▁sind	-5.7911
▁an	-5.81969
▁(	-5.84076
▁)	-5.84948
▁wird	-5.84985
.	-5.91884
▁als	-5.97527
▁ich	-5.999
▁um	-6.00336
▁oder	-6.0084
▁über	-6.02374
▁:	-6.03973
quot	-6.05014
▁haben	-6.08436
▁-	-6.09698
▁hat	-6.15516
▁einer	-6.16182
▁wie	-6.16887
▁sie	-6.17337
er	-6.20964
▁aus	-6.2165
▁zur	-6.23861
▁bei	-6.25518
▁Das	-6.26485
▁einen	-6.31337
▁Ich	-6.33992
▁können	-6.35676
r	-6.43715
▁nach	-6.44402
▁einem	-6.46678
▁Wir	-6.49446
▁diese	-6.50636
▁zum	-6.51635
▁durch	-6.53098
▁uns	-6.5318
▁nur	-6.54426
▁so	-6.57136
▁kann	-6.57497
▁Der	-6.60018
▁vor	-6.60126
▁!	-6.61824
es	-6.64102
▁Kommission	-6.64108
▁dieser	-6.64182
t	-6.66063
▁Es	-6.68197
▁daß	-6.68904
▁noch	-6.72759
▁wurde	-6.72992
▁In	-6.75229
▁Herr	-6.75593
▁sein	-6.75828
▁aber	-6.77875
▁wenn	-6.7918
▁/	-6.81992
▁sehr	-6.8285
▁müssen	-6.8344
▁er	-6.85801
m	-6.8626
▁?	-6.86807
▁am	-6.87102
▁diesem	-6.93824
▁Union	-6.95782
▁was	-6.96686
▁alle	-6.97003
▁man	-6.97277
▁mehr	-6.98167
▁Europäischen	-6.99452
▁möchte	-7.04423
▁war	-7.05122
▁bis	-7.05617
▁–	-7.08021
▁Hotel	-7.10549
▁unter	-7.11735
▁ihre	-7.13633
▁vom	-7.14347
▁hier	-7.14527
▁Präsident	-7.14637
▁Bericht	-7.15354
▁eines	-7.18682
▁sowie	-7.18694
▁gibt	-7.21143
▁keine	-7.21796
▁dieses	-7.21846
▁EU	-7.23231
▁...	-7.2483
▁zwischen	-7.2657
▁Parlament	-7.26589
▁unsere	-7.28222
▁muss	-7.29267
▁“	-7.30322
▁Ihnen	-7.33242
▁Mitgliedstaaten	-7.35724
apos	-7.36457
▁Europa	-7.36629
▁anderen	-7.38308
▁seine	-7.38831
▁„	-7.39374
▁Entwicklung	-7.40963
▁the	-7.41332
▁Wenn	-7.42194
▁immer	-7.42564
▁de	-7.43132
▁Zeit	-7.44081
▁dann	-7.44386
▁Im	-7.44618
▁damit	-7.48199
▁Diese	-7.48728
▁Frau	-7.49744
▁;	-7.50547
▁gegen	-7.51052
a	-7.51315
▁diesen	-7.51879
▁wurden	-7.51922
▁Ihre	-7.53
▁da	-7.54108
▁Europäische	-7.5448
1	-7.54527
▁Menschen	-7.54553
▁unserer	-7.54846
▁habe	-7.55619
▁Ein	-7.57277
▁sondern	-7.58052
▁jedoch	-7.58451
▁neue	-7.59086
▁Rat	-7.61434
▁a	-7.61581
▁heute	-7.63103
▁Jahr	-7.64097
d	-7.64514
▁ob	-7.67669
▁bereits	-7.67684
▁ab	-7.68139
▁mich	-7.6869
▁and	-7.68802
▁sollte	-7.68833
▁2	-7.70304
▁ohne	-7.71174
▁andere	-7.7122
▁ihrer	-7.7131
▁zwei	-7.71419
▁europäischen	-7.71469
▁Welt	-7.71704
▁wo	-7.72158
▁neuen	-7.72636
▁A	-7.73245
▁Mit	-7.73498
▁%	-7.73721
▁ganz	-7.73862
▁wieder	-7.74298
▁Jahren	-7.74448
▁selbst	-7.74494
▁Frage	-7.74657
▁finden	-7.77021
▁viele	-7.77537
▁sollten	-7.77828
▁Unternehmen	-7.80222
▁bietet	-7.80437
o	-7.81773
▁Arbeit	-7.82195
▁liegt	-7.83668
▁machen	-7.84407
▁ihn	-7.8524
▁Recht	-7.85251
▁of	-7.85251
▁dazu	-7.85375
▁weil	-7.85438
▁1	-7.86006
ung	-7.86296
▁&#93;	-7.86533
em	-7.86558
▁Bereich	-7.87416
▁allen	-7.87503
▁&#9	-7.8764
▁jetzt	-7.87992
▁Lage	-7.89741
▁B	-7.89938
▁einige	-7.90265
▁darauf	-7.90716
▁seiner	-7.90977
▁Informationen	-7.91022
▁geht	-7.91053
▁E	-7.9196
▁S	-7.92102
▁3	-7.92156
▁Maßnahmen	-7.92256
▁schon	-7.92562
▁dafür	-7.937
▁Zimmer	-7.94657
▁Land	-7.95363
▁ihr	-7.95591
▁Jahre	-7.96135
▁meine	-7.96629
▁Eine	-7.9776
▁allem	-7.98993
▁viel	-7.99807
▁Sicherheit	-7.99848
▁Herrn	-7.99861
▁dies	-8.00092
▁bin	-8.004
▁mir	-8.01247
▁wollen	-8.02337
▁ihren	-8.02415
▁gut	-8.02559
▁würde	-8.0359
▁Wie	-8.03668
▁Er	-8.04208
▁Für	-8.04579
▁Bürger	-8.04982
▁welche	-8.05021
▁unseren	-8.05335
▁Nach	-8.05583
▁seit	-8.06408
▁während	-8.06783
▁Länder	-8.0704
▁denen	-8.07105
▁Stadt	-8.07134
▁Teil	-8.07529
▁etwas	-8.07838
▁möglich	-8.07855
▁Und	-8.08349
▁Dies	-8.0836
▁sagen	-8.08476
▁Rahmen	-8.08661
▁Daten	-8.08705
▁doch	-8.08763
▁nun	-8.08787
▁Auf	-8.09567
▁to	-8.09837
▁Ziel	-8.10817
▁insbesondere	-8.11222
▁erhalten	-8.11614
▁große	-8.11736
▁Bei	-8.12285
▁ersten	-8.12386
▁Parlaments	-8.12426
▁Unterstützung	-8.12662
▁Art	-8.13322
▁Regierung	-8.13943
▁weiter	-8.14373
▁denn	-8.14447
de	-8.14462
ing	-8.14615
▁Fall	-8.15792
▁Zusammenarbeit	-8.16106
y	-8.16418
▁Vorschlag	-8.16534
▁also	-8.16875
▁Zu	-8.17047
▁soll	-8.17161
▁lassen	-8.17451
▁drei	-8.1827
▁geben	-8.18419
▁waren	-8.18808
▁Problem	-8.189
▁beim	-8.19073
▁einfach	-8.1911
▁Namen	-8.19436
▁C	-8.19511
▁Ländern	-8.19543
▁besteht	-8.20151
▁stehen	-8.20329
▁Da	-8.20529
▁wissen	-8.20837
▁wichtig	-8.21823
▁4	-8.22347
▁sehen	-8.22426
▁steht	-8.22527
▁System	-8.22923
▁Kunden	-8.22959
▁einmal	-8.23637
▁wäre	-8.2379
▁weitere	-8.23987
▁tun	-8.24049
▁Fragen	-8.24104
▁Seite	-8.24162
▁So	-8.24725
▁Kollegen	-8.25185
▁dabei	-8.25186
▁du	-8.25667
▁5	-8.26075
amp	-8.26648
▁Fraktion	-8.26869
▁letzten	-8.27305
i	-8.27438
dem	-8.27547
▁worden	-8.27586
▁Ihr	-8.27593
den	-8.2791
▁Verfügung	-8.28244
▁solche	-8.28336
▁Bedeutung	-8.2839
▁Was	-8.29838
▁Euro	-8.29845
▁Möglichkeit	-8.29949
B	-8.30131
▁Gemeinschaft	-8.30651
▁großen	-8.30669
te	-8.30955
▁Thema	-8.311
▁muß	-8.318
▁seinen	-8.32054
▁Auch	-8.3306
in	-8.33403
▁Kommissar	-8.33956
▁Als	-8.33992
▁Staaten	-8.34056
▁direkt	-8.34242
▁bieten	-8.34459
▁Politik	-8.3457
▁Aber	-8.34955
▁10	-8.35275
▁davon	-8.35353
▁kein	-8.35971
▁s	-8.36207
▁daher	-8.36478
▁Probleme	-8.36555
▁darüber	-8.36561
▁Grund	-8.36595
▁Zukunft	-8.3679
▁Markt	-8.37054
▁Weise	-8.37067
▁Programm	-8.37358
▁Mittel	-8.37461
▁aller	-8.37504
▁entfernt	-8.37606
▁Beispiel	-8.37714
▁stellen	-8.38076
▁befindet	-8.38205
▁Hier	-8.3825
▁eigenen	-8.38286
▁sowohl	-8.38312
▁wirklich	-8.38748
▁natürlich	-8.3875
▁kommen	-8.38863
▁Ende	-8.3887
▁Um	-8.38926
▁europäische	-8.39038
▁erreichen	-8.39269
▁könnte	-8.39487
ten	-8.39604
▁Ihrer	-8.3964
▁hatte	-8.40162
▁pro	-8.40178
▁meiner	-8.40321
▁z	-8.40373
▁Seiten	-8.40481
▁Schutz	-8.40552
▁besonders	-8.40774
▁unser	-8.40857
▁gegenüber	-8.41087
▁unterstützen	-8.41096
▁politischen	-8.41352
▁Weg	-8.41635
▁Richtlinie	-8.41866
▁Aus	-8.41877
▁d	-8.42014
▁Wirtschaft	-8.42502
▁erste	-8.42758
▁verschiedenen	-8.43063
▁alles	-8.43154
▁Meinung	-8.43269
▁M	-8.43339
▁Frauen	-8.43549
▁Kinder	-8.43684
innerhalb	-8.4382
▁Situation	-8.44191
▁Rolle	-8.44686
▁zusammen	-8.44749
▁I	-8.44914
▁gemeinsame	-8.45592
▁Tag	-8.45927
st	-8.46174
▁gute	-8.46382
▁m	-8.46392
▁zwar	-8.46887
▁Alle	-8.46888
▁Haus	-8.47598
▁internationalen	-8.4772
▁The	-8.48137
▁vielen	-8.4868
▁dort	-8.48706
▁la	-8.48769
▁Artikel	-8.48893
▁wirtschaftliche	-8.49864
h	-8.49901
▁USA	-8.51001
▁Lösung	-8.51006
▁möchten	-8.51394
▁Ihren	-8.52419
▁be	-8.52998
▁führen	-8.53086
▁Internet	-8.53206
▁Uhr	-8.53941
▁Leben	-8.53948
▁un	-8.54081
▁Hilfe	-8.54839
▁politische	-8.55146
▁D	-8.55671
▁Zusammenhang	-8.55978
▁Qualität	-8.56107
▁stellt	-8.56127
▁gemeinsam	-8.56411
▁hätte	-8.56522
▁unserem	-8.56555
▁ver	-8.56698
▁20	-8.56891
▁kommt	-8.57295
▁beiden	-8.57521
▁Entschließung	-8.57535
▁Produkte	-8.5798
▁hinaus	-8.58
▁Software	-8.58827
▁G	-8.59206
▁ja	-8.594
2	-8.59781
z	-8.60117
▁Präsidentin	-8.60329
▁bitte	-8.61043
▁bringen	-8.61048
▁bzw	-8.61055
▁besser	-8.61212
▁T	-8.61281
▁Vor	-8.61588
▁Personen	-8.61609
▁jeder	-8.61627
▁daran	-8.61857
▁Dieses	-8.61881
▁Deshalb	-8.61957
ed	-8.62575
▁gemacht	-8.6263
▁gilt	-8.62655
▁2009	-8.62758
▁weniger	-8.6295
▁Region	-8.63175
▁gesagt	-8.63196
▁Wettbewerb	-8.6333
▁Umwelt	-8.63562
▁Form	-8.63694
com	-8.64022
▁will	-8.64205
▁nämlich	-8.64402
▁Unsere	-8.64502
124	-8.64727
▁Service	-8.65041
▁&#	-8.65103
▁unterstützt	-8.65276
▁H	-8.6553
▁sogar	-8.65684
▁Millionen	-8.65691
▁Punkt	-8.65866
▁An	-8.66004
▁all	-8.66008
▁nehmen	-8.66039
▁Am	-8.66081
▁etwa	-8.66149
▁Abstimmung	-8.6678
▁indem	-8.66841
▁Kosten	-8.67116
▁Rates	-8.67485
▁Vorschläge	-8.6788
▁ebenfalls	-8.67907
▁Ort	-8.68235
▁Ebene	-8.68274
▁Aussprache	-8.68606
▁F	-8.68927
▁meisten	-8.69236
▁Anwendung	-8.69569
▁unterschiedlich	-8.69653
▁darf	-8.69655
▁Dieser	-8.697
▁ihm	-8.69707
▁Europas	-8.69785
▁genau	-8.6998
▁Dienstleistung	-8.7006
▁Entscheidung	-8.70246
▁Energie	-8.70338
▁Hotels	-8.70387
Berichterstatter	-8.709
▁mehrere	-8.71044
▁dessen	-8.71228
▁Verbraucher	-8.71338
▁Deutschland	-8.71418
▁glaube	-8.71647
▁gerade	-8.71806
▁gehen	-8.71864
▁Preis	-8.71908
sten	-8.71958
▁15	-8.72246
▁darin	-8.72353
▁Rechte	-8.7298
▁sicher	-8.73095
▁is	-8.73214
▁dürfen	-8.73312
▁klar	-8.73464
▁Man	-8.73508
▁wenig	-8.73698
▁for	-8.73761
▁30	-8.74393
▁Gesellschaft	-8.74624
▁schaffen	-8.74758
▁deutlich	-8.74824
▁öffentlichen	-8.74844
▁zurück	-8.74852
▁brauchen	-8.7507
▁Bezug	-8.75421
▁jeden	-8.75658
▁handelt	-8.75689
▁K	-8.7588
▁Zugang	-8.76065
▁macht	-8.76102
k	-8.76621
▁ihrem	-8.76652
▁Wasser	-8.76699
▁Website	-8.76716
▁Forschung	-8.76717
▁sei	-8.76726
▁nationalen	-8.76727
▁weit	-8.76801
▁schnell	-8.76842
▁verwendet	-8.76987
▁einigen	-8.7703
▁Vertrag	-8.77142
▁hin	-8.77232
▁6	-8.77799
▁betrifft	-8.78
▁sollen	-8.78013
S	-8.78088
▁Durch	-8.78127
▁weiterhin	-8.78141
▁Strategie	-8.78404
▁Verantwortung	-8.78486
Änderungsanträge	-8.79348
▁bedeutet	-8.79428
▁Projekt	-8.80182
▁Dank	-8.80297
▁deshalb	-8.80316
l	-8.80428
▁Umsetzung	-8.80439
▁besten	-8.80494
▁wichtige	-8.8097
▁Richtung	-8.81647
▁notwendig	-8.82107
▁Verfahren	-8.82127
▁Ansicht	-8.82415
▁Gebiet	-8.82443
▁Menschenrechte	-8.82462
▁Demokratie	-8.82767
ern	-8.82777
▁Von	-8.82837
▁Kultur	-8.82919
▁aufgrund	-8.82925
▁keinen	-8.83483
▁bekannt	-8.83497
▁findet	-8.83628
▁Nähe	-8.83881
mit	-8.84215
▁erreicht	-8.84337
▁statt	-8.84573
▁P	-8.84741
▁gehört	-8.84764
▁nutzen	-8.84883
▁nächsten	-8.84948
▁lange	-8.85074
▁werde	-8.85413
▁erst	-8.85684
▁würden	-8.85703
▁hoffe	-8.86074
▁Verbesserung	-8.86248
▁Be	-8.863
▁Ziele	-8.86394
▁Natur	-8.86623
▁allerding	-8.86725
▁Interesse	-8.87284
▁V	-8.87756
▁Bedingungen	-8.87832
▁Industrie	-8.8784
▁bestimmte	-8.88101
▁beispielsweise	-8.88153
spolitik	-8.88364
▁”	-8.88391
▁Reihe	-8.88541
▁2010	-8.88627
▁per	-8.88661
▁Grundlage	-8.88763
▁einzige	-8.8891
▁Bild	-8.89683
▁Bevölkerung	-8.89801
▁Unter	-8.8988
▁2008	-8.8992
▁vielleicht	-8.90108
▁Ihrem	-8.90411
▁Spiel	-8.90432
▁Mal	-8.90447
▁Geschichte	-8.90472
▁sprechen	-8.90639
▁kleinen	-8.90793
▁Geld	-8.90872
▁Ab	-8.90963
▁Daher	-8.91058
▁Version	-8.91197
▁Vereinigte	-8.91293
▁Debatte	-8.91783
▁Auswirkung	-8.91839
▁sozialen	-8.92206
▁verfügt	-8.92883
▁verschiedene	-8.92974
▁internationale	-8.93049
▁weiß	-8.9319
▁Ausschuss	-8.93459
▁halten	-8.93584
▁L	-8.93626
▁Damen	-8.93734
▁Institutionen	-8.93764
▁8	-8.93861
▁Möglichkeiten	-8.94083
▁weltweit	-8.94103
▁’	-8.94281
▁7	-8.94293
▁arbeiten	-8.94497
▁Schritt	-8.94517
▁Mitglieder	-8.94893
▁China	-8.94925
▁ermöglicht	-8.9504
wohl	-8.95228
▁Restaurant	-8.95335
ly	-8.95586
▁Minuten	-8.95737
▁Erfolg	-8.95987
▁hohe	-8.96411
▁km	-8.96573
▁Änderungsantrag	-8.96709
▁bleiben	-8.96737
▁Hinblick	-8.96797
▁Abkommen	-8.96852
▁oft	-8.9687
STAR	-8.96936
▁Ver	-8.96983
▁erforderlich	-8.97058
▁zeigt	-8.97107
▁vier	-8.97212
▁gleichzeitig	-8.97227
▁La	-8.97456
▁Erweiterung	-8.97608
▁Nutzung	-8.97872
▁50	-8.97936
▁führt	-8.97951
▁Einsatz	-8.98005
▁Tatsache	-8.98571
us	-8.98578
▁könnten	-8.98726
▁bereit	-8.98862
▁Den	-8.98938
4	-8.98971
▁Herren	-8.98983
▁h	-8.99189
▁Ergebnis	-8.9927
▁Produktion	-8.99282
▁ebenso	-8.99298
▁Liste	-8.99386
▁2007	-8.99559
▁Platz	-8.99628
▁Bar	-8.99745
▁Verhandlungen	-8.99775
▁entwickelt	-8.99859
▁100	-9.00431
▁Beschäftigung	-9.00514
▁Seit	-9.00533
▁danken	-9.0055
▁fast	-9.00762
▁Antwort	-9.00871
▁Blick	-9.00914
▁Gruppe	-9.01152
▁Doch	-9.01234
▁Kolleginne	-9.01275
▁darum	-9.01292
▁Regionen	-9.01327
▁Gesundheit	-9.0136
▁gesamten	-9.01401
▁denke	-9.01401
▁ge	-9.01402
▁Text	-9.01431
▁einzelnen	-9.01491
▁12	-9.01563
▁2000	-9.01653
▁hatten	-9.01725
▁Ausdruck	-9.01797
▁Verordnung	-9.01922
▁dar	-9.01925
ge	-9.01962
▁Abgeordneten	-9.02101
▁Jahres	-9.02236
▁Verbindung	-9.02323
▁Zentrum	-9.02329
▁neu	-9.02518
▁Außerdem	-9.02599
▁R	-9.02742
um	-9.02934
5	-9.02969
▁konnte	-9.03646
▁Musik	-9.03747
▁Nicht	-9.03798
▁jedem	-9.03845
be	-9.03931
▁kleine	-9.03971
▁befinden	-9.04433
▁Produkt	-9.0454
ch	-9.04576
▁18	-9.04823
▁setzen	-9.0497
D	-9.0518
▁jede	-9.05314
▁Herausforderung	-9.05517
▁U	-9.05572
▁gab	-9.05586
▁Beziehungen	-9.05946
▁nichts	-9.06003
▁on	-9.06038
▁Förderung	-9.06521
▁Unser	-9.06523
▁eigene	-9.06597
▁Aufgabe	-9.06694
▁voll	-9.06745
▁Hand	-9.06808
▁verbunden	-9.06977
▁Partner	-9.07066
▁heißt	-9.07083
al	-9.07303
re	-9.07325
▁00	-9.07593
▁gestellt	-9.07828
▁Gelegenheit	-9.07833
▁ca	-9.07843
▁helfen	-9.0795
▁Wirtschafts	-9.08066
▁Wert	-9.08151
▁später	-9.08193
▁Wort	-9.08325
▁Kontrolle	-9.08524
▁Fälle	-9.08742
▁u	-9.08875
▁Krise	-9.08889
▁Viele	-9.09031
▁Türkei	-9.09196
▁Bereichen	-9.092
▁Druck	-9.09496
▁ganze	-9.09542
▁Zum	-9.09558
▁tatsächlich	-9.09755
▁Landes	-9.10026
UNDER	-9.10029
SCORE	-9.10394
▁richtig	-9.104
▁Wahl	-9.10506
▁liegen	-9.10597
▁gestimmt	-9.10846
▁äußerst	-9.10911
+	-9.10917
▁Raum	-9.10932
3	-9.11153
g	-9.11312
▁Bitte	-9.11524
▁wohl	-9.11535
▁Interessen	-9.11556
▁je	-9.11781
▁Beitrag	-9.11883
▁soziale	-9.11926
▁weiteren	-9.11968
▁rund	-9.12012
▁Prozess	-9.12358
▁Du	-9.12516
▁bekommen	-9.12522
▁hoch	-9.1257
▁gegeben	-9.12733
▁jedes	-9.12764
▁bleibt	-9.12829
▁Behörden	-9.13075
▁O	-9.1309
f	-9.13186
▁Themen	-9.13223
▁Benutzer	-9.13472
▁N	-9.13549
▁e	-9.13577
▁enthalten	-9.13791
▁völlig	-9.13867
▁wegen	-9.14066
▁Damit	-9.14081
▁meinen	-9.14254
▁schriftlich	-9.14276
▁US	-9.14281
▁Mail	-9.14501
▁wichtigen	-9.14513
▁Mitarbeiter	-9.14517
▁gerne	-9.14721
▁Handel	-9.1513
u	-9.15331
an	-9.15437
▁2006	-9.1556
▁Stunden	-9.15663
▁Über	-9.15691
▁Frankreich	-9.15723
▁Angebot	-9.15754
▁wichtigsten	-9.15826
lich	-9.15928
▁gleich	-9.16271
▁unseres	-9.16347
▁neben	-9.16599
▁enthält	-9.16823
▁Lösungen	-9.1686
▁Ergebnisse	-9.16953
▁hinsichtlich	-9.1717
▁Kampf	-9.17225
▁Erfahrung	-9.17289
▁Verwendung	-9.17353
▁Auswahl	-9.17502
▁wobei	-9.17686
▁ermöglichen	-9.1773
▁geführt	-9.18135
▁W	-9.18489
▁Tage	-9.18673
▁Strand	-9.1884
▁zeigen	-9.18919
▁Lissabon	-9.19082
▁spielen	-9.1916
▁Mai	-9.19632
▁Finanz	-9.19643
▁Familie	-9.1988
▁fünf	-9.19952
▁finanzielle	-9.20006
▁Meer	-9.20112
▁Schaffung	-9.20209
▁derzeit	-9.2043
▁Woche	-9.20529
▁größere	-9.20687
▁Notwendigkeit	-9.20704
▁Russland	-9.20784
▁Mitglied	-9.20803
▁Umgebung	-9.20892
▁Integration	-9.2102
▁fest	-9.21132
▁i	-9.21271
noch	-9.21289
▁heutige	-9.21359
▁with	-9.21535
▁verbessern	-9.21776
▁Insel	-9.21798
▁kurz	-9.21869
c	-9.22004
▁24	-9.22197
▁Zeitpunkt	-9.22304
▁verfügen	-9.22684
▁lässt	-9.22687
▁verwenden	-9.22701
ver	-9.2282
▁Darüber	-9.23024
▁Gäste	-9.23046
▁Person	-9.23212
▁Online	-9.2331
▁25	-9.23357
▁angenommen	-9.23457
▁gesamte	-9.23481
▁gehören	-9.23529
▁Macht	-9.23665
▁Selbst	-9.23695
▁wenige	-9.23707
gt	-9.23818
x	-9.23856
▁Juni	-9.23863
▁Informations	-9.23911
▁Funktion	-9.23965
▁ganzen	-9.23992
▁großer	-9.24008
▁bestimmt	-9.24034
▁au	-9.24115
▁Einführung	-9.24401
▁Kunst	-9.24422
▁Verwaltung	-9.24456
▁et	-9.24519
▁gebracht	-9.24555
A	-9.24557
b	-9.24646
▁meinem	-9.24662
▁Zahl	-9.24698
▁Anfang	-9.2483
▁vorgeschlagen	-9.24916
▁Mehrheit	-9.24956
▁zunächst	-9.25444
▁1.	-9.25478
▁Herzen	-9.25761
▁fördern	-9.25771
▁Haupt	-9.25777
▁Haushalt	-9.25829
▁eigentlich	-9.25948
▁Änderungen	-9.26061
▁Information	-9.26107
▁Schlusselwort	-9.26318
▁sorgen	-9.2636
▁Design	-9.26811
▁Landwirtschaft	-9.27388
▁Während	-9.27485
▁Wachstum	-9.27499
▁bestehen	-9.2789
▁Dabei	-9.27951
▁gleichen	-9.28134
durch	-9.28282
▁Dialog	-9.28485
▁Initiative	-9.28543
▁St	-9.28545
▁Bildung	-9.28613
▁Sprache	-9.28805
▁verstehen	-9.28851
▁durchgeführt	-9.28895
®	-9.28901
▁Gewalt	-9.29217
▁erfolgreich	-9.29472
▁bisher	-9.2952
▁guten	-9.29531
▁gewährleisten	-9.29679
▁Finanzierung	-9.29692
▁Aktivitäten	-9.29743
▁ausgestattet	-9.29754
sfähigkeit	-9.29825
▁2005	-9.29857
▁Verfassung	-9.29887
verständlich	-9.30026
▁stark	-9.30131
▁Änderung	-9.30151
▁Anzahl	-9.30195
▁lediglich	-9.30206
▁Konferenz	-9.3031
▁wesentlich	-9.30469
▁l	-9.30624
▁Familien	-9.30674
▁Programme	-9.30963
▁zweite	-9.30974
▁Bau	-9.30987
▁zahlreiche	-9.31088
▁De	-9.31215
▁Kommissarin	-9.31219
▁Basis	-9.31262
▁Bekämpfung	-9.31277
▁Dinge	-9.31283
▁hohen	-9.31366
▁Regierungen	-9.31656
▁Fehler	-9.31815
▁Erachten	-9.31871
▁Sport	-9.31896
▁Punkte	-9.31912
ste	-9.3194
▁mein	-9.32011
erweise	-9.32018
▁Ausschusse	-9.32147
▁9	-9.32295
▁entwickeln	-9.32316
▁16	-9.32379
▁Technologie	-9.32417
▁hotel	-9.32436
▁Kraft	-9.32559
p	-9.32697
▁leicht	-9.32698
▁Präsidentschaft	-9.32795
ieren	-9.3299
▁eingesetzt	-9.32992
▁Erklärung	-9.33005
▁anderer	-9.33176
▁di	-9.33187
▁Preise	-9.3323
▁Fortschritte	-9.33317
▁Personal	-9.33381
▁Flughafen	-9.33412
▁Position	-9.33429
▁Team	-9.33439
▁September	-9.33444
▁Standard	-9.33514
▁Auto	-9.33612
▁Freiheit	-9.33635
▁tragen	-9.33884
▁einschließlich	-9.34088
▁40	-9.34125
▁Jahrhundert	-9.34168
▁Bestimmungen	-9.34435
▁sagte	-9.34471
▁Diskussion	-9.34546
▁2004	-9.34634
▁Stelle	-9.34733
▁außerdem	-9.34986
▁leben	-9.35121
▁Standpunkt	-9.35222
▁Reform	-9.35303
▁erster	-9.35343
ar	-9.35421
▁scheint	-9.35427
▁versuchen	-9.35514
▁Server	-9.35529
▁Dezember	-9.35635
▁Web	-9.35791
▁Nur	-9.3585
▁bessere	-9.35898
▁zusätzliche	-9.36073
▁meines	-9.36394
▁neuer	-9.36426
▁Fischerei	-9.36451
▁Vorschriften	-9.366
▁insgesamt	-9.366
▁Medien	-9.36619
▁dadurch	-9.3664
▁demokratische	-9.36679
▁Gruppen	-9.37045
▁Auffassung	-9.37159
▁zweiten	-9.37242
▁nie	-9.37348
▁aufgenommen	-9.37371
▁Küche	-9.37415
▁Datei	-9.37416
▁Gefahr	-9.37718
▁bevor	-9.37745
le	-9.37868
▁Aufmerksamkeit	-9.37912
▁Anforderungen	-9.38132
▁Behandlung	-9.38217
▁verfügbar	-9.38272
▁Organisation	-9.38352
▁gar	-9.38369
▁vergangenen	-9.38461
▁alten	-9.38533
▁genießen	-9.38745
▁deine	-9.38983
▁14	-9.39087
▁Projekte	-9.39239
▁März	-9.3933
▁Zur	-9.39389
▁frei	-9.39473
▁globale	-9.39569
▁See	-9.3961
▁ändern	-9.3968
▁Gästebewertung	-9.39731
▁Meine	-9.39772
▁Frühstück	-9.39849
▁hinter	-9.39876
▁Arbeitnehmer	-9.40057
▁geschlossen	-9.40097
▁Bereiche	-9.40277
▁vollständig	-9.40319
▁Anfrage	-9.40607
▁f	-9.4061
▁2003	-9.40645
▁Neben	-9.40697
industrie	-9.40987
▁Bilder	-9.41223
▁Transparenz	-9.41231
▁Öffentlichkeit	-9.41231
▁Entscheidungen	-9.41266
▁Ja	-9.41316
▁Inhalt	-9.41368
▁schließlich	-9.41397
▁Reise	-9.41513
▁17	-9.41535
▁Handels	-9.41681
ischen	-9.41748
ia	-9.41846
▁leider	-9.41866
▁Haushalts	-9.41977
▁Tagesordnung	-9.42084
▁besondere	-9.42168
gen	-9.42269
politik	-9.42423
▁Computer	-9.42446
▁leisten	-9.42468
▁gemäß	-9.42576
svorschriften	-9.42598
▁Grenzen	-9.4264
▁Lebensmittel	-9.42652
▁Urlaub	-9.42819
▁Sinne	-9.42832
▁behandelt	-9.42897
▁Januar	-9.42923
▁Tat	-9.42988
▁größten	-9.42993
▁Folgen	-9.42997
der	-9.436
▁amerikanische	-9.43611
▁suchen	-9.43832
▁genommen	-9.43837
selben	-9.43838
▁Firma	-9.43847
▁Linie	-9.43867
▁vorgelegt	-9.43899
land	-9.43934
▁benötigen	-9.43994
os	-9.44009
▁TV	-9.44047
▁Aspekte	-9.44103
▁erfolgt	-9.44118
▁Höhe	-9.44155
▁halte	-9.44256
▁Oktober	-9.44261
▁konnten	-9.44355
▁Staat	-9.44432
▁geworden	-9.44458
▁erneut	-9.4449
▁erwarten	-9.44498
et	-9.44584
▁San	-9.44685
▁allein	-9.45068
▁diejenige	-9.45082
▁wichtiger	-9.45105
▁Regeln	-9.45119
▁Nationen	-9.45148
▁Berlin	-9.45148
▁kannst	-9.45371
▁Sache	-9.45428
▁öffentliche	-9.45502
▁Investitionen	-9.45509
▁Juli	-9.45546
▁Film	-9.45578
▁europäischer	-9.45616
▁Hinsicht	-9.45816
▁begrüße	-9.4625
о	-9.46366
▁gefunden	-9.46443
▁Leistung	-9.46469
▁2001	-9.46476
▁bezüglich	-9.46661
▁Aufenthalt	-9.46676
▁Gründen	-9.46722
▁vertreten	-9.46741
▁Solidarität	-9.46786
▁Sommer	-9.46845
▁sofort	-9.46856
▁weder	-9.47007
▁aktuellen	-9.47009
▁nahe	-9.4717
▁versucht	-9.47251
▁Frieden	-9.47334
▁000	-9.47379
▁Le	-9.47467
▁konkrete	-9.47477
▁Werte	-9.47708
▁Bad	-9.47741
▁Sicht	-9.47795
▁angesicht	-9.47854
system	-9.47989
»	-9.47992
▁erklärt	-9.48027
▁treffen	-9.48056
▁Folge	-9.48098
▁Windows	-9.4811
▁Heute	-9.48182
▁GmbH	-9.482
▁11	-9.48535
▁Republik	-9.48536
▁Gebäude	-9.48552
▁übrigen	-9.48562
▁heraus	-9.48625
▁Ressourcen	-9.48666
▁letzte	-9.48702
▁sieht	-9.48732
▁eher	-9.48929
▁vorgesehen	-9.49013
▁vergessen	-9.49054
▁bringt	-9.49108
▁Video	-9.49177
▁Kontakt	-9.49238
▁Nr	-9.49255
▁del	-9.49373
▁größte	-9.49454
▁verantwortlich	-9.49578
▁ziehen	-9.49602
▁häufig	-9.49614
▁Park	-9.49624
▁b	-9.49691
▁beitragen	-9.49697
▁automatisch	-9.50264
▁Spieler	-9.50311
▁X	-9.50311
▁J	-9.50529
▁gelten	-9.50583
▁Wochen	-9.50587
▁Bemühungen	-9.50654
▁geschaffen	-9.50922
sicherheit	-9.51041
▁getan	-9.51344
▁by	-9.51497
▁Untersuchung	-9.51546
▁entsprechenden	-9.51566
▁Natürlich	-9.51619
C	-9.51632
▁Atmosphäre	-9.51701
▁lang	-9.51732
▁Ansatz	-9.51784
▁morgen	-9.51813
▁Beginn	-9.51939
to	-9.51961
▁Beitritt	-9.51963
▁verhindern	-9.51978
€	-9.52009
▁2002	-9.52071
▁Bürgerinnen	-9.52113
▁New	-9.52153
▁erwähnt	-9.52175
▁Dateien	-9.52291
▁Italien	-9.52403
▁Krieg	-9.52425
▁Berichts	-9.52529
bereich	-9.52706
▁Monaten	-9.52822
▁w	-9.52845
▁Wunsch	-9.52867
▁beste	-9.52905
▁recht	-9.53112
▁richtige	-9.53113
▁nationale	-9.5321
▁November	-9.53233
▁folgt	-9.53348
▁Rechts	-9.53453
▁13	-9.53455
sverfahren	-9.53558
▁Vertrags	-9.5364
▁paar	-9.53767
▁nimmt	-9.53863
▁anderem	-9.53908
nächst	-9.5393
▁Opfer	-9.54164
▁genannten	-9.54166
▁aktiv	-9.54285
▁t	-9.54389
▁Schritte	-9.54474
▁berücksichtigt	-9.54511
▁verpflichtet	-9.54517
▁April	-9.54564
▁gewesen	-9.54602
▁very	-9.54708
▁entsprechend	-9.54709
▁fordern	-9.54832
▁Praxis	-9.54916
w	-9.55009
▁jene	-9.55019
▁sechs	-9.55077
▁Spanien	-9.55194
nimmt	-9.55266
▁Restaurants	-9.5532
▁britische	-9.55348
▁ausschließlich	-9.55391
▁erfüllen	-9.5541
▁überhaupt	-9.55452
ische	-9.55455
▁Lassen	-9.55461
▁Partei	-9.55474
▁etc	-9.55576
▁Sterne	-9.55582
▁Unternehmens	-9.55599
is	-9.55669
▁eindeutig	-9.55719
▁Vertrauen	-9.55776
schutz	-9.55971
V	-9.56128
▁Durchführung	-9.56229
▁Einrichtung	-9.5624
▁warum	-9.56276
▁Bürgern	-9.56279
▁nachhaltige	-9.56308
▁Erfahrungen	-9.56317
▁Terrorismus	-9.56441
ig	-9.56465
bar	-9.56483
▁Sitzung	-9.56507
▁erzielt	-9.5661
▁Z	-9.56612
▁Adresse	-9.56681
erstatterin	-9.56701
▁Abgeordnete	-9.56755
▁AG	-9.56925
▁Management	-9.5695
▁at	-9.5701
▁y	-9.57029
▁gesetzt	-9.57044
▁EUR	-9.57106
▁usw	-9.5711
▁Vergangenheit	-9.57129
▁nächste	-9.57168
▁schützen	-9.57211
▁Meter	-9.57219
gesellschaft	-9.57252
▁Un	-9.57258
iert	-9.57259
▁wählen	-9.57259
▁stimmen	-9.57268
▁zahlreichen	-9.57438
▁ihres	-9.57656
▁le	-9.57689
▁Aufgaben	-9.57799
▁Binnenmarkt	-9.57817
▁erlaubt	-9.57887
▁jeweiligen	-9.57914
▁Tagen	-9.5797
▁Präsidenten	-9.57978
▁Angelegenheit	-9.58063
stets	-9.5809
▁schwer	-9.58163
▁Re	-9.58183
▁Annahme	-9.5823
▁Zweitens	-9.5826
na	-9.58264
▁Einige	-9.58345
▁Vertreter	-9.58372
▁Israel	-9.58449
▁offen	-9.58524
▁Ausbildung	-9.58534
▁historischen	-9.58548
▁zumindest	-9.58717
▁mal	-9.58752
▁Wer	-9.58755
▁sämtliche	-9.58824
▁zehn	-9.58843
▁60	-9.58844
▁moderne	-9.58977
▁Mitteilung	-9.59141
M	-9.59317
▁Augen	-9.59496
▁Protokoll	-9.59525
keit	-9.5966
▁Inhalte	-9.59689
▁Denn	-9.5976
ie	-9.60013
▁erwartet	-9.60109
at	-9.60514
▁modernen	-9.60547
é	-9.60614
▁Dazu	-9.6067
zu	-9.60734
▁genug	-9.60796
▁trotz	-9.60881
▁technischen	-9.60951
▁Parteien	-9.6098
▁www	-9.61053
▁Allerdings	-9.61065
▁Armut	-9.61246
▁Sicherheits	-9.61283
▁Partnerschaft	-9.61414
▁genutzt	-9.61495
▁Ausführung	-9.61511
▁welches	-9.61529
▁Schwierigkeiten	-9.61625
▁Gipfel	-9.61738
▁erinnern	-9.61798
rseits	-9.61806
▁unabhängig	-9.61895
▁Dann	-9.61895
ter	-9.61897
▁IT	-9.62044
▁Nun	-9.62376
▁Angelegenheiten	-9.62561
▁darstellt	-9.62593
▁Des	-9.62622
▁dringend	-9.62761
N	-9.6277
▁persönlichen	-9.62789
▁außer	-9.62827
▁kennen	-9.62852
▁from	-9.62937
▁überzeugt	-9.62995
▁deutschen	-9.63048
▁beide	-9.63133
▁Arbeitsplätze	-9.63293
▁à	-9.63444
▁Garten	-9.63455
▁setzt	-9.63516
▁kam	-9.6359
▁Kommunikation	-9.63643
▁Ge	-9.63703
▁echte	-9.63713
▁übernehmen	-9.63736
ungen	-9.63752
▁Volk	-9.63892
▁it	-9.639
▁geeignet	-9.63993
sch	-9.64003
▁Luft	-9.64068
▁ging	-9.64097
▁privaten	-9.64124
▁geändert	-9.64145
▁Instrument	-9.64286
lichen	-9.64346
▁Licht	-9.64522
▁entsprechende	-9.64536
▁Vergleich	-9.6455
▁que	-9.64601
▁folgenden	-9.64696
▁Wann	-9.64712
▁gesehen	-9.64771
▁endlich	-9.6486
▁genannt	-9.649
▁begrüßen	-9.64914
▁zusätzlich	-9.64969
▁Betrieb	-9.64972
▁con	-9.64972
▁gelegen	-9.64984
▁Leute	-9.65123
▁you	-9.65148
▁entscheiden	-9.65149
▁1999	-9.65175
▁Karte	-9.65199
▁täglich	-9.6525
ßerhalb	-9.65441
▁Stand	-9.65535
▁benutzt	-9.65553
▁allgemeinen	-9.65772
▁Systems	-9.65871
▁Stabilität	-9.65921
▁verbessert	-9.66
▁unbedingt	-9.66019
▁gezeigt	-9.66115
▁Trotz	-9.66127
▁Ausschuß	-9.66222
▁Besuch	-9.66235
▁Aufnahme	-9.66248
▁Zustimmung	-9.66271
▁beteiligt	-9.66293
▁neues	-9.66512
▁Obwohl	-9.6653
▁Erstens	-9.66739
▁bewusst	-9.66782
man	-9.6689
▁Ist	-9.66953
▁Bank	-9.6697
▁Milliarden	-9.67006
▁Modell	-9.67237
▁Mitgliedstaat	-9.67243
▁Vorteile	-9.67345
▁Kriterien	-9.67353
▁Zeichen	-9.67406
▁room	-9.67441
▁Nacht	-9.67551
▁Falle	-9.67606
▁Organisationen	-9.67673
▁Anerkennung	-9.67678
F	-9.67812
▁Buch	-9.67864
▁Anstrengungen	-9.67907
▁stärker	-9.67915
▁Verpflichtungen	-9.68006
▁bitten	-9.68186
▁Hause	-9.68199
▁beginnen	-9.68513
▁Vereinbarung	-9.68558
as	-9.68563
▁erfahren	-9.68621
ierung	-9.68632
▁Lebens	-9.68636
▁eben	-9.68746
▁Stil	-9.68764
▁Idee	-9.68826
▁Tätigkeit	-9.68864
▁EN	-9.68888
▁kaum	-9.68984
el	-9.69055
▁Falls	-9.69151
▁Prozent	-9.69177
▁Wein	-9.69188
▁Transport	-9.69209
▁entspricht	-9.69349
▁Systeme	-9.69542
▁unten	-9.69612
▁Nutzen	-9.69672
▁wirtschaftlich	-9.6983
▁Sektor	-9.69894
▁r	-9.70183
▁aktuelle	-9.70229
▁80	-9.70304
▁technische	-9.7044
▁Firmen	-9.70466
zeit	-9.70488
▁benötigt	-9.70509
▁wahrscheinlich	-9.7056
▁Site	-9.70706
E	-9.70771
▁erkennen	-9.70826
▁danke	-9.70828
▁veröffentlicht	-9.70885
isch	-9.70917
▁Pro	-9.70935
▁her	-9.70938
▁bald	-9.70985
▁Funktionen	-9.70986
▁Stellungnahme	-9.70999
▁Netzwerk	-9.71031
▁hoffen	-9.71035
▁Ihres	-9.71073
▁berücksichtigen	-9.71124
▁Besucher	-9.71168
▁Haltung	-9.71204
▁Abschluss	-9.71226
▁Installation	-9.7127
▁mindestens	-9.71347
W	-9.71377
▁folgen	-9.71461
▁c	-9.7151
▁seines	-9.71568
▁not	-9.71587
▁Geschäfts	-9.71641
▁Gesundheits	-9.71774
▁bilden	-9.71992
▁200	-9.72025
ka	-9.72073
▁Paris	-9.72216
liche	-9.7228
▁klare	-9.7233
▁Klima	-9.72355
▁erfüllt	-9.72428
▁angezeigt	-9.72575
▁online	-9.7276
▁All	-9.7282
▁k	-9.72851
da	-9.72859
▁hinweisen	-9.72928
▁Wahlen	-9.72938
▁0	-9.72953
▁Osten	-9.73258
▁Einfluss	-9.73452
▁gleiche	-9.73548
▁Foto	-9.73569
▁kostenlos	-9.7358
▁menschliche	-9.73618
▁Fuß	-9.73765
tel	-9.73781
▁Regelung	-9.73834
▁ausdrücklich	-9.73852
▁gesprochen	-9.7388
▁Abend	-9.73937
unternehmen	-9.73976
▁Steuer	-9.73983
▁Homepage	-9.74076
▁umgesetzt	-9.74182
ab	-9.74221
▁benutzen	-9.74259
▁beschlossen	-9.74289
nach	-9.74289
▁Paket	-9.74378
ta	-9.74387
v	-9.74455
▁Anspruch	-9.74474
▁Engagement	-9.74525
▁festgelegt	-9.74544
▁nachdem	-9.74587
▁Konzept	-9.7461
▁künftig	-9.74673
ra	-9.7473
▁eingerichtet	-9.748
▁gefordert	-9.74851
▁Sollte	-9.749
▁Herstellung	-9.74939
▁Straße	-9.74955
▁erstellt	-9.7497
▁Risiko	-9.75012
on	-9.7502
▁euch	-9.75047
▁Suche	-9.75079
▁Gesamt	-9.75094
▁akzeptieren	-9.7511
▁sicherzustellen	-9.752
▁Aspekt	-9.7539
6	-9.75474
ä	-9.75568
▁jegliche	-9.75573
▁gerecht	-9.75583
▁se	-9.75659
▁Ausgaben	-9.75677
P	-9.75722
▁siehe	-9.7576
▁positive	-9.75771
▁Mio	-9.75871
▁Technologien	-9.76018
▁getroffen	-9.76045
▁ländliche	-9.76094
▁El	-9.76168
▁ehemalige	-9.76193
▁braucht	-9.76207
▁Schließlich	-9.76225
▁Kompromiss	-9.76236
▁Sprachen	-9.76244
▁Irak	-9.76269
▁entschieden	-9.76331
▁besonderen	-9.76404
▁Hintergrund	-9.76436
▁Richtlinien	-9.76458
▁grundlegende	-9.7646
▁Dr	-9.76511
▁Ob	-9.76586
▁Neu	-9.76629
▁Unterkategorie	-9.76666
▁fahren	-9.76691
▁Komfort	-9.76802
▁Test	-9.76804
▁Ereignisse	-9.76903
▁prüfen	-9.77147
ur	-9.77163
▁glauben	-9.77169
▁ergreifen	-9.77326
▁bestehenden	-9.77392
▁freuen	-9.77393
▁Titel	-9.77463
▁Produkten	-9.77488
▁Vorbereitung	-9.77501
▁Chance	-9.77543
▁möglicherweise	-9.77605
▁Monate	-9.77625
▁absolut	-9.7772
▁Gesetzgebung	-9.77996
ismus	-9.78069
▁Öl	-9.7817
▁lösen	-9.78176
▁Worte	-9.78198
▁Dollar	-9.78252
▁zuletzt	-9.78279
▁Währung	-9.78314
▁August	-9.78317
▁Reformen	-9.78439
▁Prüfung	-9.78489
▁Beratung	-9.78498
▁Anpassung	-9.78567
▁kurze	-9.78581
▁Einrichtungen	-9.78697
▁beziehen	-9.78808
▁as	-9.79094
▁v	-9.79156
▁jederzeit	-9.79233
▁Aussicht	-9.79403
▁Überwachung	-9.7946
▁Wege	-9.79482
▁wünschen	-9.79484
▁ständig	-9.79525
▁Regel	-9.79542
▁Analyse	-9.79629
▁Forderung	-9.79708
▁lesen	-9.79772
▁Vielfalt	-9.79808
▁italienische	-9.79867
▁starke	-9.79901
▁Wissen	-9.79917
▁Anwendungen	-9.79939
▁anders	-9.79948
▁Struktur	-9.79978
▁Kenntnis	-9.79986
▁teilweise	-9.80026
▁vermeiden	-9.80044
▁Stimme	-9.80113
▁vorhanden	-9.80143
▁Fonds	-9.80177
▁freien	-9.80301
▁Menge	-9.80408
▁wer	-9.80431
▁angesprochen	-9.80535
▁Schluss	-9.80557
▁Februar	-9.80754
▁Webseite	-9.80798
▁Berg	-9.80848
K	-9.80997
▁folgende	-9.8101
▁Telefon	-9.81013
▁sicherlich	-9.8111
th	-9.81151
▁we	-9.81253
▁Zweck	-9.81268
▁ausgezeichnete	-9.81402
▁Körper	-9.81484
▁jeweils	-9.8149
▁Instrumente	-9.81587
▁gern	-9.81638
▁Holz	-9.81681
▁praktisch	-9.81714
or	-9.81735
▁oben	-9.8179
▁dank	-9.81848
▁notwendigen	-9.81867
▁übernachten	-9.81905
▁entweder	-9.81975
▁darunter	-9.82023
▁länger	-9.82023
▁speziell	-9.82049
T	-9.82163
it	-9.82188
▁erzielen	-9.82204
▁Waren	-9.82237
▁gelangen	-9.82275
▁wesentliche	-9.823
▁Abschließend	-9.8239
G	-9.82401
▁geleistet	-9.8247
▁CD	-9.82566
trifft	-9.82574
▁stimme	-9.82677
▁II	-9.82711
▁wollte	-9.82897
▁Post	-9.82916
▁Kooperation	-9.82941
▁Schweiz	-9.82944
▁sagt	-9.82967
▁besuchen	-9.83025
▁funktioniert	-9.83085
7	-9.83218
▁Dienste	-9.83221
▁Antrag	-9.83254
▁Minister	-9.83368
▁dienen	-9.83459
▁Vereint	-9.83559
▁Innovation	-9.83579
▁re	-9.83608
▁Teile	-9.83684
а	-9.83713
▁führende	-9.83847
ation	-9.83904
▁Bewertung	-9.84044
chen	-9.84075
▁erhöhen	-9.84094
▁Zweifel	-9.84171
▁el	-9.84353
▁gekommen	-9.84409
▁Mitte	-9.8441
▁Beschreibung	-9.8443
▁Ratspräsident	-9.84435
▁Hoffnung	-9.84467
▁Plan	-9.84581
▁Jetzt	-9.84601
▁betonen	-9.84657
▁UN	-9.8469
▁Leistungen	-9.84766
▁aufmerksam	-9.8477
▁Griechenland	-9.848
▁gegründet	-9.84888
▁betreffend	-9.84911
▁informieren	-9.8507
sbedingungen	-9.85134
▁Kindern	-9.85148
▁Grundsatz	-9.85173
▁welcher	-9.85212
▁kommenden	-9.85343
▁lernen	-9.85445
▁Status	-9.85522
▁Zeitraum	-9.85532
▁London	-9.85568
▁Villa	-9.85588
ma	-9.85629
▁22	-9.8563
▁Rede	-9.85636
▁Bus	-9.85636
▁that	-9.8566
▁spielt	-9.8567
▁fand	-9.85686
▁Rechnung	-9.85746
▁or	-9.85762
bei	-9.8577
▁zentrale	-9.85777
▁International	-9.85804
wegen	-9.85824
▁Material	-9.8584
▁Leider	-9.85868
j	-9.85943
▁Al	-9.85986
▁Mehr	-9.85999
▁betrachtet	-9.86001
innen	-9.86018
▁Boden	-9.86022
no	-9.86058
▁o	-9.861
▁Gesetz	-9.86128
▁Hersteller	-9.86159
▁Dokument	-9.86201
▁Stellen	-9.86218
▁Straßen	-9.86235
▁Initiativen	-9.86359
▁spezifische	-9.86397
▁anderes	-9.86502
▁are	-9.86539
▁Wirkung	-9.86549
▁garantiert	-9.86584
▁darstellen	-9.86648
▁21	-9.86658
▁Verkehr	-9.86671
▁groß	-9.86709
▁Botschaft	-9.8672
▁fragen	-9.86761
▁Veränderungen	-9.86767
▁gewährleistet	-9.86858
▁Berichte	-9.86966
▁erfolgen	-9.87075
▁Geschäft	-9.87085
▁freue	-9.87109
▁Einigung	-9.87125
▁dagegen	-9.87141
▁Iran	-9.87242
▁deutsche	-9.87243
▁Angaben	-9.87279
▁Warum	-9.873
▁Business	-9.87515
▁Grundsätze	-9.87522
▁Österreich	-9.87553
▁erleben	-9.87554
▁gewisse	-9.87615
▁zuständig	-9.87656
he	-9.87702
▁allgemeine	-9.87962
▁liebe	-9.8797
▁Gemeinsame	-9.87985
▁handeln	-9.88078
▁Kirche	-9.88118
ton	-9.88144
▁stärken	-9.8815
▁einheitliche	-9.88197
▁schwierig	-9.88339
▁arbeitet	-9.88366
▁Standards	-9.88406
▁eingeführt	-9.88436
▁erklären	-9.88512
▁Start	-9.88585
▁Terrasse	-9.88595
▁regionale	-9.8863
aus	-9.88637
▁500	-9.88656
▁Klicken	-9.88698
▁Bestellung	-9.88761
▁Dienst	-9.888
▁90	-9.8886
▁herzlich	-9.88953
▁entstehen	-9.8901
▁klicken	-9.89034
▁Sehenswürdigkei	-9.8917
▁Bis	-9.8926
santrag	-9.8931
▁trägt	-9.89332
▁Hauses	-9.89453
▁ausreichend	-9.89457
▁Lesung	-9.89505
▁tätig	-9.89589
▁erhöht	-9.89622
L	-9.89625
▁Vorstellung	-9.89699
▁Golf	-9.89711
▁Club	-9.89811
haus	-9.89813
▁Kritik	-9.89817
▁Nachfolgend	-9.89888
▁hält	-9.8991
▁erscheint	-9.89932
▁Name	-9.89949
▁Buchung	-9.89976
▁regelmäßig	-9.90019
programm	-9.90031
▁lokalen	-9.90093
▁chinesische	-9.90119
▁Verteidigung	-9.90187
▁möglichst	-9.90286
▁Linux	-9.90309
▁Fortschritt	-9.90316
heit	-9.90369
▁persönliche	-9.90372
▁bezeichnet	-9.90397
▁alte	-9.9043
▁Verpflichtung	-9.90468
▁offensichtlich	-9.90527
▁Moment	-9.90598
▁wären	-9.90608
▁Einhaltung	-9.90613
▁2.	-9.90635
▁erstellen	-9.90673
▁Schlüssel	-9.90695
▁Afrika	-9.90703
▁Winter	-9.90707
▁Achtung	-9.90758
▁konzentrieren	-9.90761
▁Barcelona	-9.90773
▁Welche	-9.9079
▁verfolgt	-9.90952
▁unternehmen	-9.90967
▁Beteiligung	-9.91019
▁persönlich	-9.91104
▁ursprünglich	-9.91142
▁umfasst	-9.91155
▁Sinn	-9.91173
▁p	-9.91173
▁links	-9.91267
▁Universität	-9.91273
▁no	-9.91297
▁zufrieden	-9.913
▁ent	-9.91311
▁legen	-9.91464
▁Führung	-9.91486
▁verfolgen	-9.9155
8	-9.91736
▁Texte	-9.91743
▁Tradition	-9.9175
▁19	-9.91801
▁70	-9.91812
▁eingehen	-9.91856
▁Co	-9.91874
▁Arbeits	-9.92001
▁01	-9.92009
rlei	-9.92033
co	-9.92084
▁zunehmend	-9.92125
▁Nutzer	-9.92131
▁diskutieren	-9.92142
▁Absicht	-9.92155
▁Absatz	-9.92243
е	-9.92251
▁Sorge	-9.92257
▁Unterkunft	-9.9227
se	-9.92286
▁Flug	-9.92397
▁Hafen	-9.92411
▁Anlage	-9.92482
▁ideal	-9.9257
▁Arbeiten	-9.92604
▁verloren	-9.92618
▁Technik	-9.92658
▁Forderungen	-9.92691
ti	-9.92759
▁Museum	-9.92873
▁verlassen	-9.92876
▁Infrastruktur	-9.92888
▁Debian	-9.92918
igen	-9.92925
▁komplett	-9.92963
▁Prioritäten	-9.93007
▁Polen	-9.93036
▁Patienten	-9.9304
▁positiv	-9.93127
▁erhält	-9.93256
▁Gebieten	-9.93272
▁Ruhe	-9.93296
Geschäftsordnung	-9.93321
▁Sozial	-9.93477
▁Globalisierung	-9.93555
▁Ideen	-9.93743
▁Seine	-9.93884
▁feststellen	-9.94013
▁Großbritannien	-9.94065
▁hören	-9.94096
▁relativ	-9.94098
▁Gleichzeitig	-9.941
▁Begriff	-9.94164
▁bestätigt	-9.94239
▁Politiker	-9.94255
▁Jahrhunderts	-9.94255
▁Netz	-9.9429
▁Stärkung	-9.94319
▁überprüfen	-9.94429
▁Treffen	-9.94437
ic	-9.946
▁Programms	-9.94631
▁abgeschlossen	-9.94734
▁niemand	-9.94792
▁jemand	-9.94855
▁Vielzahl	-9.94902
▁23	-9.94915
▁Sitz	-9.95028
▁Angesicht	-9.95106
▁schönen	-9.95308
▁Elemente	-9.95332
▁Japan	-9.95338
markt	-9.95368
▁Aufbau	-9.95437
▁Entwurf	-9.95532
▁hingewiesen	-9.95646
▁Banken	-9.95726
▁geschützt	-9.95728
▁Gas	-9.95789
▁Formen	-9.95829
▁Bedürfnisse	-9.95894
▁kulturellen	-9.95908
▁Verhältnis	-9.95924
▁Priorität	-9.96019
▁Flexibilität	-9.96155
▁Dorf	-9.96204
▁Maschinen	-9.9622
▁gegenwärtig	-9.96364
▁miteinander	-9.96491
▁Tagung	-9.96512
▁Irland	-9.96513
▁einiger	-9.96615
▁Dimension	-9.96731
▁jährlich	-9.96801
▁einsetzen	-9.96819
▁spezielle	-9.96861
R	-9.96875
▁Brüssel	-9.96881
▁Sehr	-9.96956
▁denken	-9.96999
▁Bahn	-9.97038
▁verstärkt	-9.97162
▁unterstütze	-9.97222
▁Karten	-9.97383
▁Charakter	-9.97573
▁profitieren	-9.97587
▁PC	-9.97648
▁finde	-9.97653
▁Verkehrs	-9.97683
▁Europäer	-9.97697
▁kulturelle	-9.97759
▁übertragen	-9.97776
Arbeitslosigkeit	-9.97797
▁schöne	-9.97803
▁Anlagen	-9.97811
▁Anteil	-9.97848
mann	-9.97972
▁Sonder	-9.98024
mal	-9.98047
▁Agentur	-9.9806
▁beinhaltet	-9.98106
▁19.	-9.98115
▁geöffnet	-9.9818
▁Fenster	-9.98197
▁Diskriminierung	-9.98236
▁300	-9.98239
▁erforderlichen	-9.98271
▁gewinnen	-9.98307
▁los	-9.98353
▁Überprüfung	-9.98353
▁geschehen	-9.98668
▁falls	-9.98754
▁bequem	-9.98756
lichkeit	-9.98805
für	-9.98814
▁organisiert	-9.98833
▁ausgezeichnet	-9.98842
▁anerkannt	-9.9897
▁Altstadt	-9.9904
▁angeboten	-9.99063
▁Koordinierung	-9.99138
▁danach	-9.99157
▁Maße	-9.9918
▁Liebe	-9.9918
▁Teilnehmer	-9.99228
▁überall	-9.99242
▁nennen	-9.99274
▁dritten	-9.99341
▁Kosovo	-9.99352
▁Tourismus	-9.99365
▁besitzt	-9.99384
▁Staats	-9.99417
▁beginnt	-9.99434
и	-9.99459
▁umfassende	-9.99486
▁französischen	-9.99489
▁einfache	-9.99505
▁weiterer	-9.99574
▁Prinzip	-9.9963
▁manche	-9.99689
▁Veranstaltung	-9.99701
▁vorliegenden	-9.99761
▁Jeder	-9.99764
▁Arten	-9.99815
▁Meiner	-9.99883
technik	-9.99971
▁WTO	-10
▁Städte	-10.0007
▁Download	-10.0019
▁Links	-10.004
▁Vorteil	-10.0041
▁Zwei	-10.0046
▁ideale	-10.0049
▁Datenbank	-10.0052
▁richtigen	-10.0053
▁1998	-10.0063
▁gestalten	-10.0071
▁Ukraine	-10.0074
▁strategische	-10.0075
▁Regelungen	-10.0078
▁27	-10.0087
▁Weitere	-10.0089
▁Monat	-10.0091
▁empfehlen	-10.0093
▁Größe	-10.0095
▁dient	-10.0098
▁höchste	-10.01
▁Waffen	-10.011
▁Gott	-10.0111
▁zahlen	-10.0113
zwischen	-10.0115
▁derartige	-10.0115
▁regionalen	-10.0124
▁mag	-10.0125
▁Rezeption	-10.0142
▁Indien	-10.0158
▁garantieren	-10.0164
▁festgestellt	-10.0164
ci	-10.0186
▁hergestellt	-10.0188
▁Grundrechte	-10.0191
▁Liberalisierung	-10.0203
▁hauptsächlich	-10.0204
▁verändert	-10.0205
▁wichtigste	-10.0206
▁unmittelbar	-10.0213
▁Landwirte	-10.0218
▁politischer	-10.0222
▁Gast	-10.0233
▁stattfinden	-10.0246
▁Gründe	-10.0247
bau	-10.0253
▁Umfang	-10.0254
▁Bewegung	-10.0255
▁Märkte	-10.0271
▁Eindruck	-10.028
▁innovative	-10.0288
▁diskutiert	-10.0295
▁warten	-10.0297
▁informiert	-10.0298
▁institutionelle	-10.0305
smöglichkeiten	-10.0308
▁Option	-10.0319
▁Zeiten	-10.0327
bald	-10.035
▁internationaler	-10.0369
▁Niveau	-10.0373
▁Realität	-10.0375
▁entsprechen	-10.0381
▁National	-10.0395
▁durchau	-10.0395
▁Nord	-10.0401
▁Kräfte	-10.0408
▁Erde	-10.0412
▁zuvor	-10.0413
▁gegenwärtigen	-10.0424
▁Booking	-10.0432
▁Fotos	-10.0445
▁humanitäre	-10.0449
▁Gesetze	-10.0449
▁Mann	-10.0467
í	-10.0469
▁Werk	-10.0478
▁sogenannte	-10.0486
▁größeren	-10.0487
ke	-10.0494
▁Aktionen	-10.0499
▁Unabhängigkeit	-10.05
▁solcher	-10.0503
▁Hinweis	-10.0512
▁schneller	-10.0527
▁Dem	-10.0536
▁Spiele	-10.0539
▁verehrte	-10.0543
▁g	-10.0552
▁riesige	-10.0558
▁Kombination	-10.0561
smaßnahmen	-10.0561
▁were	-10.0563
▁Architektur	-10.0563
▁Ordnung	-10.0564
▁freie	-10.0566
▁schlecht	-10.0577
▁ernst	-10.0577
▁Wo	-10.0577
▁Methode	-10.0612
berg	-10.0613
▁Verständnis	-10.0615
▁betrachten	-10.0618
gibt	-10.0621
sprozess	-10.0627
▁Amsterdam	-10.0627
▁basiert	-10.0627
▁Bestandteil	-10.063
▁Erklärungen	-10.0631
▁vollkommen	-10.0636
▁Gegensatz	-10.0641
▁Bahnhof	-10.0645
▁Wissenschaft	-10.0646
▁x	-10.0652
▁verbundenen	-10.0655
▁erfordert	-10.0655
▁Star	-10.0669
▁Phase	-10.0674
▁Worten	-10.0681
▁Außen	-10.0685
▁Zahlen	-10.0688
▁Gold	-10.069
▁Beihilfen	-10.0692
▁Mar	-10.0698
▁Anbieter	-10.0719
▁Mitteln	-10.0721
▁Empfehlungen	-10.0736
▁Farben	-10.0737
▁Landschaft	-10.074
▁Gefühl	-10.0741
▁Formular	-10.0741
entwicklung	-10.0743
▁Gebiete	-10.0754
▁CO	-10.0765
▁Kamera	-10.0765
▁this	-10.0767
▁Völker	-10.0772
▁beschäftigt	-10.0778
▁betroffen	-10.0783
▁historische	-10.0786
▁Verkauf	-10.0788
ige	-10.0788
▁Klein	-10.0794
▁Bedarf	-10.0798
▁manchmal	-10.0799
▁Band	-10.0809
▁Gedanken	-10.0819
▁World	-10.0819
▁speziellen	-10.082
ion	-10.0823
▁daraus	-10.0824
▁Geräte	-10.0824
▁Definition	-10.0824
▁junge	-10.0834
ko	-10.0841
▁Ausland	-10.0843
▁Zustand	-10.0845
▁West	-10.0849
▁Auftrag	-10.0849
▁beachten	-10.0852
▁Süden	-10.0868
▁Angebote	-10.0871
▁This	-10.0871
▁Verletzung	-10.0872
▁fallen	-10.0873
▁Center	-10.0875
▁kürzlich	-10.0879
▁außerordentlich	-10.0884
daten	-10.0885
▁einverstanden	-10.0886
▁Beim	-10.0894
▁York	-10.0896
▁Format	-10.0899
ster	-10.09
O	-10.0904
ek	-10.091
▁Englisch	-10.0911
▁geschieht	-10.0915
▁Reaktion	-10.0919
ja	-10.0929
▁integriert	-10.0931
▁Kapital	-10.0932
▁Hauptstadt	-10.0932
▁Erhöhung	-10.0937
▁mittels	-10.0938
▁einzelne	-10.094
▁Mitgliedern	-10.0952
▁Konflikt	-10.0956
▁gehalten	-10.0956
▁Spa	-10.0956
▁Königreich	-10.0962
▁Polizei	-10.0975
▁treten	-10.0977
▁Gegend	-10.0977
▁Je	-10.0977
▁akzeptiert	-10.0987
▁Teilnahme	-10.0991
▁acht	-10.0992
▁Männer	-10.0998
▁kaufen	-10.0999
▁Grunde	-10.1009
▁Jugend	-10.1011
▁gewählt	-10.1015
ssystem	-10.1024
systeme	-10.1026
▁Gegenteil	-10.1032
▁Künstler	-10.1034
▁Freunde	-10.1042
▁spricht	-10.1047
▁Inseln	-10.1047
▁rechts	-10.105
▁guter	-10.1053
▁Kern	-10.1062
tal	-10.1064
im	-10.107
▁international	-10.1073
▁höhere	-10.1077
▁nochmal	-10.1077
▁20.	-10.1077
▁dritte	-10.108
▁Minderheiten	-10.1081
▁35	-10.1085
▁Voraussetzungen	-10.1088
platz	-10.1093
▁Vom	-10.1096
▁Studien	-10.1096
▁Klimaanlage	-10.1097
▁sage	-10.1103
▁zählen	-10.1111
▁Tod	-10.1115
▁Austausch	-10.1115
ft	-10.1119
▁Agenda	-10.1121
▁übernommen	-10.1123
▁fordert	-10.1126
▁sonst	-10.1131
▁abhängig	-10.1133
▁Studie	-10.1134
▁Ebenso	-10.1136
▁Arbeitsmarkt	-10.1136
▁Versuch	-10.1139
▁3.	-10.1159
▁Kurs	-10.1165
▁Problemen	-10.1167
▁anbieten	-10.1168
▁interessiert	-10.1177
▁jüngsten	-10.1178
▁volle	-10.1179
▁Fach	-10.1184
ce	-10.1199
9	-10.12
▁Überzeugung	-10.1201
▁hervorragende	-10.1201
▁Ski	-10.1208
▁have	-10.1209
▁Nachrichten	-10.1209
sbereich	-10.1209
▁bildet	-10.121
▁Signal	-10.1211
▁Risiken	-10.1216
▁vorschlagen	-10.1221
▁früher	-10.1222
▁russische	-10.1223
▁We	-10.1231
▁Tiere	-10.124
▁les	-10.1244
▁Tisch	-10.1252
▁komfortable	-10.1263
▁rasch	-10.1265
▁ausländische	-10.1267
▁jungen	-10.1269
▁Dokumente	-10.1275
▁Effizienz	-10.1275
▁verursacht	-10.1277
▁sieben	-10.1278
▁damal	-10.1284
▁langen	-10.1285
▁entstanden	-10.1288
▁teilen	-10.129
▁Hälfte	-10.1291
▁schnelle	-10.1302
gemeinschaftlich	-10.1302
ausschusses	-10.1307
▁Immobilien	-10.1312
▁al	-10.1315
la	-10.1316
▁Messe	-10.1318
▁Apartments	-10.1318
▁betont	-10.1331
▁interessante	-10.1332
▁Veranstaltungen	-10.1335
eshalb	-10.1347
▁Touristen	-10.1356
▁Feld	-10.1369
▁erhältlich	-10.1371
▁do	-10.1371
▁Einwanderung	-10.1377
▁Experten	-10.1381
lage	-10.1381
▁entgegen	-10.1386
▁Laufe	-10.1388
▁Schaden	-10.1388
▁Ent	-10.1391
▁betroffenen	-10.1396
▁Stadtzentrum	-10.1398
▁Produktions	-10.1399
▁Zugriff	-10.1405
▁Geist	-10.1413
▁Pflicht	-10.1415
▁Generation	-10.1415
▁extrem	-10.1415
▁Einzel	-10.1416
▁zugleich	-10.1418
▁Mein	-10.1422
▁General	-10.1423
▁Tal	-10.1428
▁Unterschiede	-10.1428
organisationen	-10.1431
▁1997	-10.1434
wissenschaftlich	-10.1434
▁Tor	-10.1436
▁eingereicht	-10.1441
geht	-10.1441
▁Methoden	-10.145
▁Serie	-10.1454
▁traditionellen	-10.1454
▁andererseits	-10.1459
▁begann	-10.146
▁gelungen	-10.1464
gesellschaftlich	-10.1475
▁fällt	-10.1476
▁Entwicklungen	-10.1477
un	-10.1496
▁Willen	-10.1511
▁näher	-10.1525
▁Presse	-10.1526
▁grenzüberschrei	-10.1534
raum	-10.1546
▁willkommen	-10.1558
▁gefördert	-10.1573
▁ergeben	-10.1576
▁Aufgrund	-10.1577
▁reagieren	-10.158
▁Fähigkeit	-10.1595
▁21.	-10.1598
▁Marken	-10.1599
▁seitens	-10.1599
di	-10.1601
Veröffentlichung	-10.1619
▁Kauf	-10.1625
▁Datenschutz	-10.163
▁Fraktionen	-10.1634
▁Anliegen	-10.1645
ein	-10.1648
organisation	-10.1661
statt	-10.1663
ler	-10.1668
▁kleiner	-10.1683
▁kontextuell	-10.169
▁Papier	-10.1694
▁Internationalen	-10.1701
▁Grenze	-10.1704
ers	-10.1707
▁derzeitige	-10.1711
▁bewegen	-10.1711
▁Rumänien	-10.1713
gleich	-10.1719
▁11.	-10.1719
▁Stunde	-10.1725
▁FR	-10.1727
▁staff	-10.1734
▁zugänglich	-10.1735
▁vollständige	-10.1743
▁Forschungs	-10.1744
hilfe	-10.1746
▁tut	-10.1753
▁Ausnahme	-10.1757
möglichkeiten	-10.1761
▁Gästen	-10.1766
ina	-10.1768
▁Link	-10.1768
▁Justiz	-10.1769
▁politisch	-10.177
▁Code	-10.1778
▁Einstellung	-10.1779
▁Haftung	-10.1784
▁Religion	-10.1787
▁Portugal	-10.1788
▁angeht	-10.18
▁Wahrheit	-10.1806
▁nötig	-10.1813
▁sicherstellen	-10.1814
▁Norden	-10.1816
▁bereitgestellt	-10.1817
▁meist	-10.1817
▁van	-10.182
▁Kunde	-10.1823
▁private	-10.1823
▁allgemein	-10.1832
▁Marketing	-10.1833
▁unternommen	-10.1835
▁installiert	-10.1839
▁Kollege	-10.1843
▁Tages	-10.1847
▁Verfügbarkeit	-10.1848
▁künftige	-10.1855
los	-10.1856
▁zustimmen	-10.186
▁Klimawandel	-10.1863
▁Strukturfonds	-10.1871
▁berühmten	-10.1872
▁begonnen	-10.188
▁vereinbart	-10.1898
▁Freude	-10.1901
▁Übersetzung	-10.1904
▁Unterschied	-10.1905
▁Hoch	-10.1908
▁Kopf	-10.1912
▁ähnliche	-10.1912
EN	-10.1918
▁Einklang	-10.1937
X	-10.1943
io	-10.1955
▁Theater	-10.1967
▁verlieren	-10.1967
▁Umständen	-10.1969
▁Enterprise	-10.1991
▁Übernachtung	-10.1991
▁Erst	-10.1991
▁rein	-10.1992
▁Gründung	-10.1995
▁Kind	-10.1997
▁Eigenschaften	-10.2001
▁Verbrechen	-10.201
▁Zwischen	-10.2012
▁Badezimmer	-10.2014
▁EG	-10.2016
▁verabschiedet	-10.2016
▁müsste	-10.2016
▁vielmehr	-10.2018
▁dürfte	-10.2018
▁Anti	-10.2019
▁Bedenken	-10.2028
▁ergriffen	-10.203
▁befassen	-10.2032
▁Verhalten	-10.2033
stadt	-10.2038
▁Microsoft	-10.204
▁Top	-10.2045
▁Services	-10.205
▁DVD	-10.2052
▁sichern	-10.2053
ir	-10.2058
▁Voraussetzung	-10.206
▁Amerika	-10.206
ni	-10.206
Berücksichtigung	-10.2076
▁Glas	-10.2082
▁Küste	-10.2083
▁reicht	-10.2085
▁Beweis	-10.2093
▁definiert	-10.2094
▁eng	-10.2094
▁Lieferung	-10.2099
▁real	-10.2099
▁positiven	-10.2103
▁behandeln	-10.2107
▁ziemlich	-10.2109
▁Sch	-10.2117
▁Ausstattung	-10.2117
▁but	-10.2118
▁No	-10.212
▁eröffnet	-10.2121
▁genauso	-10.2121
▁schließen	-10.2124
▁Übereinkommen	-10.2125
▁gespeichert	-10.2128
▁Nachfrage	-10.214
▁betreffen	-10.214
▁erhielt	-10.2141
▁Empfehlung	-10.2142
▁City	-10.2145
▁Westen	-10.2146
▁Schwerpunkt	-10.2162
▁sinnvoll	-10.2163
▁möglichen	-10.2167
▁Garantie	-10.2167
▁Gebrauch	-10.2178
▁Ar	-10.218
▁Schule	-10.2185
schaft	-10.2186
▁Verträge	-10.2187
▁läuft	-10.2188
▁Planung	-10.2201
▁Vielleicht	-10.2206
▁irische	-10.2209
▁DE	-10.2214
▁Google	-10.2214
net	-10.2218
▁Maßnahme	-10.2228
▁Gericht	-10.2232
▁Kategorie	-10.2241
▁Leitlinien	-10.2245
▁Abschnitt	-10.2255
▁Teilen	-10.2256
▁Diskussionen	-10.2257
▁Mutter	-10.2276
▁Lizenz	-10.2287
▁Alter	-10.2288
▁Schäden	-10.2291
art	-10.2301
▁entlang	-10.2302
ro	-10.2305
▁gestern	-10.2306
▁Gemeinschafts	-10.2316
▁Beschluss	-10.2317
ende	-10.2317
▁Angriff	-10.2319
▁deiner	-10.2319
▁Sanktionen	-10.2321
▁Strom	-10.2325
▁Kontinent	-10.233
ze	-10.2343
▁Beifall	-10.2343
▁bezieht	-10.2348
hin	-10.2349
▁landwirtschaft	-10.2349
▁Groß	-10.2356
service	-10.2357
▁schön	-10.2359
▁Gestaltung	-10.2363
▁Allgemeinen	-10.2364
▁laut	-10.2366
▁sonstige	-10.2367
▁Delegation	-10.2368
▁illegale	-10.2369
produktion	-10.2369
ik	-10.2375
▁1996	-10.2377
▁Provinz	-10.2379
falls	-10.2381
▁Zimmern	-10.2387
▁bemüht	-10.239
stand	-10.24
▁Handeln	-10.2401
▁com	-10.2403
▁bedarf	-10.2407
▁Dafür	-10.2414
▁Mittelmeer	-10.2421
▁erneuerbare	-10.2426
▁senden	-10.2428
▁erweitert	-10.243
▁TM	-10.243
▁langfristige	-10.2431
▁Rest	-10.2441
▁wirksam	-10.2448
▁verlangen	-10.245
▁außergewöhnlich	-10.2451
▁geplant	-10.2459
▁Tour	-10.2461
▁liefern	-10.2464
▁Ausgabe	-10.2468
▁Kaffee	-10.2469
▁Mindest	-10.247
▁trotzdem	-10.2477
isierung	-10.2479
▁bestehende	-10.248
za	-10.2485
▁Hände	-10.2493
▁Zivil	-10.2498
▁präsentiert	-10.25
skonferenz	-10.2501
▁Aktion	-10.2512
ana	-10.2514
▁perfekt	-10.2516
▁wenden	-10.2521
▁ähnlich	-10.2523
▁Stück	-10.2524
▁Materialien	-10.2526
H	-10.2526
▁Original	-10.2531
▁keiner	-10.2537
▁Eltern	-10.2538
▁hoher	-10.254
▁freundlich	-10.2549
▁geschrieben	-10.255
▁üblich	-10.2554
auf	-10.2558
▁Ausstellung	-10.2559
▁reichen	-10.2567
▁Details	-10.2572
▁good	-10.2575
Z	-10.2577
▁erfolgreiche	-10.2579
▁Dort	-10.2582
▁starken	-10.2584
▁Maß	-10.2589
▁Antworten	-10.259
sländern	-10.2604
▁5.	-10.2606
tor	-10.2613
▁sofern	-10.2626
▁Ferner	-10.2629
▁erscheinen	-10.2633
weg	-10.2639
▁produziert	-10.264
ca	-10.2646
▁Regime	-10.2647
▁Ambiente	-10.2656
sprogramm	-10.2661
▁Harmonisierung	-10.2661
▁Open	-10.2663
▁beträgt	-10.2664
▁teilnehmen	-10.2668
▁Schweden	-10.267
▁sorgt	-10.2673
▁führte	-10.2678
▁Regulierung	-10.2684
▁laufen	-10.2688
▁Normen	-10.2694
▁Stein	-10.2704
▁Morgen	-10.2704
druck	-10.2708
▁entdecken	-10.2711
▁dir	-10.2714
▁Element	-10.2714
▁Mensch	-10.2719
spiel	-10.2721
▁umfassenden	-10.2726
▁gemütliche	-10.2733
▁umgeben	-10.2733
▁vorgenommen	-10.2736
Schlussfolgerung	-10.2742
▁Stellung	-10.2742
▁Ratsvorsitz	-10.2744
▁Konsequenz	-10.2746
▁Wegen	-10.2747
▁gelegt	-10.275
anlagen	-10.2751
▁seien	-10.2759
▁geprüft	-10.2765
▁4.	-10.2768
li	-10.2771
▁Agrarpolitik	-10.2779
▁französische	-10.2785
▁hervor	-10.2787
▁Dauer	-10.2789
▁öffnen	-10.2794
▁Studenten	-10.2796
▁Farb	-10.2796
▁Strategien	-10.2798
▁Anfragen	-10.2798
▁Ohne	-10.2807
ist	-10.2818
▁schönsten	-10.2822
▁beschränkt	-10.2823
▁Fisch	-10.2824
▁konkret	-10.2827
▁abgelehnt	-10.2827
▁langfristig	-10.2828
▁Mittelpunkt	-10.2833
si	-10.2839
▁besitzen	-10.2842
▁Forum	-10.2842
▁grundsätzlich	-10.2846
▁breite	-10.2849
▁Wirklichkeit	-10.2849
▁Gemeinsam	-10.285
▁Herz	-10.285
▁Roma	-10.2857
▁Browser	-10.2858
▁hilft	-10.2861
▁Wald	-10.2862
▁berechtigt	-10.2864
▁wichtiges	-10.2871
▁verlangt	-10.2871
form	-10.2873
▁Ausgangspunkt	-10.2874
▁zweifellos	-10.2878
▁18.	-10.2888
▁Bucht	-10.2888
▁Erwartungen	-10.2889
▁bedeuten	-10.2891
▁Rom	-10.2892
me	-10.2895
▁voller	-10.2896
▁vorher	-10.2902
▁Pool	-10.2919
▁zuerst	-10.2921
▁Standort	-10.2922
▁typisch	-10.2927
▁Haut	-10.2929
▁Umgang	-10.2929
▁Schloss	-10.2934
▁aktive	-10.2943
▁Zug	-10.2943
▁Balkon	-10.2945
▁Mitgliedschaft	-10.2946
▁Erinnerung	-10.2958
▁Konto	-10.2962
▁Kann	-10.2964
▁Festlegung	-10.2967
mittel	-10.297
▁Ost	-10.2971
ier	-10.2974
▁niemal	-10.2979
▁größer	-10.2979
▁entscheidend	-10.298
▁Dusche	-10.2984
▁Afghanistan	-10.2998
am	-10.2999
▁Anschluss	-10.3005
sabkommen	-10.3011
▁Fahrzeug	-10.3012
▁stand	-10.3018
▁Büro	-10.3031
▁angemessene	-10.3031
▁Red	-10.3032
stellen	-10.3041
▁neuesten	-10.3047
▁Nahrungsmittel	-10.3047
▁Live	-10.305
▁32	-10.305
wirtschaft	-10.3052
▁amtierende	-10.3054
▁Beispiele	-10.3062
▁schreiben	-10.308
▁Übereinstimmung	-10.3081
▁erreichbar	-10.3081
▁reden	-10.3084
▁stimmt	-10.3084
▁effektiv	-10.3085
▁02	-10.3086
▁zählt	-10.3089
▁Privat	-10.309
sländer	-10.3093
▁fühlen	-10.3094
▁direkte	-10.3097
▁individuelle	-10.3099
▁demokratisch	-10.3115
▁Identität	-10.3118
▁schwierigen	-10.313
▁vorgeschlagene	-10.3131
ment	-10.3131
▁45	-10.3135
▁interessant	-10.3142
▁Nein	-10.3145
▁abgestimmt	-10.3146
▁Grand	-10.3147
▁falsch	-10.3159
▁höher	-10.3165
▁Süd	-10.3169
▁schafft	-10.3173
▁ruhigen	-10.3175
▁eigenes	-10.3183
kosten	-10.3188
▁It	-10.3191
▁gestaltet	-10.3194
▁ausgeführt	-10.3195
▁bekannten	-10.3195
▁spanischen	-10.3196
▁Sauna	-10.3196
▁Ton	-10.3204
▁erheblich	-10.3209
▁Wien	-10.3211
▁Menschenrechts	-10.3212
ant	-10.3213
org	-10.3225
▁Mobilität	-10.3232
▁Konsens	-10.3235
▁gelöst	-10.3236
▁richten	-10.3238
▁umzusetzen	-10.3243
▁sorgfältig	-10.3251
tra	-10.3251
▁Essen	-10.3251
▁musste	-10.3256
▁Beschlüsse	-10.3264
▁KMU	-10.3266
▁Export	-10.3268
▁Vision	-10.3271
▁Sicherung	-10.3274
▁Wohnung	-10.3282
ber	-10.3283
▁Jedes	-10.3283
▁Casino	-10.3284
▁Strukturen	-10.3285
▁starten	-10.3286
▁ausgewählt	-10.3288
▁ausgesprochen	-10.3304
▁Gemeinde	-10.3311
▁praktische	-10.3314
▁laden	-10.3318
▁durchzuführen	-10.3318
▁weg	-10.3325
▁Plenum	-10.3331
▁aufzunehmen	-10.3333
▁Kapitel	-10.3335
▁Audio	-10.3336
ß	-10.3338
▁gratulieren	-10.3342
▁einzigartige	-10.3348
▁Farbe	-10.336
do	-10.3361
▁Geschäfte	-10.3367
▁Klasse	-10.3367
▁unabhängige	-10.3369
▁wirksame	-10.3374
▁begrüßt	-10.3377
▁Zuständigkeit	-10.3379
▁Bearbeitung	-10.339
▁Ferien	-10.339
▁gezogen	-10.3393
▁erlauben	-10.3404
▁Institution	-10.3406
▁Air	-10.3409
ierte	-10.3416
▁Erholung	-10.3416
▁Gleichgewicht	-10.3417
▁buchen	-10.3425
▁Kilometer	-10.3425
▁Verbot	-10.3435
▁legt	-10.3437
▁verhindert	-10.3438
▁achten	-10.344
▁München	-10.3441
▁soweit	-10.3444
▁Freizeit	-10.345
▁NATO	-10.3454
▁fordere	-10.3456
▁7.	-10.3456
▁Na	-10.3458
il	-10.3475
▁sehe	-10.3476
▁lautet	-10.3476
▁traditionelle	-10.3477
▁15.	-10.3479
▁verurteilt	-10.3482
▁gebaut	-10.3483
mitten	-10.3485
▁offenen	-10.3489
▁höchsten	-10.349
▁150	-10.349
▁bekämpfen	-10.3492
▁ausgeschlossen	-10.3494
▁Jede	-10.3502
▁passiert	-10.3502
▁Beziehung	-10.3509
▁Überlegung	-10.3513
▁Schlafzimmer	-10.3513
▁PL	-10.3516
▁UNO	-10.3517
▁Also	-10.3519
▁Inter	-10.352
▁une	-10.352
▁leiden	-10.3521
▁Umfeld	-10.3524
▁Ganz	-10.3526
▁gewährt	-10.3526
▁militärische	-10.3529
▁verdient	-10.3529
▁up	-10.353
▁Komponenten	-10.3532
▁weltweiten	-10.3545
▁verschiedener	-10.3547
▁Costa	-10.3547
▁Werbung	-10.3548
ine	-10.355
▁zentral	-10.3551
▁Bio	-10.3556
▁Militär	-10.3559
▁location	-10.3566
▁angemessen	-10.357
▁mögliche	-10.3573
▁Zahlung	-10.3574
▁Flüchtlinge	-10.3576
▁uneingeschränkt	-10.3579
▁Studio	-10.359
▁funktionieren	-10.3591
▁mm	-10.3594
▁annehmen	-10.36
▁angesehen	-10.3614
▁Abkommens	-10.3615
▁Kontroll	-10.3615
ol	-10.3621
▁notwendige	-10.3622
▁hervorheben	-10.3625
▁kostet	-10.3627
▁Sein	-10.3628
▁28	-10.3629
▁bezug	-10.363
seite	-10.3643
▁aufgefordert	-10.3643
▁Alternative	-10.3643
▁wiederholt	-10.365
▁Geschwindigkeit	-10.3653
▁Sammlung	-10.3653
▁Drittländern	-10.3658
▁Nahen	-10.366
▁Plattform	-10.3661
▁Kurz	-10.3662
▁Menü	-10.3663
go	-10.3665
▁alt	-10.3668
▁Amt	-10.3671
▁Ko	-10.3673
▁Werke	-10.3675
▁Angst	-10.3687
▁öffentlich	-10.369
▁Motor	-10.369
▁beglückwünschen	-10.3693
gruppe	-10.3696
▁unmöglich	-10.3699
ó	-10.3708
ger	-10.371
▁durchführen	-10.371
sektor	-10.3711
▁vorbereitet	-10.372
▁Sonne	-10.3723
arbeit	-10.3725
▁Sa	-10.3729
▁Fähigkeiten	-10.3733
▁zugunsten	-10.3735
▁Ziffer	-10.3741
▁verbringen	-10.375
▁Gewicht	-10.3752
bild	-10.3754
je	-10.3757
▁Meeres	-10.3766
▁Grad	-10.3772
▁Wettbewerbs	-10.3772
▁Genehmigung	-10.3773
▁Krankheiten	-10.3777
▁Vater	-10.3783
▁Einheit	-10.3784
▁ließ	-10.3785
▁verstanden	-10.3791
▁sodas	-10.3793
▁Fleisch	-10.38
zimmer	-10.3803
▁schwedische	-10.3805
▁serviert	-10.3807
▁bestätigen	-10.381
▁Räume	-10.3812
▁ungefähr	-10.3815
▁Leistungs	-10.3821
▁26	-10.3826
▁Wellness	-10.3828
▁ausgesetzt	-10.3831
▁Registrierung	-10.3837
▁entscheidende	-10.3847
▁Vermittlung	-10.3858
▁Radio	-10.386
▁Zoll	-10.3867
▁6.	-10.3869
▁erhebliche	-10.387
▁your	-10.3873
▁Gerichte	-10.3876
▁rechtlichen	-10.3888
▁Steuern	-10.3899
▁Hohen	-10.3912
▁bezahlen	-10.3916
▁geboren	-10.3918
▁Prinzipien	-10.3925
▁Lager	-10.3932
▁zufolge	-10.3935
▁Schatten	-10.3937
▁Entlastung	-10.3937
▁End	-10.3945
maßnahmen	-10.3946
▁Beiträge	-10.3948
▁negative	-10.3948
▁hängt	-10.396
▁Drittens	-10.3965
id	-10.3971
▁Wind	-10.3974
▁Kontext	-10.3974
▁2020	-10.3975
▁dich	-10.399
▁zentralen	-10.3991
20	-10.3997
▁Verringerung	-10.4001
▁Zentralbank	-10.4004
management	-10.4011
▁vieler	-10.4013
▁Super	-10.402
▁16.	-10.402
▁Partnern	-10.4027
ak	-10.4029
▁natürlichen	-10.4032
ry	-10.4033
▁Viertel	-10.4036
▁klein	-10.4037
▁1995	-10.4038
▁Support	-10.4043
▁elegante	-10.4047
▁Reservierung	-10.4054
▁verleihen	-10.4056
▁Wünsche	-10.4062
▁früheren	-10.4064
▁10.	-10.4069
▁can	-10.407
mm	-10.4072
▁Schiff	-10.4073
▁Automobil	-10.4078
▁eingegangen	-10.4079
▁Außenpolitik	-10.4084
▁Arbeitsplatz	-10.4089
▁finanziell	-10.4094
▁Emissionen	-10.4099
▁aufnehmen	-10.41
▁offene	-10.4104
sa	-10.4108
▁Steuerung	-10.4116
▁Symbol	-10.4118
▁out	-10.4119
▁Verbindungen	-10.4119
▁Verlust	-10.4123
▁page	-10.4125
▁jetzige	-10.4128
▁Arbeitsplätzen	-10.4128
▁Bett	-10.4129
▁Rechtsgrundlage	-10.4137
▁Besonders	-10.4146
▁Wird	-10.4148
▁hochwertige	-10.4154
sstrategie	-10.4156
dessen	-10.4159
▁verändern	-10.4163
▁geringe	-10.4172
▁Pläne	-10.4173
informationen	-10.4174
▁Ober	-10.4174
bedingungen	-10.4178
▁Fluss	-10.4179
▁Einbeziehung	-10.4184
▁17.	-10.4185
▁stolz	-10.4188
▁global	-10.4188
▁geboten	-10.4194
▁Einstellungen	-10.4197
▁Erzeugnisse	-10.4197
▁Charta	-10.4199
▁entsteh	-10.4203
gruppen	-10.4208
▁palästinensisch	-10.421
▁Tatsächlich	-10.4211
Innen	-10.4211
▁ersetzt	-10.4214
▁Gespräche	-10.4216
ität	-10.422
▁kämpfen	-10.4228
▁Webseiten	-10.4229
▁Websites	-10.4229
▁gespielt	-10.4231
▁http	-10.4231
recht	-10.4233
▁Optionen	-10.4233
▁WLAN	-10.4237
▁Player	-10.4237
▁Drei	-10.4241
▁hinzufügen	-10.4247
▁Deutsch	-10.4247
▁Leitung	-10.4256
▁erinnert	-10.4263
▁ausgerichtet	-10.4265
▁Manager	-10.4272
▁Bemerkungen	-10.4275
▁Gewährleistung	-10.428
▁Rad	-10.4286
▁Glück	-10.4292
▁erleichtern	-10.4295
▁verkauft	-10.4297
▁Mut	-10.43
mo	-10.4306
▁kurzen	-10.4313
▁Sand	-10.4314
▁Projekten	-10.4314
▁voran	-10.4324
▁Punkten	-10.4325
▁ferner	-10.4327
▁Vereinbarungen	-10.4331
ino	-10.4333
▁nahezu	-10.4341
▁Vorgehen	-10.4341
▁13.	-10.4342
▁Verbreitung	-10.4346
▁Faktoren	-10.4349
▁geltenden	-10.4353
halten	-10.4355
▁Werkzeug	-10.4356
▁Schiffe	-10.436
▁#	-10.4361
▁Führer	-10.4363
▁solange	-10.4363
▁Pflanzen	-10.4364
▁vorlegen	-10.4365
▁Ad	-10.4367
▁Station	-10.437
ut	-10.4374
ere	-10.438
▁Fischer	-10.4383
spräsidentschaft	-10.4383
▁Asien	-10.4387
▁einfacher	-10.439
▁gezwungen	-10.44
▁12.	-10.4403
einrichtungen	-10.4413
▁überzeugen	-10.4415
▁Noch	-10.442
▁Deutsche	-10.442
plan	-10.4423
▁bemühen	-10.4433
▁vorbei	-10.444
▁verteilt	-10.4442
▁selten	-10.4445
▁lokale	-10.4445
▁Krankheit	-10.4448
▁Intervention	-10.4452
▁staatlichen	-10.4452
▁beraten	-10.4457
▁wollten	-10.4461
▁einfachen	-10.4464
▁Tier	-10.4465
▁Betrag	-10.4465
10	-10.4468
▁vorherige	-10.4469
▁Gerichtshof	-10.4473
▁diesbezüglich	-10.4482
▁our	-10.4484
▁Mangel	-10.4485
▁südlich	-10.4487
▁kostenlose	-10.4487
tritt	-10.449
▁Ware	-10.4494
▁Go	-10.4496
▁Sorgen	-10.4498
▁400	-10.4498
▁effizient	-10.4502
▁Friedens	-10.4503
▁Schengen	-10.4504
▁Distribution	-10.4506
▁installieren	-10.451
▁fehlt	-10.4511
▁Best	-10.4511
▁bestimmen	-10.4515
▁Übertragung	-10.4519
stein	-10.4519
▁Sprach	-10.4526
▁Group	-10.453
▁mitten	-10.4532
▁Umweltschutz	-10.4539
▁Kompetenz	-10.4539
tisch	-10.4541
▁reduziert	-10.4547
▁Subsidiarität	-10.4564
▁wann	-10.4567
▁Hostels	-10.457
verfahren	-10.457
▁BIP	-10.457
▁Drogen	-10.4571
son	-10.4573
▁Gerät	-10.4586
▁religiöse	-10.4587
▁verringern	-10.459
▁Auge	-10.4592
▁Deutschen	-10.4593
und	-10.4598
▁ruhig	-10.4604
▁zusammenarbeit	-10.4614
▁inklusive	-10.4614
▁ernsthaft	-10.4616
▁Qualitäts	-10.4618
▁Freiheiten	-10.4619
▁unverzüglich	-10.4623
versorgung	-10.4623
▁Frankfurt	-10.4627
▁gewonnen	-10.4628
▁langsam	-10.4631
▁Stahl	-10.4631
▁Zielsetzung	-10.4633
▁Bord	-10.4637
▁letztlich	-10.4637
▁Neue	-10.4643
▁Zwecke	-10.4644
▁modern	-10.4644
▁unterzeichnet	-10.465
▁anwesend	-10.4656
her	-10.4657
▁organisieren	-10.4658
▁Darstellung	-10.4664
▁Fest	-10.4666
▁Eigentum	-10.4669
▁Doppel	-10.4678
▁gering	-10.4678
▁behalten	-10.4682
▁Respekt	-10.4685
▁Mir	-10.4687
end	-10.4689
kommt	-10.469
▁nunmehr	-10.4696
▁finanziert	-10.4697
▁voraus	-10.47
▁Korruption	-10.4701
ü	-10.4702
▁Stimmen	-10.4706
ling	-10.4707
▁Metall	-10.4711
▁verbinden	-10.4717
▁fort	-10.4718
▁sur	-10.4719
au	-10.472
▁Insbesondere	-10.4722
▁para	-10.4726
▁ISO	-10.4729
▁Chancen	-10.4732
▁Bemerkung	-10.4733
▁solch	-10.4741
▁beschäftigen	-10.4742
▁Ausflüge	-10.4744
▁Vorsitz	-10.4745
▁wiederholen	-10.4748
▁me	-10.4752
▁geprägt	-10.4752
▁Verarbeitung	-10.4755
▁Besorgnis	-10.4757
enden	-10.4762
▁korrekt	-10.4766
▁Verantwortlich	-10.4772
▁beruht	-10.4773
▁Gleichstellung	-10.4773
▁rechtliche	-10.4777
▁Einkommen	-10.4779
▁sah	-10.4782
▁Mrd	-10.4783
▁Detail	-10.4787
▁einig	-10.4787
ei	-10.4793
▁Alles	-10.48
ga	-10.4802
des	-10.4802
programme	-10.4806
▁Pakete	-10.4808
▁Freitag	-10.4811
feld	-10.4817
▁Gegenstand	-10.4819
▁höheren	-10.4822
▁vorstellen	-10.4829
▁Versammlung	-10.4832
▁Fax	-10.4838
lo	-10.4847
ad	-10.485
▁entwickelten	-10.4861
▁my	-10.4862
produkte	-10.4869
▁Poker	-10.4869
ul	-10.4871
▁Verhandlungs	-10.4876
▁optimale	-10.4879
▁Spaß	-10.4881
▁ursprüngliche	-10.4883
ring	-10.4885
J	-10.4886
tre	-10.4888
▁gewünschte	-10.4896
tes	-10.49
▁Nachricht	-10.4904
▁8.	-10.4907
▁gerichtet	-10.4909
▁genannte	-10.4913
▁Per	-10.4916
▁aussprechen	-10.4922
▁Gang	-10.4924
▁03	-10.4925
▁Gefahren	-10.4937
▁Tür	-10.4938
▁verkaufen	-10.494
▁erlebt	-10.4942
▁PHP	-10.4946
0	-10.4952
▁Boot	-10.4955
▁schläg	-10.4964
ken	-10.4968
▁Erstellung	-10.4972
▁technologische	-10.4975
▁Einwohner	-10.4976
ien	-10.4978
▁1990	-10.4981
▁Gegen	-10.4986
▁letztendlich	-10.4986
▁Filter	-10.5001
▁liefert	-10.5005
▁reduzieren	-10.5006
▁eingebracht	-10.5006
▁geäußert	-10.5007
▁beschrieben	-10.501
werk	-10.5011
▁Zusätzlich	-10.5014
▁Wissenschaftler	-10.5015
▁Befugnisse	-10.5018
nationaler	-10.5018
▁verstärken	-10.5019
▁Marke	-10.502
welt	-10.5025
▁Blog	-10.5025
▁Flugzeug	-10.503
able	-10.5035
▁irgendeine	-10.504
▁Li	-10.5042
▁Bedrohung	-10.5043
▁Bereitstellung	-10.5044
▁Opposition	-10.5045
wert	-10.505
▁Erlebnis	-10.5051
▁Parkplatz	-10.5053
▁Ungarn	-10.5059
▁entschlossen	-10.5061
▁Gesellschaften	-10.5064
▁brachte	-10.5064
▁dargestellt	-10.5072
material	-10.5075
ez	-10.5077
▁Programmen	-10.5077
▁Tochter	-10.5079
▁erstmal	-10.5086
▁Oder	-10.5089
▁stehenden	-10.5091
▁äußern	-10.5094
▁Aktien	-10.5094
ha	-10.5096
▁Direkt	-10.5096
▁angepasst	-10.5097
▁individuellen	-10.5104
▁vorhandenen	-10.5106
▁Wohlstand	-10.5108
▁High	-10.5114
▁Betriebs	-10.5116
▁Nummer	-10.5119
▁Freunden	-10.512
▁gefährdet	-10.5125
▁Problems	-10.5134
▁erzeugt	-10.5134
▁komplexe	-10.5139
▁perfekte	-10.5143
▁Blut	-10.5144
▁angegebenen	-10.5147
▁Ankunft	-10.5151
so	-10.5152
▁Santa	-10.5153
▁AKP	-10.516
▁Resort	-10.516
▁zukünftige	-10.5163
▁nahm	-10.5164
▁En	-10.5165
▁individuell	-10.5165
▁Stoffe	-10.5177
▁IP	-10.518
isten	-10.5181
▁überprüft	-10.5182
▁Kommunikations	-10.5193
▁Kontakte	-10.5194
▁Anwender	-10.5198
ini	-10.5199
▁vermitteln	-10.5205
▁hart	-10.5206
▁Schönheit	-10.5208
▁Gelder	-10.5209
▁one	-10.5209
▁integrierte	-10.521
▁konzentriert	-10.5211
▁Mitarbeitern	-10.5217
▁angegeben	-10.5218
▁Geschmack	-10.5222
▁Bush	-10.5232
▁empfangen	-10.5238
ri	-10.524
zentrum	-10.524
▁komme	-10.5241
▁jenen	-10.5244
▁Madrid	-10.5244
▁Car	-10.5245
▁jener	-10.5248
▁vous	-10.525
▁weitgehend	-10.5255
▁Städten	-10.5256
▁Belgien	-10.5257
▁berufliche	-10.5259
▁österreichische	-10.5259
ski	-10.5265
selbe	-10.5272
▁sch	-10.5274
▁14.	-10.5275
▁Netze	-10.5278
▁eingehalten	-10.5279
▁Abhängigkeit	-10.5281
▁aktivieren	-10.5288
ale	-10.5292
▁entwickelte	-10.5304
igkeit	-10.5306
▁Bulgarien	-10.532
▁gewünscht	-10.532
▁fuer	-10.5322
▁Vorschlags	-10.5323
▁Fahrer	-10.5325
▁Newsletter	-10.5325
jenige	-10.5326
▁Orte	-10.5327
▁Armee	-10.5327
▁Mini	-10.5328
▁gearbeitet	-10.5333
▁Gewinn	-10.5334
▁bestimmter	-10.534
▁Viel	-10.5341
▁Versionen	-10.5343
▁genügend	-10.5345
▁Satelliten	-10.5346
▁eingestellt	-10.5347
▁sichere	-10.5347
▁Donnerstag	-10.5348
▁Hardware	-10.5348
▁Termin	-10.5348
▁Saison	-10.5351
▁Burg	-10.5352
▁Sektoren	-10.5352
▁Reduzierung	-10.5354
är	-10.5355
▁beigetragen	-10.5356
heim	-10.5358
▁est	-10.536
▁pour	-10.536
vor	-10.5362
▁Bars	-10.5364
wa	-10.5366
▁Entspannung	-10.5377
▁Val	-10.538
▁beteiligen	-10.5382
▁Q	-10.5383
dienst	-10.5386
▁PDF	-10.5388
▁Katastrophe	-10.5391
▁Männern	-10.5391
▁Vorsitzende	-10.5393
▁sauber	-10.5396
▁Schulen	-10.5397
▁beobachten	-10.5398
▁herrscht	-10.5402
▁König	-10.5402
▁Real	-10.5407
▁Kroatien	-10.5407
▁wunderschönen	-10.5408
▁kamen	-10.5411
▁last	-10.5416
▁sprach	-10.5418
▁Speicher	-10.5428
maschinen	-10.5429
fall	-10.543
▁Willkommen	-10.5433
▁Feuer	-10.5439
▁hinzu	-10.5445
▁Plätze	-10.5445
▁verboten	-10.5451
▁Schon	-10.5453
▁gekennzeichnet	-10.5453
▁has	-10.5458
▁nachdrücklich	-10.5459
▁Kollegin	-10.5461
▁nützlich	-10.5463
▁letzter	-10.5467
▁großem	-10.5474
▁To	-10.5479
▁bislang	-10.548
▁anbelangt	-10.5482
▁Amerikaner	-10.5483
▁verbindet	-10.5488
▁gegenseitige	-10.5497
▁WC	-10.5502
▁Glaubwürdigkeit	-10.5502
▁Apartment	-10.5504
▁Jahrzehnt	-10.5506
▁Darum	-10.5507
▁Gute	-10.5508
▁Luxus	-10.5508
▁entscheidender	-10.5508
▁Fahrzeuge	-10.5509
▁Heimat	-10.551
▁Update	-10.5512
▁EADS	-10.552
▁Konsultation	-10.5522
▁Passwort	-10.5528
▁Mo	-10.5532
▁9.	-10.5536
politischen	-10.5538
▁elektronischen	-10.5544
▁typische	-10.5548
▁Erfüllung	-10.5549
▁had	-10.5549
schen	-10.5552
▁existiert	-10.5552
ve	-10.5554
▁Anlass	-10.5555
▁bedauerlich	-10.5563
▁aufgeführt	-10.5572
▁grosse	-10.5573
▁Hof	-10.5574
▁Gerade	-10.5577
▁machte	-10.5581
▁beantworten	-10.5581
▁sozialer	-10.5587
▁Kanada	-10.5589
▁einzigartigen	-10.5591
▁Staates	-10.5592
▁entspannen	-10.5593
▁Heizung	-10.5594
▁schicken	-10.5596
▁Anstieg	-10.5598
▁2011	-10.5599
▁gestattet	-10.5601
▁Eis	-10.5608
gesellschaften	-10.5611
▁Kontrollen	-10.5615
▁beendet	-10.5615
▁endgültige	-10.5616
▁Entwicklungs	-10.5618
▁Politiken	-10.5626
▁tief	-10.5629
▁Revolution	-10.563
▁Redner	-10.5631
▁ökologische	-10.5637
▁spezialisiert	-10.5638
hof	-10.5641
schaftliche	-10.5643
▁Vorhaben	-10.5643
▁Autobahn	-10.5644
▁allzu	-10.5649
▁Andere	-10.565
▁geeignete	-10.5657
▁Modelle	-10.5658
▁kontrolliert	-10.566
▁Prozesse	-10.5664
▁how	-10.5664
▁leichter	-10.5672
wettbewerbsfähig	-10.5673
▁weist	-10.568
▁Quellen	-10.568
▁sichtbar	-10.5681
▁na	-10.5688
preis	-10.5689
▁anschließend	-10.5692
▁wohnen	-10.5694
▁Wählen	-10.5696
▁Schulden	-10.5702
▁Know	-10.5706
bahn	-10.5706
▁Fahrt	-10.5706
▁Übrigen	-10.571
▁abzu	-10.571
▁Dokumentation	-10.5712
▁auftreten	-10.5713
▁bedeutende	-10.5715
▁Verteilung	-10.5722
▁Wiederaufbau	-10.5726
▁Typ	-10.5734
▁verteidigen	-10.5738
▁Kabel	-10.5739
▁Port	-10.574
▁untersucht	-10.5743
▁breakfast	-10.5744
▁eventuell	-10.575
▁fertig	-10.575
▁parlamentarisch	-10.5756
▁Mission	-10.5757
▁effiziente	-10.576
barkeit	-10.576
▁Not	-10.5766
▁Media	-10.5767
▁Haushaltsplan	-10.577
▁una	-10.5772
weit	-10.5783
▁Sozialdemokrat	-10.5787
▁Paul	-10.579
▁Preisen	-10.579
▁Suiten	-10.5791
▁Gehminuten	-10.58
srecht	-10.5803
▁einzig	-10.5804
▁wahr	-10.5815
▁Ex	-10.5819
▁German	-10.582
▁betreiben	-10.5821
▁offiziellen	-10.5823
▁Widerspruch	-10.5824
per	-10.5825
▁kleines	-10.5826
qualität	-10.5826
▁stärkere	-10.5828
á	-10.5828
▁Brasilien	-10.5829
ica	-10.5829
▁Mac	-10.5832
▁Maria	-10.5845
▁begrenzt	-10.5846
▁Gleich	-10.5849
▁Gerechtigkeit	-10.5851
▁vorzulegen	-10.5851
▁Wetter	-10.5854
▁Praktiken	-10.5855
▁Parameter	-10.5856
▁Lu	-10.5858
▁mittleren	-10.5861
▁Montag	-10.5865
▁Übergang	-10.5866
▁Videos	-10.5878
▁vorgestellt	-10.5882
▁Veränderung	-10.5883
▁investieren	-10.5889
▁höchst	-10.5896
▁Verzögerung	-10.5898
▁einzusetzen	-10.5905
▁Bildschirm	-10.5907
▁Schweizer	-10.5908
▁nachhaltig	-10.5909
▁Spannung	-10.5911
▁besucht	-10.5914
▁gewissen	-10.5916
dienstleistungen	-10.5919
▁Positionen	-10.5932
▁empfohlen	-10.5933
▁versichern	-10.5937
▁Multi	-10.594
technologie	-10.5942
▁Allianz	-10.5946
tion	-10.5948
▁Con	-10.5948
▁Herbst	-10.5959
▁ersetzen	-10.5966
▁Ka	-10.5967
anlage	-10.5971
▁Alpen	-10.5972
▁aufgebaut	-10.5972
▁staatliche	-10.5976
▁gelingt	-10.5977
▁Martin	-10.5981
▁stellte	-10.5982
▁Wachstums	-10.5988
▁Ablehnung	-10.5989
▁Power	-10.5994
▁unterscheiden	-10.5995
beschreibung	-10.6002
up	-10.6005
▁Sind	-10.6008
▁Organe	-10.6009
▁Lo	-10.601
▁Branche	-10.6011
verwaltung	-10.6012
▁Bibliothek	-10.6014
▁einbezogen	-10.6016
▁kontaktieren	-10.6019
▁Dach	-10.6021
▁breiten	-10.6022
▁gefährlich	-10.6024
▁bekommt	-10.6024
▁bilaterale	-10.6027
▁tritt	-10.6033
▁professionelle	-10.6035
▁streng	-10.6036
▁umfangreiche	-10.6036
▁Los	-10.6037
▁par	-10.6039
▁Di	-10.604
▁rooms	-10.6043
▁mussten	-10.6044
▁Genießen	-10.6046
▁geringer	-10.6054
Frühstücksbuffet	-10.6055
▁Internationale	-10.6068
▁klaren	-10.6087
▁hervorgehoben	-10.6089
▁begleitet	-10.6089
▁1994	-10.6089
▁bar	-10.6093
▁Entfernung	-10.6095
que	-10.6096
liegt	-10.6097
▁enorme	-10.6098
▁which	-10.6101
▁Vorausschau	-10.6101
shilfe	-10.6103
▁PT	-10.6108
▁wenigsten	-10.6109
▁effektive	-10.6111
▁getragen	-10.6111
▁Perspektive	-10.6114
▁Festival	-10.6115
▁unterliegen	-10.6119
ow	-10.6119
▁Stiftung	-10.6122
tag	-10.6123
▁könnt	-10.6124
▁Grünen	-10.6124
▁Betten	-10.6125
▁John	-10.613
▁Modul	-10.6136
▁Ausmaß	-10.6138
▁Au	-10.6145
▁Werbe	-10.6149
▁fördert	-10.615
▁unterstreichen	-10.6153
▁teile	-10.6154
▁industrielle	-10.616
▁behaupten	-10.616
▁Widerstand	-10.6162
▁Dokumenten	-10.6165
▁mitteilen	-10.6168
▁Freizügigkeit	-10.6168
▁House	-10.6172
▁Via	-10.6172
▁Kriminalität	-10.6175
▁Peter	-10.6185
punkt	-10.6187
▁Michael	-10.6187
▁gefallen	-10.6192
▁natürliche	-10.6195
▁Öffnung	-10.6196
▁konfrontiert	-10.6202
kraft	-10.6205
▁Abendessen	-10.6206
▁vorliegende	-10.6206
▁abstimmen	-10.6209
▁Prozesses	-10.6211
▁Van	-10.6211
▁spät	-10.6213
▁Vorlage	-10.6216
▁anzu	-10.6216
▁zukünftigen	-10.622
▁Runde	-10.6226
▁erfreut	-10.6226
▁inter	-10.6226
▁Planeten	-10.623
▁England	-10.6237
▁bezahlt	-10.6239
ah	-10.6245
▁Nachbarschaft	-10.6246
▁angebracht	-10.6246
kt	-10.6267
▁herunterladen	-10.6271
ki	-10.6272
▁Objekt	-10.6272
▁kostenfrei	-10.6272
▁geregelt	-10.628
▁Ansichten	-10.628
▁bisherigen	-10.6284
▁USB	-10.6285
▁Vereinfachung	-10.6289
preise	-10.629
▁fehlende	-10.6292
▁Fa	-10.6292
namen	-10.6294
▁Parkplätze	-10.6294
▁anschließen	-10.6301
▁entdeckt	-10.6303
▁erhoben	-10.6304
▁Shop	-10.6304
sfreiheit	-10.6312
wechsel	-10.6314
ive	-10.6314
ierten	-10.6314
▁Ausschüsse	-10.6314
▁Zusammen	-10.6317
▁Rückkehr	-10.632
▁Wochenende	-10.6321
rat	-10.6325
▁Zypern	-10.6326
▁Aktionsplan	-10.6329
▁dankbar	-10.6333
▁angewendet	-10.6333
▁Akteure	-10.6335
▁stammt	-10.6342
▁Eingang	-10.6343
▁Hamburg	-10.6344
▁Tätigkeiten	-10.6344
▁kommerzielle	-10.6344
▁il	-10.6345
▁maximal	-10.6349
▁EZB	-10.6349
▁Eisenbahn	-10.6349
▁behoben	-10.6352
▁Fernsehen	-10.6352
▁Frist	-10.6356
▁Tausende	-10.6358
▁geraten	-10.6362
▁knapp	-10.6363
▁Ausrüstung	-10.6364
▁Katalog	-10.6373
▁31	-10.6377
▁negativ	-10.6381
▁anzuzeigen	-10.6383
▁angewandt	-10.6385
▁po	-10.6392
▁ergänzt	-10.6411
age	-10.6416
▁eingeleitet	-10.6417
▁Institut	-10.642
▁Ca	-10.6422
▁Gut	-10.6422
▁personenbezogen	-10.6424
▁Sohn	-10.6425
hotel	-10.6425
arbeiten	-10.6426
▁hinweg	-10.643
▁lag	-10.6435
▁gefragt	-10.6437
▁Abteilung	-10.6437
▁Abschaffung	-10.6443
liste	-10.6445
▁Bereitschaft	-10.6446
▁Nachhaltigkeit	-10.6459
▁Y	-10.6464
▁Faktor	-10.6471
▁internen	-10.6481
▁Konflikte	-10.6485
▁Statt	-10.6485
▁Erwägung	-10.6488
▁komplette	-10.649
▁User	-10.6492
▁Katastrophen	-10.6493
▁polnische	-10.6495
▁gebeten	-10.6498
▁zugrunde	-10.6501
▁gültig	-10.6504
▁Weiteren	-10.6504
▁Anmeldung	-10.6508
hingegen	-10.6509
fragen	-10.651
▁Maschine	-10.6513
▁kontrollieren	-10.6514
▁eignet	-10.6519
▁Street	-10.6519
▁plus	-10.6521
▁herum	-10.6523
▁rechtzeitig	-10.6525
▁Volkes	-10.6537
▁....	-10.6537
▁Hindernisse	-10.6539
▁präsentieren	-10.6542
tschaftswachstum	-10.6546
▁dans	-10.6549
▁Volkswirtschaft	-10.655
▁läß	-10.6552
▁Traum	-10.6553
▁anhand	-10.6554
▁Finanzkrise	-10.6556
ial	-10.6556
▁Kandidaten	-10.6557
▁schlagen	-10.6558
▁75	-10.6572
▁Me	-10.6573
▁froh	-10.6573
▁Ebenen	-10.6574
▁Gegner	-10.658
▁Barroso	-10.6583
▁qualitativ	-10.6584
▁Beide	-10.6587
▁geehrte	-10.6587
▁Versorgung	-10.659
▁Nachbarn	-10.6596
▁digitale	-10.6606
▁geliefert	-10.6608
▁festzulegen	-10.6612
▁besonderer	-10.6613
▁Mängel	-10.6614
▁militärischen	-10.6614
▁verdienen	-10.6614
▁Regierungschefs	-10.6616
▁Straßburg	-10.6618
▁Besitz	-10.6622
U	-10.6623
gebiet	-10.6628
▁Augenblick	-10.663
▁befasst	-10.6631
▁Binnenmarktes	-10.6632
▁Volksgesundheit	-10.6634
▁Bestimmung	-10.6636
▁29	-10.6636
offentlich	-10.6637
▁teil	-10.664
▁Sachen	-10.664
▁Großteil	-10.6645
▁Spezial	-10.6648
che	-10.6648
ell	-10.6654
▁Dritten	-10.6656
▁Erhaltung	-10.6656
▁Verlauf	-10.6656
▁infolge	-10.6662
▁momentan	-10.6664
ate	-10.6668
▁Kulturen	-10.6669
▁Potenzial	-10.667
▁gegenseitig	-10.6681
▁Felder	-10.6685
▁westliche	-10.6685
▁Pflege	-10.6688
▁gewähren	-10.6693
▁las	-10.6693
▁Reisen	-10.67
▁gestärkt	-10.6709
▁Do	-10.6712
▁Milch	-10.6715
▁Häuser	-10.6718
▁Serbien	-10.6722
▁Ratifizierung	-10.6723
▁erwähnen	-10.6727
▁Beteiligten	-10.6727
▁Zielen	-10.673
▁Premierminister	-10.6732
▁Dritte	-10.6735
▁Schüler	-10.6736
▁Free	-10.6741
richtlinie	-10.6744
▁Kongress	-10.6746
▁zieht	-10.6752
▁Betriebe	-10.676
▁flexible	-10.6762
▁Freund	-10.6763
▁Entwickler	-10.6764
▁Stärke	-10.6769
▁freundliche	-10.6771
▁normalerweise	-10.6774
▁Märkten	-10.6777
▁westlich	-10.6779
ac	-10.6781
▁Urteil	-10.6783
▁Benutzung	-10.6784
▁besorgt	-10.679
▁Ruf	-10.6799
▁ha	-10.6799
▁Innenstadt	-10.6804
▁überein	-10.6808
▁30.	-10.6809
▁Zeitung	-10.681
▁Kreditkarte	-10.6811
ari	-10.6813
zeitigen	-10.6816
▁mehrfach	-10.6817
30	-10.6817
straße	-10.682
▁speichern	-10.6824
▁Front	-10.6826
führer	-10.6838
▁unentgeltlich	-10.6839
▁außen	-10.6842
▁verwende	-10.6849
▁verletzt	-10.685
▁ausgewogene	-10.6853
▁endgültig	-10.6855
▁hervorragenden	-10.6855
▁Album	-10.6855
ungs	-10.6858
▁bedanken	-10.6863
▁Profil	-10.6863
▁Bezeichnung	-10.6864
▁Investition	-10.6866
▁zurückzuführen	-10.6867
▁Systemen	-10.6871
▁Rechner	-10.6875
▁Betreuung	-10.6876
rechte	-10.6879
▁betrieben	-10.6882
▁beschränken	-10.6882
▁Rück	-10.6883
▁Speisen	-10.6884
▁scheinen	-10.69
▁Energien	-10.6903
▁Sound	-10.6909
struktur	-10.6912
▁Schul	-10.6914
▁Email	-10.692
▁rechten	-10.6921
▁Meines	-10.6932
▁überaus	-10.6933
▁normalen	-10.6934
▁Würde	-10.6934
▁mündliche	-10.6935
▁umfassend	-10.6936
▁vereint	-10.6939
▁schwierige	-10.6941
▁konstruktive	-10.6943
▁Euch	-10.6945
▁neun	-10.6945
▁Museen	-10.6958
▁Muster	-10.6963
▁ber	-10.6966
▁Flash	-10.6969
▁optimal	-10.6969
▁Schreiben	-10.697
leitung	-10.6972
ap	-10.6976
▁Alt	-10.6978
▁wünsche	-10.6983
▁Ursachen	-10.6989
ort	-10.699
burg	-10.6992
▁luxuriöse	-10.6994
▁Chinas	-10.6995
band	-10.7002
min	-10.7003
▁clean	-10.7003
▁Mexiko	-10.7005
gel	-10.7006
▁su	-10.7011
▁erweitern	-10.7015
▁Belarus	-10.7019
▁Verwaltungs	-10.702
▁bekannte	-10.7024
▁Erwachsene	-10.7025
▁umsetzen	-10.703
▁Formulierung	-10.7032
▁Wärme	-10.7032
▁Rand	-10.7033
▁Sonntag	-10.7034
▁Zucker	-10.7037
▁Vertrages	-10.7039
ty	-10.7042
▁Bücher	-10.7043
▁Glauben	-10.7043
▁Käufer	-10.7047
▁Quelle	-10.7048
▁Zahlungen	-10.7048
ert	-10.7048
▁Länge	-10.7049
▁Modernisierung	-10.7052
▁Finnland	-10.7056
▁externen	-10.7059
systems	-10.7063
▁Samstag	-10.7072
▁On	-10.7073
▁Mandat	-10.7075
▁Zone	-10.7081
▁Finde	-10.7089
▁medizinische	-10.7094
▁offizielle	-10.7095
zen	-10.7097
▁antworten	-10.7099
▁Mode	-10.7102
▁Überblick	-10.711
▁Ferienwohnung	-10.7111
▁diverse	-10.7113
▁Truppen	-10.7113
▁48	-10.7114
park	-10.7116
▁einzuführen	-10.712
▁zugelassen	-10.7126
▁faire	-10.713
▁Bestätigung	-10.7133
▁Tee	-10.7135
▁zerstört	-10.7135
▁niederländische	-10.7139
▁Wohn	-10.7143
beauftragten	-10.7144
▁vornehmen	-10.7146
▁Generationen	-10.7152
buch	-10.7153
▁älteste	-10.7153
▁Strecke	-10.7158
▁herrliche	-10.7161
▁Last	-10.7172
▁stattfindet	-10.7174
▁modifie	-10.7174
rad	-10.7176
▁Kennzeichnung	-10.7181
▁mittlere	-10.7183
▁enthaltenen	-10.7185
▁2013	-10.7192
▁rufen	-10.7197
▁heißen	-10.7198
abkommen	-10.7199
▁Temperatur	-10.7199
▁04	-10.7203
▁erfordern	-10.7203
▁Kopenhagen	-10.7205
▁98	-10.7205
▁Agenturen	-10.7207
▁Satz	-10.7213
▁Gottes	-10.7216
▁via	-10.7219
ssysteme	-10.7219
sausschuss	-10.7222
▁generell	-10.7224
▁Haben	-10.7228
▁wahren	-10.7229
▁sichergestellt	-10.7229
▁berechnet	-10.7232
branche	-10.7242
▁Hauptbahnhof	-10.7253
▁Luxemburg	-10.7258
▁verringert	-10.7259
sprinzip	-10.7261
▁Somit	-10.7263
▁solide	-10.7266
leben	-10.7272
▁Or	-10.7278
▁klassischen	-10.7282
▁mittlerweile	-10.7283
▁Po	-10.7284
ada	-10.729
▁Weltkrieg	-10.7291
▁Berliner	-10.7291
▁Regional	-10.7294
▁Kategorien	-10.7298
ano	-10.7304
▁Doppelzimmer	-10.7304
▁Existenz	-10.7306
▁Krisen	-10.7307
▁Fußball	-10.7308
▁bedroht	-10.7311
▁Persönlichkeit	-10.7315
▁Branchen	-10.7316
▁bauen	-10.7319
▁festgelegten	-10.7321
▁bewältigen	-10.7321
pa	-10.7321
▁Autor	-10.7322
svorschlag	-10.7323
▁kritisch	-10.7326
▁Ausbau	-10.7328
▁Palästinenser	-10.7328
▁grossen	-10.7332
see	-10.7333
▁Grundlagen	-10.7336
▁Immer	-10.7338
ach	-10.7339
▁Wandel	-10.734
sehen	-10.7342
▁Deine	-10.7346
▁selber	-10.7349
▁Arbeitgeber	-10.7354
Wirtschaftskrise	-10.7358
Energieeffizienz	-10.7362
▁gegenwärtige	-10.7366
▁gedacht	-10.7371
▁bestellen	-10.7373
▁türkischen	-10.7379
▁just	-10.7379
ix	-10.7383
▁avec	-10.7384
▁spanische	-10.7386
▁offenbar	-10.7389
▁Lounge	-10.7391
▁erklärte	-10.7392
▁Suite	-10.7393
▁organisierte	-10.7399
▁Niederlanden	-10.74
▁frage	-10.7406
▁überlassen	-10.7407
▁25.	-10.7408
▁Se	-10.7415
forschung	-10.7417
▁unmittelbarer	-10.7418
▁sexuelle	-10.742
greift	-10.7421
stelle	-10.7423
▁Jean	-10.7425
▁Pakistan	-10.7426
▁Minute	-10.743
▁Bundes	-10.7431
▁Saint	-10.7432
▁Berge	-10.7433
▁früh	-10.7434
▁Bauern	-10.7438
pe	-10.744
▁qualifizierte	-10.7444
arten	-10.7445
▁Tonnen	-10.7446
▁Richter	-10.7451
du	-10.7452
spräsident	-10.7455
▁Il	-10.7456
▁Verzeichnis	-10.7459
▁überwinden	-10.746
bo	-10.7461
▁Oberfläche	-10.7465
▁36	-10.7468
▁spreche	-10.7471
▁Ägypten	-10.7478
maschine	-10.7482
▁Linien	-10.7486
▁elektronische	-10.7492
▁33	-10.7492
▁gesetzlichen	-10.7498
▁Ergänzung	-10.7503
▁enger	-10.7509
▁verschiedenste	-10.7511
▁Hohe	-10.7511
▁Todesstrafe	-10.7516
▁erkannt	-10.7517
▁richtet	-10.7517
▁hast	-10.7518
▁erteilt	-10.7524
▁Beseitigung	-10.7527
▁bereitet	-10.7531
▁errichtet	-10.7531
▁digitalen	-10.7534
▁renoviert	-10.7537
▁Her	-10.7539
tro	-10.754
ya	-10.754
▁Andererseit	-10.7542
▁frisch	-10.7544
▁Zusammenhalt	-10.7546
▁Währungsunion	-10.7548
▁Investoren	-10.7549
▁untersuchen	-10.7556
ity	-10.7556
▁Ho	-10.756
strategie	-10.7565
▁Patent	-10.7566
▁Digital	-10.7566
▁Einwanderer	-10.7569
▁weltweite	-10.7574
geschäft	-10.7578
▁anzubieten	-10.758
I	-10.7582
▁lebt	-10.7582
▁min	-10.7582
▁Revision	-10.7585
▁Umsatz	-10.7589
▁erzeugen	-10.7593
▁frühen	-10.7595
ian	-10.7596
▁Eurozone	-10.7598
▁herrlichen	-10.7609
▁präzise	-10.7612
▁34	-10.7613
▁Kampagne	-10.7615
▁Pass	-10.7617
▁wider	-10.7619
▁vernünftig	-10.7623
▁gleichermaßen	-10.7623
▁Lehrer	-10.7623
▁auffordern	-10.7633
▁verweisen	-10.7635
▁steigen	-10.7636
▁verantwortungs	-10.7636
▁beenden	-10.7641
▁Objekte	-10.7642
über	-10.7644
▁friedliche	-10.7646
▁III	-10.7651
▁Effekt	-10.7655
▁Präsenz	-10.7658
▁kombiniert	-10.7659
res	-10.766
▁griechischen	-10.766
▁Sieg	-10.7662
▁Finanzielle	-10.7662
zugehen	-10.7665
▁freut	-10.7667
▁Senkung	-10.7669
▁illegal	-10.7673
▁Auflösung	-10.7688
▁zulassen	-10.7689
▁1992	-10.7691
▁Betreiber	-10.7692
zo	-10.7695
▁enge	-10.7697
▁Rechnungshof	-10.7702
fläche	-10.7706
▁ethnische	-10.7707
▁cm	-10.7707
▁Ne	-10.7708
▁keinem	-10.7708
▁Weiter	-10.7709
▁Hinweise	-10.771
▁Mechanismen	-10.7711
▁Himmel	-10.7712
▁jüngste	-10.7715
▁Wohnzimmer	-10.7719
▁Stock	-10.772
▁laufend	-10.7726
▁Drittel	-10.7732
▁Wähler	-10.7747
▁Massen	-10.7749
▁schätzen	-10.7754
▁enthalt	-10.7755
▁Fläche	-10.776
bildung	-10.7762
▁grundlegend	-10.7762
▁PPE	-10.7763
▁aktiviert	-10.7765
▁Rock	-10.7768
50	-10.7775
▁Lesen	-10.7776
▁pre	-10.7777
les	-10.778
▁Ablauf	-10.7783
aktivitäten	-10.7783
▁Jugendlichen	-10.7784
▁Designer	-10.779
▁Tool	-10.7791
▁Kernel	-10.7797
▁Unterhaltung	-10.7798
▁Airport	-10.7799
▁Hat	-10.7801
▁Auseinandersetz	-10.7802
▁Mädchen	-10.7806
▁Teams	-10.7812
▁Venedig	-10.7813
▁Journalisten	-10.7819
▁vernünftige	-10.7821
▁Global	-10.7823
▁free	-10.7824
▁stammen	-10.7826
▁IN	-10.7827
▁Wieder	-10.783
▁Schnee	-10.7834
▁Vorgehensweise	-10.7835
▁beinhalten	-10.7835
ola	-10.7838
▁1000	-10.7843
▁wirkt	-10.7845
▁super	-10.7846
▁hierzu	-10.785
▁bestand	-10.785
▁Spezialitäten	-10.7851
▁produzieren	-10.7851
▁Versand	-10.7852
▁Archiv	-10.7855
▁Bo	-10.7856
▁hervorragend	-10.7859
po	-10.7864
▁Dänemark	-10.7867
▁Appartements	-10.7869
▁schweren	-10.7876
▁Beachtung	-10.7878
▁erarbeitet	-10.7879
▁Zuverlässigkeit	-10.7886
▁Spielen	-10.7886
leistungen	-10.7891
▁Gebühren	-10.7892
▁Bereits	-10.7894
▁beliebige	-10.7894
▁Datum	-10.7895
▁angekündigt	-10.7899
▁Weil	-10.79
▁realer	-10.7901
▁genaue	-10.7908
▁kosten	-10.7909
▁einmalige	-10.791
▁egal	-10.7913
▁Debatten	-10.7913
sstaatlichkeit	-10.7916
▁Reinigung	-10.7916
one	-10.7917
skosten	-10.7921
▁Autos	-10.7928
▁Anhörung	-10.7929
▁Show	-10.793
▁Produktivität	-10.7933
hersteller	-10.7935
▁dauert	-10.7935
▁Konzert	-10.7937
▁Sobald	-10.7939
▁wunderschöne	-10.7939
vo	-10.7939
ba	-10.7945
▁festzustellen	-10.7945
▁Kirchen	-10.7947
▁Mehrwertsteuer	-10.7948
▁kümmern	-10.7955
kommen	-10.7964
▁Schicksal	-10.7966
zutreten	-10.7968
▁eigener	-10.7968
ado	-10.7968
▁anzunehmen	-10.7973
▁Philosophie	-10.7974
▁Übernahme	-10.7976
▁31.	-10.798
Kohäsionspolitik	-10.7981
▁Eröffnung	-10.7985
ium	-10.7988
mar	-10.7991
schaftlichen	-10.7992
gar	-10.7994
bringen	-10.7996
▁Pa	-10.7997
▁mögen	-10.7997
▁Lobby	-10.7999
▁beabsichtigt	-10.8002
▁kritische	-10.8003
▁gewidmet	-10.8003
▁aufgestellt	-10.8004
▁Umweltfrage	-10.8004
▁Pre	-10.8005
▁senken	-10.8014
▁Verwirklichung	-10.8014
q	-10.8016
▁MP	-10.8018
▁Lauf	-10.8018
▁GAP	-10.802
are	-10.8021
▁Verfahrens	-10.8022
▁zunehmende	-10.8025
▁Ansprüche	-10.8025
▁mangelnde	-10.8025
▁Bedürfnissen	-10.8027
▁Strände	-10.803
▁Ganze	-10.8033
▁Anzeige	-10.8033
betrieb	-10.8033
▁getrennt	-10.8034
tz	-10.8039
▁konsequent	-10.8043
▁800	-10.8048
ju	-10.805
▁Abfall	-10.8051
▁Mechanismus	-10.8051
va	-10.8061
▁fair	-10.8061
▁Aufzug	-10.8062
▁Berechnung	-10.8063
▁nice	-10.8069
▁vertraut	-10.807
▁Panorama	-10.8073
▁Vorrang	-10.8075
▁Wirksamkeit	-10.8077
▁langjährige	-10.8078
tenden	-10.8079
▁Lieferanten	-10.8082
▁Aussage	-10.8082
è	-10.8083
▁JavaScript	-10.8085
▁zeichnet	-10.8086
▁250	-10.8088
▁Dingen	-10.8089
ben	-10.8091
▁Getränke	-10.8092
▁USS	-10.8095
▁entdeck	-10.8105
▁wirkliche	-10.8107
▁Handy	-10.811
▁Konzentration	-10.8111
▁Schuld	-10.8112
▁soeben	-10.8114
fa	-10.8114
▁Mitentscheidung	-10.8115
▁nutzt	-10.8119
▁Übersicht	-10.8123
▁Visa	-10.8126
▁Wechsel	-10.8126
▁bedeutenden	-10.8126
▁angelegt	-10.8128
▁Elektro	-10.8138
▁23.	-10.814
▁Tests	-10.8142
▁oberste	-10.8142
▁Java	-10.8145
▁24.	-10.8147
▁Errichtung	-10.815
▁maximale	-10.8152
▁portugiesische	-10.8154
▁Ma	-10.8157
▁Tanz	-10.816
▁Card	-10.8163
▁07	-10.8166
▁Grenz	-10.8168
▁post	-10.817
▁schwere	-10.817
gang	-10.8171
▁stelle	-10.8173
▁Jahrzehnte	-10.8173
▁Bewohner	-10.8178
▁glücklich	-10.8179
▁great	-10.8182
▁there	-10.8185
▁berichtet	-10.8186
▁Fassung	-10.8187
▁erstklassige	-10.8189
▁Konvent	-10.8189
▁Vertretung	-10.8197
▁ansprechen	-10.8198
▁reisen	-10.8199
▁service	-10.8201
verkehr	-10.8205
▁hilfreich	-10.8206
▁Georgien	-10.8209
▁kontinuierlich	-10.821
▁Vertretern	-10.821
▁Zeitplan	-10.8214
▁ausgegeben	-10.8215
▁wesentlicher	-10.8218
▁ergänzen	-10.8219
▁Spitze	-10.8221
▁aktualisiert	-10.8222
▁ausüben	-10.8228
▁Filme	-10.8229
▁Massage	-10.823
fahren	-10.8235
▁Client	-10.8236
▁Transfer	-10.8238
▁sucht	-10.8239
▁37	-10.8241
▁News	-10.8242
gemeinschaft	-10.8246
▁israelische	-10.8248
▁detaillierte	-10.825
handel	-10.8254
▁aktuell	-10.8255
▁Annehmlichkeit	-10.8258
▁Ausarbeitung	-10.8258
▁schlechte	-10.8258
▁beeinflussen	-10.8261
▁hinein	-10.8264
▁like	-10.8265
▁Zusatz	-10.8265
▁festlegen	-10.8266
▁Jedo	-10.8268
▁weisen	-10.8272
▁Vertrieb	-10.8273
▁Europe	-10.8274
▁Kredit	-10.8274
▁vermittelt	-10.8277
▁sicheren	-10.8277
▁reagiert	-10.8278
geräte	-10.8278
▁Kommentare	-10.828
▁ES	-10.8285
▁Dialogs	-10.8287
▁Resolution	-10.8292
▁älteren	-10.8292
▁Zentral	-10.8302
▁1993	-10.8303
weise	-10.8307
chi	-10.8311
▁Migration	-10.8313
▁Ratschlag	-10.8314
▁us	-10.8318
▁beantwortet	-10.8321
▁Anträge	-10.8322
▁Mess	-10.8329
▁entscheidenden	-10.833
▁08	-10.8331
▁Berufs	-10.8332
▁Souveränität	-10.8334
▁jedenfall	-10.8335
▁gesammelt	-10.8337
ziehen	-10.8341
▁EL	-10.8343
▁Rahmenprogramm	-10.8345
durchschnittlich	-10.835
▁Konzern	-10.8351
▁chemische	-10.8351
▁abgegeben	-10.8351
▁600	-10.8352
▁ne	-10.8359
▁NICHT	-10.8361
▁Nizza	-10.8361
▁übermittelt	-10.8365
▁Brand	-10.8366
▁22.	-10.8366
▁wunderbare	-10.8366
▁Fi	-10.8368
ting	-10.8371
▁einzelstaatlich	-10.8376
▁vorzunehmen	-10.8379
▁Flughäfen	-10.838
▁Französisch	-10.8382
▁Anweisung	-10.8385
▁ansehen	-10.839
ies	-10.8393
▁Monte	-10.8394
▁schriftliche	-10.8399
zahl	-10.8399
▁belgische	-10.8406
▁angeschlossen	-10.8408
sport	-10.8409
▁che	-10.8412
▁sa	-10.8415
▁Projekts	-10.8415
▁Cookies	-10.8416
▁Verhältnisse	-10.842
т	-10.8421
▁Dringlichkeit	-10.8422
▁Florenz	-10.8422
▁Funktionalität	-10.8422
▁Leiter	-10.8423
zeiten	-10.8425
▁Keine	-10.8427
▁si	-10.8428
ho	-10.8431
▁Empfänger	-10.8432
▁behält	-10.8435
▁wachsenden	-10.8438
▁Unterkünfte	-10.8439
▁Zuge	-10.8439
▁schnellen	-10.844
▁Besuchen	-10.8441
▁Beach	-10.8442
stellung	-10.8444
▁kurzfristig	-10.8445
▁Durchsetzung	-10.8446
▁bevorstehende	-10.8448
▁ältere	-10.8449
▁deutliche	-10.8449
▁por	-10.8452
▁Internetzugang	-10.8453
▁Su	-10.8455
▁entfernen	-10.8455
▁gefährliche	-10.8455
▁effizienter	-10.8455
typ	-10.8456
▁kennt	-10.8458
▁berühmte	-10.8459
▁angemessenen	-10.8462
▁Prozeß	-10.8464
angebot	-10.8465
▁Bier	-10.8471
▁Äußerung	-10.8476
▁hinzugefügt	-10.8476
▁steigern	-10.8478
▁Hi	-10.848
▁dargelegt	-10.848
▁günstige	-10.848
▁Parlamente	-10.8483
▁kleinere	-10.8483
▁Appartement	-10.8486
▁oftmal	-10.8488
karte	-10.8492
▁trat	-10.8495
▁Händler	-10.8495
▁Besonderheit	-10.8495
▁06	-10.8496
▁Empfang	-10.8498
▁sammeln	-10.8498
▁Agrar	-10.8501
▁Ausrichtung	-10.8502
▁time	-10.8502
iz	-10.8505
lu	-10.8506
▁wahre	-10.8506
▁Wissens	-10.851
▁Genau	-10.8511
▁Luftfahrt	-10.8513
▁ruhige	-10.8514
▁Gesetzes	-10.8514
▁Küsten	-10.8514
▁vorliegen	-10.8515
▁Kaiser	-10.8515
▁erwiesen	-10.8522
▁Reich	-10.8527
teil	-10.853
sfonds	-10.853
▁mo	-10.8532
bare	-10.8533
▁entstand	-10.8534
▁leistet	-10.8535
▁angenehm	-10.8536
▁Unternehmer	-10.8539
▁verstärkte	-10.8539
leistung	-10.8542
▁überwachen	-10.8542
▁Obama	-10.8542
svorschläge	-10.8543
▁versteht	-10.8544
ck	-10.8544
▁Hilfs	-10.8547
wächst	-10.8551
▁Frei	-10.8554
▁Min	-10.8554
▁Werden	-10.8555
▁Laden	-10.856
▁großartige	-10.8566
▁ausführlich	-10.8568
▁interne	-10.8568
▁grammatisch	-10.8569
▁ECU	-10.8571
▁eindeutige	-10.8572
▁unterbreitet	-10.8573
▁finanzieren	-10.8574
▁Erhalt	-10.8574
▁Ersatz	-10.8575
▁Siedlung	-10.8577
▁Ausblick	-10.858
▁Außenminister	-10.8581
▁views	-10.8586
▁ernsthafte	-10.8587
▁anwenden	-10.8594
▁Prodi	-10.8598
▁Abbau	-10.8599
▁Argumente	-10.8601
▁Safe	-10.8601
ex	-10.8602
pro	-10.861
▁Ergebnissen	-10.8616
▁Vordergrund	-10.8616
▁friendly	-10.8624
▁geniessen	-10.8632
▁Besitzer	-10.8634
▁Pension	-10.8637
▁Erfolge	-10.864
▁angenehmen	-10.8642
▁Ehre	-10.8643
▁Dom	-10.8644
▁formuliert	-10.8645
▁Innovationen	-10.8647
▁Saal	-10.8647
▁Listings	-10.865
▁Image	-10.8656
▁bewerten	-10.8665
▁get	-10.8665
▁Prag	-10.8666
▁Folgende	-10.8669
vi	-10.867
fest	-10.8673
▁Spaziergang	-10.8676
▁derjenige	-10.8676
zug	-10.8679
▁Zerstörung	-10.868
▁antike	-10.868
▁Airbus	-10.8682
▁Mischung	-10.8683
tin	-10.8685
▁Aktualisierung	-10.8687
▁Vi	-10.8689
▁Zwar	-10.8697
▁verstehe	-10.8698
▁Lernen	-10.8703
▁geblieben	-10.8704
▁Abenteuer	-10.8706
▁Anregung	-10.8707
▁bewegt	-10.8709
▁Fremdenverkehr	-10.8709
▁Steuerzahler	-10.8711
▁linken	-10.8712
▁Güter	-10.8714
▁verbreitet	-10.8716
hi	-10.8717
▁38	-10.8724
gerät	-10.8725
tur	-10.8725
▁bearbeiten	-10.8726
rin	-10.8727
elphrase	-10.8727
▁Feststellung	-10.8727
▁erheben	-10.873
▁grünen	-10.8734
▁aufgezahlt	-10.8735
▁beseitigen	-10.8739
▁Minderheit	-10.8745
fähigkeit	-10.8748
▁genauer	-10.875
▁Montage	-10.875
▁only	-10.8751
macht	-10.8752
▁Publikum	-10.8752
▁Zulassung	-10.8755
▁é	-10.8755
▁Traditionen	-10.876
▁Laut	-10.8764
▁ausgestattete	-10.8765
▁Wesentliche	-10.8767
▁Bonus	-10.877
▁auseinander	-10.877
▁Tendenz	-10.8771
voll	-10.8771
▁95	-10.8771
▁Check	-10.8773
▁120	-10.8778
▁Südafrika	-10.8779
▁Ereignis	-10.878
log	-10.878
▁Niederlande	-10.8784
▁Konvention	-10.8787
▁Weiterentwickl	-10.8791
▁For	-10.8792
▁Medizin	-10.8795
▁Hinter	-10.8796
▁Wohnungen	-10.8799
▁zweitens	-10.88
▁definieren	-10.8803
▁Australien	-10.8807
▁Kyoto	-10.8807
ero	-10.8811
▁transparent	-10.8814
▁verarbeitet	-10.8814
▁Vorsitzenden	-10.8815
▁aufbauen	-10.8816
▁Gibt	-10.8817
▁ehrlich	-10.8818
▁Präsentation	-10.8818
▁Spitzen	-10.8821
▁Weine	-10.8822
▁Soldaten	-10.8823
▁strenge	-10.8825
Y	-10.8826
▁gegebenenfalls	-10.8827
▁Kapazität	-10.883
▁schließt	-10.8831
▁Geschlechter	-10.8834
▁Ordner	-10.8835
bus	-10.8839
▁Kürze	-10.8839
▁umgehend	-10.8841
lösung	-10.8842
▁Western	-10.8847
▁42	-10.8849
▁09	-10.885
▁Denken	-10.8851
steht	-10.8858
▁Anbetracht	-10.8859
▁Können	-10.8859
▁Sekunden	-10.8861
▁Nehmen	-10.8861
▁Argument	-10.8865
▁Kanal	-10.8866
▁wirken	-10.8867
▁Rotary	-10.8871
▁registriert	-10.8871
▁Bedienung	-10.8872
▁Robert	-10.8879
▁nieder	-10.8883
lauf	-10.8889
ov	-10.8889
▁Ungleichheit	-10.8891
▁Rennen	-10.8894
wasser	-10.8898
▁eigentliche	-10.8898
▁gewählten	-10.89
▁veröffentlichen	-10.89
fe	-10.8901
▁Innen	-10.8905
▁umgehen	-10.8905
▁Skype	-10.8908
sprozesses	-10.8914
▁Edition	-10.8916
▁NI	-10.8917
à	-10.8918
▁Bildern	-10.8919
▁gelesen	-10.8921
▁Aufsicht	-10.8924
▁Fahr	-10.8927
▁aufzubauen	-10.8927
▁Vorstand	-10.8928
▁Alkohol	-10.8929
▁Brief	-10.8931
▁lädt	-10.8932
▁ausreichende	-10.8932
▁keinesweg	-10.8933
mel	-10.8936
ip	-10.8937
sprogramme	-10.8937
▁Arzneimittel	-10.8939
▁Ausweitung	-10.894
▁rot	-10.8942
▁irgendwelche	-10.8944
▁Weiterbildung	-10.8944
▁Training	-10.8948
▁Dynamik	-10.8948
▁Tieren	-10.8949
▁befürwortet	-10.8951
▁Tabak	-10.8955
▁hinzufu	-10.8958
Umstrukturierung	-10.896
if	-10.896
▁problemlos	-10.8965
netz	-10.8966
▁Versicherungs	-10.897
tende	-10.8971
▁Kur	-10.8972
▁geräumige	-10.8976
▁Kon	-10.8981
lin	-10.8986
▁Plaza	-10.8989
▁Pi	-10.8992
▁ordnungsgemäß	-10.8993
▁Bevor	-10.8993
▁stattgefunden	-10.8993
▁Wesen	-10.9
▁Bilanz	-10.9001
▁more	-10.9001
tu	-10.9003
▁erkunden	-10.901
▁Arbeitnehmern	-10.901
▁Tschechische	-10.9013
▁Ri	-10.9015
▁behauptet	-10.9017
▁Universit	-10.9022
▁Vier	-10.9023
▁niedriger	-10.9024
▁well	-10.9025
▁Kunststoff	-10.9026
▁Jan	-10.9027
▁zustande	-10.9028
▁intensiv	-10.9034
▁Hans	-10.9035
▁Les	-10.9037
▁Las	-10.9038
▁herzustellen	-10.9042
▁Uns	-10.9044
position	-10.9046
▁Erzeuger	-10.9049
tage	-10.905
sche	-10.9052
rum	-10.9052
▁97	-10.9053
ay	-10.9054
▁extra	-10.9059
▁absolute	-10.9061
▁Budget	-10.9061
▁Föderation	-10.9062
▁Demokraten	-10.9064
▁Sektors	-10.9065
nummer	-10.9066
▁city	-10.9066
▁Karriere	-10.9066
dienste	-10.907
▁Gemüse	-10.9071
geachtet	-10.9072
ot	-10.9073
▁dauerhafte	-10.9077
isiert	-10.9078
▁fassen	-10.9079
▁gesichert	-10.9084
▁Ur	-10.9087
▁helpful	-10.9087
▁Performance	-10.9091
▁IWF	-10.9095
▁Klang	-10.9097
▁Gesicht	-10.9098
▁realisiert	-10.9098
▁Zürich	-10.9099
▁hochwertigen	-10.9099
ita	-10.91
▁Konkurrenz	-10.9103
▁Volkspartei	-10.9104
▁Hügel	-10.9108
öl	-10.9108
ou	-10.9109
bel	-10.9109
▁Erreichung	-10.9112
▁zwölf	-10.9112
zi	-10.9112
pass	-10.9113
▁Beruf	-10.9118
▁gegangen	-10.9121
seiten	-10.9131
era	-10.9137
▁Tools	-10.9138
Entschlossenheit	-10.9141
▁Lateinamerika	-10.9141
▁erleichtert	-10.9145
▁Laser	-10.9148
▁Verfolgung	-10.9149
▁Jugendliche	-10.9156
▁Trend	-10.9161
▁Begründung	-10.9162
▁Sicher	-10.9162
▁Nationalpark	-10.9165
port	-10.9165
▁umfassen	-10.9167
▁Menschheit	-10.9171
▁besetzt	-10.9175
▁dahin	-10.9179
▁Eigen	-10.918
satz	-10.918
▁Herkunft	-10.9182
▁gestatten	-10.9182
▁George	-10.9183
▁Krieges	-10.9184
▁überrascht	-10.9186
▁erfasst	-10.9186
▁wachsende	-10.9186
▁schauen	-10.9189
▁unvergessliche	-10.919
▁Seele	-10.919
▁Anmerkungen	-10.9191
▁Balkan	-10.9194
▁verurteilen	-10.9196
ard	-10.9202
▁existieren	-10.9203
▁Hostel	-10.9208
ny	-10.9211
politische	-10.9213
ley	-10.9214
▁offiziell	-10.9214
▁Erste	-10.9218
▁Voll	-10.922
▁sparen	-10.9221
▁professionellen	-10.9221
▁gestartet	-10.9224
iv	-10.9224
iger	-10.9228
▁Kuba	-10.923
▁Meister	-10.9231
▁Rund	-10.9231
▁bewahren	-10.9232
▁Logistik	-10.9232
▁laufende	-10.9234
▁Bi	-10.9235
▁schrittweise	-10.9236
▁Slowakei	-10.924
▁auswählen	-10.9241
▁geleitet	-10.9242
▁My	-10.9246
nd	-10.9246
▁Ideal	-10.9247
▁Obst	-10.925
▁Insgesamt	-10.9257
▁MySQL	-10.9257
▁Einschätzung	-10.9262
▁Behörde	-10.9264
vorschlag	-10.9264
▁Home	-10.9265
▁GNU	-10.9266
▁anzuwenden	-10.9266
▁Express	-10.9274
▁Wild	-10.9274
and	-10.9275
▁Professor	-10.9278
▁künstlerische	-10.9278
▁Brücke	-10.9279
om	-10.9281
▁Portal	-10.9283
▁innere	-10.9289
▁Einkaufs	-10.9291
▁virtuelle	-10.9291
▁sozial	-10.9294
▁befürworten	-10.9294
▁erwerben	-10.9295
▁obere	-10.9296
▁160	-10.9306
▁biologische	-10.9307
▁Kompetenzen	-10.9312
▁ausgehen	-10.9312
▁langer	-10.9313
▁Jo	-10.9318
▁normale	-10.932
▁Spektrum	-10.932
▁beibehalten	-10.932
▁Asyl	-10.9324
karten	-10.9325
▁widmen	-10.9329
wagen	-10.9332
▁Fortsetzung	-10.9333
zone	-10.9339
▁auszu	-10.9339
▁Event	-10.9341
▁warm	-10.9348
holz	-10.9348
▁eure	-10.9349
▁angeblich	-10.9349
▁Ba	-10.935
ue	-10.9352
▁David	-10.9359
▁desto	-10.936
▁Festplatte	-10.9361
▁wert	-10.937
▁gerechtfertigt	-10.9371
▁Klarheit	-10.9371
▁Nation	-10.9371
▁gebildet	-10.9377
▁Prävention	-10.9384
linie	-10.9384
▁Problematik	-10.9384
▁Modus	-10.9388
▁gelangt	-10.9388
▁st	-10.9389
▁Zweiten	-10.9394
▁Verfasser	-10.9396
▁Nachmittag	-10.9396
▁abschließend	-10.9397
▁falsche	-10.9399
▁Bürokratie	-10.9401
führung	-10.9403
▁Wunder	-10.9405
▁Betracht	-10.9406
▁erstreckt	-10.9409
▁Mehrwert	-10.9411
▁elegant	-10.9412
▁Ursache	-10.9413
wesen	-10.9415
▁legislative	-10.9418
ON	-10.942
▁Universitäten	-10.942
est	-10.9424
▁55	-10.9425
bi	-10.9426
▁Bosnien	-10.9426
▁besonderes	-10.943
▁Wi	-10.943
jo	-10.9433
▁1989	-10.9435
▁Ni	-10.9435
▁erlassen	-10.9438
▁NL	-10.9442
paket	-10.9443
▁Chi	-10.9443
▁Kenntnisse	-10.945
▁Unsicherheit	-10.945
▁erteilen	-10.9452
▁Win	-10.9454
▁einstimmig	-10.9455
elle	-10.9456
▁Lohn	-10.9458
▁erworben	-10.9461
▁Häfen	-10.9465
▁Grünbuch	-10.9465
▁technisch	-10.9466
▁zweiter	-10.9468
▁bewußt	-10.9469
▁Konfiguration	-10.9474
▁Einzelheit	-10.9474
mals	-10.9479
rechtsverletzung	-10.948
▁Ministerrat	-10.9483
▁exzellente	-10.9484
▁centre	-10.9486
▁Werkzeuge	-10.9487
▁Hu	-10.9487
▁Ro	-10.9489
▁Terror	-10.9491
▁Royal	-10.9494
▁Kar	-10.9496
▁frische	-10.95
▁96	-10.9501
▁Nachdruck	-10.9501
▁Funktionieren	-10.9501
▁geschickt	-10.9503
▁Bewusstsein	-10.9507
▁65	-10.9512
▁essen	-10.9514
▁Fernseh	-10.9515
▁Kriegs	-10.9515
▁unzählige	-10.9516
▁ID	-10.9522
▁Erzeugung	-10.9525
▁Steigerung	-10.9532
▁Wiederherstell	-10.9534
▁Statistiken	-10.9534
▁Fuss	-10.9538
▁Mittwoch	-10.9538
▁Wichtigkeit	-10.9539
▁Berater	-10.9541
▁deutsch	-10.9543
▁05	-10.955
▁Office	-10.9559
kontrolle	-10.9561
▁moderner	-10.9562
▁ständigen	-10.9562
▁verursachen	-10.9563
▁Kreis	-10.9564
▁Kein	-10.9567
▁vollen	-10.9568
▁ou	-10.9573
▁Wünschen	-10.9578
▁He	-10.9579
▁Urlaubs	-10.9583
▁Garantien	-10.9587
▁gewaltige	-10.9589
▁dänische	-10.9594
▁Fans	-10.9594
con	-10.9594
▁angeführt	-10.9597
oni	-10.9599
▁erörtert	-10.9602
▁1991	-10.9603
▁anerkennen	-10.9607
▁beweisen	-10.9608
▁RO	-10.9608
▁Palette	-10.9609
gehen	-10.9609
▁99	-10.9612
▁Mi	-10.9612
▁Eigentümer	-10.9615
▁passende	-10.9617
▁new	-10.9626
▁sitzen	-10.9626
zer	-10.963
▁29.	-10.9634
▁respektieren	-10.9637
▁herunter	-10.9638
▁Optimierung	-10.9642
▁26.	-10.9644
▁Operation	-10.9646
▁anzupassen	-10.9646
▁Te	-10.9651
▁versehen	-10.9652
▁blieb	-10.9655
▁Fan	-10.9656
▁kurzer	-10.9656
line	-10.9658
▁Dublin	-10.9659
istischen	-10.9662
▁Gran	-10.9666
▁teilt	-10.9671
▁kostenfreie	-10.9672
▁Anbindung	-10.9673
▁Finanzmittel	-10.9674
▁beliebig	-10.9684
mer	-10.9685
▁Fitness	-10.9685
▁Marokko	-10.9685
▁Marina	-10.9691
▁auswirken	-10.9694
▁Volks	-10.9696
▁Wahrung	-10.9699
▁Erkenntnisse	-10.97
▁Organ	-10.9701
▁Schwäche	-10.9703
▁Rußland	-10.9703
▁Einer	-10.9704
ker	-10.9705
▁Gemeinden	-10.9706
▁Aussagen	-10.9707
▁Beste	-10.971
▁bewertet	-10.9712
▁Master	-10.9712
▁Prüf	-10.9715
▁dieselbe	-10.9715
▁vergeben	-10.9722
▁Mittelmeerraum	-10.9722
▁Weiterhin	-10.9725
▁enormen	-10.973
▁Herrschaft	-10.9735
▁erkennt	-10.9735
▁automatische	-10.9735
▁Si	-10.9737
▁empfäng	-10.9743
▁dauerhaft	-10.9746
▁lenken	-10.9747
▁überwacht	-10.9748
▁Ferienwohnungen	-10.9748
▁Sol	-10.9754
▁Inkrafttreten	-10.9755
▁verankert	-10.9755
▁kompliziert	-10.9757
▁Inflation	-10.9758
▁ständige	-10.9761
ven	-10.9762
▁Blumen	-10.9766
▁ehrgeizige	-10.9768
▁beeindruckende	-10.977
version	-10.9771
▁vorliegt	-10.9775
▁Par	-10.9777
▁investiert	-10.9777
▁unzureichend	-10.9778
▁Offenheit	-10.9782
▁Aufhebung	-10.9782
basis	-10.9783
▁Betriebssystem	-10.9794
▁konzipiert	-10.9795
▁Erarbeitung	-10.9795
▁bearbeitet	-10.98
▁Arm	-10.9802
▁könne	-10.9808
▁Konstruktion	-10.981
▁Sat	-10.9815
▁Mon	-10.9817
▁39	-10.9822
▁Gegenstände	-10.9823
▁leiten	-10.9824
fach	-10.9826
▁fortsetzen	-10.9826
▁freiwillig	-10.9828
ich	-10.9832
▁planen	-10.9832
freundliche	-10.9834
40	-10.9835
▁Belastung	-10.9835
▁28.	-10.9839
▁Verlängerung	-10.9839
▁Beamten	-10.9841
ure	-10.9844
▁Arzt	-10.9844
▁best	-10.9844
▁Roman	-10.9846
▁umfangreichen	-10.9852
ischer	-10.9852
▁begründet	-10.9855
tätigkeit	-10.9855
▁Zauber	-10.9856
ging	-10.9859
▁Verkaufs	-10.9861
Fluggesellschaft	-10.9866
▁flexibel	-10.9866
▁festen	-10.987
▁Orientierung	-10.9871
▁Handlung	-10.9872
▁tschechische	-10.9874
mi	-10.988
▁Fahrrad	-10.9884
▁integrieren	-10.9885
▁Tel	-10.9886
▁Import	-10.9893
▁verwaltet	-10.9893
▁BSE	-10.9894
▁Versprechen	-10.9897
▁begegnen	-10.9902
▁Wahrscheinlich	-10.9902
▁Zusage	-10.9902
▁mail	-10.9902
bach	-10.9903
▁Hostelsclub	-10.9906
▁Liefer	-10.9907
▁Entschädigung	-10.9915
▁NRO	-10.9915
▁externe	-10.9917
häuser	-10.9917
strom	-10.9918
▁European	-10.9919
▁Beförderung	-10.992
▁übermitteln	-10.9921
▁Spiegel	-10.9922
▁Terroristen	-10.9923
▁davor	-10.9923
sp	-10.9934
▁Theorie	-10.9934
▁öffentlicher	-10.9935
inisterpräsident	-10.9935
▁he	-10.9936
tri	-10.9937
▁innen	-10.9939
vorschriften	-10.9939
▁gemütlich	-10.9943
▁zuständige	-10.9945
▁Centre	-10.9947
▁Info	-10.995
▁grüne	-10.995
▁verabschieden	-10.9951
▁Mu	-10.996
▁Orten	-10.9967
▁Geburt	-10.9968
▁Literatur	-10.9969
▁Can	-10.997
▁vorsieht	-10.9971
▁Ring	-10.9976
▁Ball	-10.9978
ance	-10.998
▁Subvention	-10.9981
anforderung	-10.9983
▁zugestimmt	-10.9984
▁erwähnte	-10.9987
ata	-10.9988
▁Mitgliedsländer	-10.9989
▁over	-10.999
▁Konvergenz	-10.9991
▁Werten	-10.9997
▁Beurteilung	-10.9998
▁günstigen	-10.9999
▁about	-11
qui	-11.0001
bad	-11.0002
▁berichten	-11.0003
▁Renten	-11.0004
hu	-11.0004
kultur	-11.0004
▁einst	-11.0005
▁Derzeit	-11.0006
▁Einnahmen	-11.0008
▁Data	-11.0009
▁abgesehen	-11.001
▁plötzlich	-11.0011
fi	-11.0017
pi	-11.0022
▁Gewinner	-11.0024
▁Private	-11.0025
▁Ausgrenzung	-11.0027
▁erforderliche	-11.0031
modell	-11.0031
▁Beobachter	-11.0033
▁Mikro	-11.0033
▁Ufer	-11.0037
hancengleichheit	-11.0039
▁Möbel	-11.0041
▁Verein	-11.0041
▁verzichten	-11.0041
▁Logik	-11.0042
ER	-11.0046
▁Betrug	-11.0048
▁Million	-11.0049
▁fortgesetzt	-11.0049
isieren	-11.0055
▁vermutlich	-11.0059
▁harte	-11.0061
▁Desktop	-11.0064
▁Privatsphäre	-11.0064
▁bezeichnen	-11.007
gas	-11.0071
ku	-11.0076
▁klassische	-11.0077
▁Thomas	-11.0077
kon	-11.0078
▁Wand	-11.0079
▁leichte	-11.0079
▁erarbeiten	-11.0079
steuer	-11.0081
▁teuer	-11.0083
ara	-11.0085
▁Kürzung	-11.0086
fällt	-11.0087
▁Gemeinschaften	-11.0088
▁Anreize	-11.0099
▁Beschränkungen	-11.01
tlich	-11.0103
staaten	-11.0109
▁unerlässlich	-11.0109
▁gebraucht	-11.0115
▁Bit	-11.0116
▁verbesserte	-11.0117
▁excellent	-11.0118
▁begangen	-11.0118
▁gewöhnlich	-11.012
▁Gentoo	-11.0123
▁arabische	-11.0125
▁Kreuz	-11.0127
▁chambre	-11.0128
▁eröffnen	-11.0132
▁eingeschränkt	-11.0135
▁moralische	-11.0136
▁genießt	-11.0137
▁Protokolls	-11.0137
▁nützliche	-11.0137
▁zukommen	-11.0138
teile	-11.0139
▁Eingabe	-11.014
▁Alternativen	-11.0146
▁would	-11.0147
lose	-11.015
▁Atom	-11.0154
▁anpassen	-11.0155
▁damalige	-11.0158
bericht	-11.0167
fenster	-11.0168
▁beeinflusst	-11.0169
▁bürgerliche	-11.0169
▁Gespräch	-11.017
▁Rot	-11.0171
▁Schlacht	-11.0173
▁Events	-11.0178
zentren	-11.0182
▁funktionierende	-11.0183
▁Möchte	-11.0184
▁multilaterale	-11.0193
▁gefasst	-11.0194
licher	-11.0195
▁Ausbeutung	-11.0196
▁Bed	-11.0202
▁Green	-11.0203
ros	-11.0204
▁breit	-11.0205
▁Ti	-11.0205
▁vorrangig	-11.0205
▁Arbeiter	-11.0209
fer	-11.0212
▁ad	-11.0212
▁afrikanischen	-11.0213
▁anspruchsvolle	-11.0214
▁gehabt	-11.0215
▁Ausgleich	-11.0223
▁Bildungs	-11.0223
▁Inhaber	-11.0224
▁Umstände	-11.0225
▁lo	-11.0225
▁close	-11.0225
▁Fast	-11.0226
sel	-11.0232
▁Verbrauchern	-11.0232
▁größter	-11.0234
▁stärksten	-11.0234
▁mittelalterlich	-11.0235
▁Charme	-11.0238
▁kritisiert	-11.0238
ys	-11.0242
▁Ausnahmen	-11.0242
▁Köln	-11.0242
▁27.	-11.0249
▁te	-11.025
▁Module	-11.0258
▁Wartung	-11.0263
▁verwiesen	-11.0263
▁sofortige	-11.0271
uk	-11.0273
▁bed	-11.0274
▁erweisen	-11.0277
tische	-11.0278
▁vorsichtig	-11.0278
▁Anhänger	-11.0281
▁Updates	-11.0285
▁wertvolle	-11.0285
▁vermieden	-11.0289
▁passt	-11.0293
▁Gelände	-11.0299
▁kreative	-11.0299
▁zuverlässig	-11.0299
▁zurzeit	-11.0302
▁zentraler	-11.0302
▁Zusammensetzung	-11.0303
▁Stufe	-11.0304
▁Angabe	-11.0304
▁Wälder	-11.0305
▁Klassen	-11.0312
ug	-11.0312
▁Mallorca	-11.0312
▁Source	-11.0312
▁eingeräumt	-11.0312
▁Rückgang	-11.0312
▁engagiert	-11.0312
▁Mark	-11.0312
▁Phänomen	-11.0316
▁Taten	-11.0319
▁eingeladen	-11.0322
▁schwieriger	-11.0326
▁Schrift	-11.0327
▁Washington	-11.0331
▁erbaut	-11.0332
▁Wichtig	-11.0334
oli	-11.0334
▁Tabelle	-11.0336
▁Mengen	-11.0338
raucherzimmer	-11.034
▁Verteidigungs	-11.034
▁verliehen	-11.0343
▁Wander	-11.0344
▁umso	-11.0344
▁Geschenk	-11.0346
ria	-11.0348
▁USD	-11.0348
▁Verabschiedung	-11.0349
▁fiel	-11.0352
▁örtliche	-11.0354
▁Halle	-11.0359
▁Zunahme	-11.0361
▁gebe	-11.0364
ok	-11.0366
▁mobile	-11.037
▁rechnen	-11.0372
▁eintreten	-11.0373
▁Genuss	-11.0373
▁Lern	-11.0375
▁bedeutendste	-11.0375
▁Sub	-11.0378
▁Deutschlands	-11.0378
▁Fakten	-11.038
region	-11.038
▁2.0	-11.038
▁Herzlich	-11.0383
▁44	-11.0387
▁Minibar	-11.0388
▁comfortable	-11.0391
eu	-11.0397
▁Frühjahr	-11.0398
▁steigt	-11.0398
sbehörden	-11.0402
▁Autoren	-11.0408
▁Touren	-11.0409
▁abgeben	-11.0409
▁Beschluß	-11.0411
▁reich	-11.0412
ette	-11.0412
schule	-11.0413
▁offer	-11.0419
ö	-11.0421
▁bereiten	-11.0422
▁doppelt	-11.0423
legen	-11.0425
▁Erbe	-11.0425
▁stay	-11.0426
▁ex	-11.0426
▁Zugangs	-11.0428
▁Budapest	-11.0429
▁Störung	-11.0429
▁derart	-11.0429
▁gebunden	-11.0429
▁Konjunktur	-11.0433
▁aussehen	-11.0442
▁löschen	-11.0444
amerikanischen	-11.0444
reise	-11.0446
▁Fertigung	-11.0446
▁beruhen	-11.045
▁Rücken	-11.0454
▁saubere	-11.0458
▁Tri	-11.0461
funktion	-11.0463
ag	-11.0467
▁Pen	-11.0468
▁günstig	-11.0469
del	-11.0472
▁Spezialisten	-11.048
▁sterben	-11.0482
lösungen	-11.0482
▁mittel	-11.0485
▁besagt	-11.0488
▁Summe	-11.0489
▁Index	-11.049
▁wachsen	-11.0491
▁Acht	-11.0491
▁ändert	-11.0493
▁fehlen	-11.0495
cha	-11.0496
▁verschaffen	-11.0496
ong	-11.0497
▁indirekt	-11.05
▁Investitions	-11.05
räume	-11.0505
▁Block	-11.0505
▁Anwesenheit	-11.0507
▁heutzutag	-11.0509
ani	-11.0511
▁verständlich	-11.0513
▁Drittstaaten	-11.0513
▁Pack	-11.0515
00	-11.0519
▁Maastricht	-11.0519
▁Besteuerung	-11.052
▁niedrigen	-11.0526
▁Bühne	-11.0526
▁gebilligt	-11.0528
▁hundert	-11.053
▁Versuche	-11.0532
▁spielte	-11.0533
▁erläutert	-11.0533
▁43	-11.0536
smitglied	-11.0537
▁geschätzt	-11.054
▁Party	-11.0541
▁Gepäck	-11.0541
▁parallel	-11.0542
▁verknüpft	-11.0543
▁Ger	-11.0543
▁Schlaf	-11.0545
▁gelegene	-11.0545
▁durchzusetzen	-11.0551
▁Islam	-11.0553
▁Fotografie	-11.0554
19	-11.0554
▁ablehnen	-11.0556
▁bekräftigt	-11.0557
▁dein	-11.0562
▁basieren	-11.0564
▁Gen	-11.0568
teilen	-11.0569
▁Eintritt	-11.0571
ement	-11.0576
▁Grafik	-11.0576
▁Don	-11.058
▁Gefängnis	-11.058
▁intelligente	-11.0582
▁gemeinsamer	-11.0586
▁Aktivität	-11.0587
▁Chat	-11.0591
▁Rechten	-11.0595
▁Gewinne	-11.0599
svertrag	-11.0604
▁Clubs	-11.0604
▁Verluste	-11.0605
lieber	-11.0605
és	-11.0606
▁einstellen	-11.0608
▁12.00	-11.0611
▁Krebs	-11.0611
▁ruhiger	-11.0613
▁Stern	-11.0615
▁Dir	-11.0615
▁Handlungen	-11.0615
▁Vereinigung	-11.0615
▁städtische	-11.0616
▁erheblichen	-11.0617
▁Ticket	-11.0617
▁Ga	-11.062
fahrt	-11.0627
▁englische	-11.0629
▁Ausübung	-11.0629
▁bisschen	-11.063
▁Karl	-11.0632
▁sensible	-11.0634
▁Osteuropa	-11.0637
▁Herberge	-11.0639
▁49	-11.0639
▁passieren	-11.064
▁dynamische	-11.0642
Nichtraucherzone	-11.0643
▁other	-11.0644
▁Alltag	-11.0645
▁empfiehl	-11.0648
▁1980	-11.0649
▁car	-11.065
▁Ben	-11.065
▁OS	-11.0651
▁höchster	-11.0651
ight	-11.0652
reich	-11.0655
▁respektiert	-11.0658
▁iranische	-11.0659
▁Schnittstelle	-11.0663
frage	-11.0663
ella	-11.0664
▁füllen	-11.0673
produkt	-11.0677
12	-11.0677
rt	-11.0679
▁gehandelt	-11.0682
Q	-11.0682
▁Beschäftigungs	-11.0687
sverhandlungen	-11.0687
wand	-11.0691
▁eingerichtete	-11.0692
▁reale	-11.0699
▁ma	-11.07
▁unterscheidet	-11.0701
▁Baby	-11.0707
▁fa	-11.0709
▁glaubt	-11.071
▁Türen	-11.0711
▁64	-11.0715
▁Welthandels	-11.0719
▁go	-11.072
ron	-11.072
▁einführen	-11.0721
▁Börse	-11.0723
▁Sony	-11.0723
▁Produzenten	-11.0725
▁nehme	-11.0728
▁Taxi	-11.0729
▁retten	-11.0736
▁rasche	-11.0742
▁Trans	-11.0742
▁Casa	-11.0743
▁Pflichten	-11.0743
▁Großen	-11.0746
versicherung	-11.0746
gi	-11.0749
▁zugute	-11.075
▁Camp	-11.0753
▁Ostsee	-11.0754
sprache	-11.0755
▁tolle	-11.0755
▁Bay	-11.0758
▁Main	-11.0759
▁komfortabel	-11.0759
▁Tennis	-11.076
▁Referendum	-11.0761
▁live	-11.0761
▁Treiber	-11.0764
▁übersetzt	-11.0764
▁schwach	-11.0767
▁auswärtige	-11.077
produkten	-11.0781
▁östlich	-11.0781
▁Vorredner	-11.0781
▁beschreibt	-11.0789
nis	-11.079
▁längere	-11.0791
▁massive	-11.0792
lässt	-11.0792
▁SV	-11.0797
▁Island	-11.0799
▁Sal	-11.08
▁öffnet	-11.0802
25	-11.0806
▁gestiegen	-11.0808
ras	-11.0813
▁Zertifizierung	-11.0815
▁demokratischer	-11.0815
tischen	-11.0818
museum	-11.0819
▁Russlands	-11.082
▁Gebühr	-11.0821
▁beschließen	-11.0821
▁armen	-11.0822
▁begeistert	-11.0822
▁Domain	-11.0823
▁übergeben	-11.0823
▁technischer	-11.0826
▁Hektar	-11.0828
▁angenommenen	-11.0829
▁Chef	-11.083
▁vielfältige	-11.0831
▁malerische	-11.0831
ato	-11.0832
▁ausgelöst	-11.0835
▁Galerie	-11.0835
▁bekam	-11.0842
▁Ermittlung	-11.0842
▁beschleunigen	-11.0842
▁ärmste	-11.0842
▁Bade	-11.0843
▁Referenz	-11.0843
▁attraktive	-11.0845
▁Arbeitsgruppe	-11.0848
baren	-11.0848
▁zielt	-11.0848
▁IV	-11.0848
▁behinderten	-11.0855
▁diplomatische	-11.0856
▁Jugoslawien	-11.0857
kriterien	-11.0859
▁erschienen	-11.0861
▁Gärten	-11.0862
haft	-11.0867
▁zulässig	-11.0873
▁they	-11.0876
▁Baum	-11.0876
▁Heimatland	-11.0878
▁betreffende	-11.088
▁Jahresbericht	-11.088
▁Pop	-11.0885
▁Content	-11.0887
▁abge	-11.0887
▁schlechter	-11.0888
▁Adressen	-11.0891
▁nutzbar	-11.0892
▁getötet	-11.0897
ru	-11.0899
▁Konzepte	-11.0899
▁Quoten	-11.09
▁Rezession	-11.0901
▁gelassen	-11.0902
berichterstatter	-11.0904
pp	-11.0905
▁gelingen	-11.0907
pf	-11.0908
▁Heim	-11.0909
▁Aufforderung	-11.0911
▁Schwimmbad	-11.0911
▁Voraus	-11.0912
▁schlicht	-11.0914
▁Solche	-11.0915
▁op	-11.0915
▁genehmigt	-11.0916
▁bezogen	-11.0916
sebene	-11.0918
▁Fernseher	-11.0921
▁non	-11.0925
▁Energiequellen	-11.0928
Fischereipolitik	-11.093
▁ve	-11.0931
ator	-11.0934
▁einnehmen	-11.0939
▁kleineren	-11.094
▁Auslegung	-11.0942
▁territoriale	-11.0944
▁beinahe	-11.0945
▁bedienen	-11.0945
▁Litauen	-11.0946
▁Kalender	-11.0948
▁reine	-11.095
▁Differenz	-11.0955
▁gewinnt	-11.0956
▁vorbehalten	-11.0956
▁Raums	-11.0957
▁vote	-11.0959
▁Klimawandels	-11.0964
sbeziehungen	-11.0969
▁Breakfast	-11.0971
▁Swimmingpool	-11.0971
▁Geben	-11.0981
smitglieder	-11.0985
▁aufgerufen	-11.0986
▁überlegen	-11.0991
▁Heiligen	-11.0994
▁vorgehen	-11.0997
▁englischen	-11.0998
▁islamische	-11.0999
ence	-11.1004
▁Adobe	-11.1006
▁Pla	-11.1009
▁Beschwerden	-11.1011
▁wartet	-11.1014
▁angenehme	-11.1016
▁Community	-11.1016
▁ausgewählte	-11.1017
▁verzeichnen	-11.1021
▁Schlag	-11.1021
▁liegenden	-11.1025
▁Strasse	-11.1025
▁Abschluß	-11.1026
▁finnische	-11.1028
▁gekauft	-11.1028
▁Stadtteil	-11.1029
▁qui	-11.103
▁ausgebaut	-11.1031
▁Malta	-11.1031
▁Ankündigung	-11.1031
▁spätestens	-11.1031
▁Trainings	-11.1031
▁beträchtliche	-11.1033
▁Trek	-11.1033
▁Sonnen	-11.1033
▁verpflichten	-11.1037
▁Rubrik	-11.1037
▁Tauch	-11.1039
ite	-11.104
▁teilzunehmen	-11.1041
▁Konsum	-11.1045
▁Förder	-11.1047
by	-11.1059
wahl	-11.106
▁Textil	-11.1066
▁gelernt	-11.1066
▁bewiesen	-11.1067
felder	-11.1069
▁Reparatur	-11.1069
▁Wille	-11.1071
spezifische	-11.1072
▁Verkäufer	-11.1075
▁Rassismus	-11.1076
▁inakzeptabel	-11.1076
ora	-11.1082
▁Anhang	-11.1082
▁Ausgang	-11.1085
▁regeln	-11.1089
werte	-11.1089
▁Festung	-11.109
▁halb	-11.1092
но	-11.1093
▁türkische	-11.1095
▁ausgearbeitet	-11.1095
szusammenarbeit	-11.1096
losen	-11.1097
unter	-11.1098
▁verwirklichen	-11.1101
▁aufzu	-11.1104
geschichte	-11.1106
▁angebotenen	-11.1106
▁Sozialpartner	-11.1109
▁KOM	-11.1111
15	-11.1113
▁Bu	-11.1116
name	-11.1118
▁systematisch	-11.1121
▁Metro	-11.1126
▁Generalsekretär	-11.1126
op	-11.1131
station	-11.1133
ham	-11.1133
▁insofern	-11.1137
sausschuß	-11.1139
▁jährliche	-11.1143
▁Einschränkungen	-11.1146
TE	-11.1146
ide	-11.1146
▁anti	-11.1149
▁HTML	-11.1152
▁Unterlagen	-11.1157
▁unterbrochen	-11.1159
▁Rio	-11.1161
▁Verordnungen	-11.1162
▁Kohle	-11.1163
▁Beschäftigten	-11.1164
60	-11.1165
▁nbsp	-11.1167
bilder	-11.1169
▁Seminar	-11.1172
▁begleiten	-11.1176
▁wechseln	-11.1177
▁inneren	-11.1184
▁Pe	-11.1184
kunst	-11.1188
▁Mobile	-11.1192
ual	-11.1192
▁Labor	-11.1193
▁Rhein	-11.1193
ée	-11.1195
▁zuverlässige	-11.1195
▁bedauer	-11.1198
▁Freuen	-11.1201
▁Bergen	-11.1203
▁place	-11.1208
▁Partition	-11.121
▁Tempo	-11.1213
▁Medikamente	-11.1214
▁Lasten	-11.1215
cia	-11.1215
▁ratifiziert	-11.1217
ph	-11.1223
▁Regionalpolitik	-11.1224
▁alternative	-11.1225
▁folglich	-11.1228
▁Flugzeuge	-11.1228
▁Eigenschaft	-11.1233
▁Unterzeichnung	-11.1233
dorf	-11.1233
▁lokaler	-11.1234
▁2012	-11.1234
▁Niederlassung	-11.1243
bl	-11.1249
▁Europol	-11.125
we	-11.1258
▁Implementierung	-11.1258
▁Gegenwart	-11.1258
▁Aluminium	-11.1263
▁Jazz	-11.1264
par	-11.1266
mechanismen	-11.1269
▁gefährden	-11.1269
og	-11.1271
▁Mer	-11.1271
gearbeitet	-11.1272
▁schenken	-11.1274
km	-11.1274
▁ernste	-11.1275
▁medizinischen	-11.1276
sprozesse	-11.1278
▁tägliche	-11.1281
▁Unfall	-11.1282
▁unterweg	-11.1283
▁Kreativität	-11.1284
▁Merkmale	-11.1288
▁Tele	-11.129
▁unterbreiten	-11.1291
ologie	-11.1291
▁Motto	-11.1301
▁Kanäle	-11.1304
▁Musiker	-11.1307
▁Entstehung	-11.131
▁Set	-11.131
systemen	-11.1313
▁Flächen	-11.1313
▁Syrien	-11.1315
▁Kommentar	-11.1315
▁Life	-11.1316
▁gehe	-11.1322
▁Studium	-11.1324
▁Sendung	-11.1327
▁Finanzen	-11.1329
val	-11.1331
flug	-11.1335
▁Innerhalb	-11.1336
▁Cal	-11.1336
70	-11.1338
▁Vergnügen	-11.1341
▁Foundation	-11.1346
▁Palace	-11.1346
ji	-11.1349
▁41	-11.1349
▁geistigen	-11.1351
▁Missbrauch	-11.1355
dra	-11.1356
▁stattdess	-11.1356
▁Mauer	-11.1357
ebene	-11.1357
▁strategisch	-11.1363
▁dauern	-11.1368
▁Bezahlung	-11.1369
▁Anbau	-11.1375
▁As	-11.1375
ausschuss	-11.1379
▁Slowenien	-11.1382
▁Unterdrückung	-11.1382
▁Ha	-11.1382
▁Board	-11.1386
sstandards	-11.1389
ausschuß	-11.139
▁if	-11.1391
▁Tempel	-11.1393
▁Besondere	-11.1394
▁Gebäuden	-11.1394
▁Fang	-11.1397
▁Etwa	-11.1398
▁erfolgte	-11.14
▁Anreise	-11.14
▁Ecke	-11.1401
IS	-11.1405
schlag	-11.1407
▁Realisierung	-11.1409
▁Rahmenbedingung	-11.1409
▁alter	-11.141
▁entworfen	-11.1413
▁Weißbuch	-11.1413
▁weitaus	-11.1419
projekte	-11.142
istische	-11.1424
▁Streit	-11.1427
▁Wiki	-11.1427
▁ausgewogen	-11.1428
▁Har	-11.1429
▁jemals	-11.143
▁Griff	-11.1435
▁beizutragen	-11.1435
uch	-11.1439
losigkeit	-11.144
transatlantische	-11.1444
rei	-11.1444
▁Seen	-11.1446
▁Direktor	-11.1447
▁Vermarktung	-11.1449
▁Beobachtung	-11.1453
▁lieben	-11.1453
▁Ursprung	-11.1454
▁Gipfeltreffen	-11.1457
punkte	-11.1458
kauf	-11.1462
▁bewirken	-11.1465
▁Büros	-11.1465
▁Sach	-11.1467
▁Para	-11.1469
▁Moskau	-11.1469
▁hielt	-11.1472
szeit	-11.1473
▁Geschäften	-11.1476
format	-11.1478
▁Vertriebs	-11.1481
11	-11.1483
▁Leuten	-11.1483
▁Dreh	-11.1483
stil	-11.1491
▁werfen	-11.1493
bestimmungen	-11.1493
schein	-11.1495
▁Energiepolitik	-11.15
▁locate	-11.1502
▁interessieren	-11.1504
▁normal	-11.1505
▁Lehr	-11.1509
▁Fehlen	-11.1511
▁Auszeichnung	-11.1515
licht	-11.1518
ausstattung	-11.152
out	-11.1521
▁ausge	-11.1521
▁Ku	-11.1522
▁Besatzung	-11.1523
▁realistisch	-11.1524
ary	-11.1525
nahme	-11.153
▁umgekehrt	-11.1536
▁stabile	-11.154
▁Aufnahmen	-11.1546
▁Weltwirtschaft	-11.1546
▁herkömmliche	-11.155
▁inbegriffen	-11.155
zustellen	-11.155
eg	-11.1556
versammlung	-11.1557
test	-11.1557
▁Abstand	-11.1563
ud	-11.1569
▁verwalten	-11.157
▁Diktatur	-11.157
▁Angriffe	-11.1572
hol	-11.1573
▁Swiss	-11.1574
▁Pan	-11.1576
▁aktualisieren	-11.1581
▁Erfordernisse	-11.1585
▁Eines	-11.1588
▁Attraktionen	-11.159
▁Palästina	-11.1591
▁zeitgenössische	-11.1591
▁Pferde	-11.1593
▁Vorfeld	-11.1601
▁alleine	-11.1603
▁einander	-11.1604
▁fährt	-11.1606
▁Ce	-11.1606
▁Vorgaben	-11.1608
▁Box	-11.1608
▁national	-11.1611
▁voneinander	-11.1612
▁Mag	-11.1614
▁korrekte	-11.1616
srichtlinie	-11.1617
▁Puerto	-11.1618
▁Grün	-11.1621
▁überwiegend	-11.1624
90	-11.1625
ang	-11.1627
▁Dienstleistungs	-11.1628
▁melden	-11.1629
▁nachdenken	-11.1629
▁beschreiben	-11.163
▁Kloster	-11.1632
▁zivile	-11.1633
▁Bewältigung	-11.1634
▁erläutern	-11.1634
▁Überarbeitung	-11.1634
▁gebucht	-11.1635
▁geteilt	-11.1639
fluss	-11.164
▁Moderne	-11.1643
▁Oberflächen	-11.1644
▁mitgeteilt	-11.1644
▁schrieb	-11.1647
▁Solar	-11.1649
▁engen	-11.1649
▁Stornierung	-11.165
▁geschafft	-11.165
▁Job	-11.165
▁gelegenen	-11.1651
schalter	-11.1654
▁Porto	-11.1655
▁Platten	-11.1658
▁angewiesen	-11.166
▁enttäuscht	-11.166
▁erörtern	-11.166
▁Chr	-11.1663
▁Canon	-11.1669
▁ausführliche	-11.1672
▁Befehl	-11.1674
ili	-11.1675
sam	-11.1677
▁Einladung	-11.1678
machen	-11.1678
▁Lehren	-11.1681
▁ökologisch	-11.1683
▁wirklichen	-11.1685
tar	-11.1686
▁Mazedonien	-11.1686
▁gratis	-11.1687
▁Logo	-11.1687
all	-11.1688
▁Koordination	-11.1692
▁Aufwand	-11.1696
▁Leidenschaft	-11.1697
▁unbe	-11.1698
garten	-11.1707
▁Hunde	-11.1711
▁Entspannen	-11.1714
dy	-11.1717
▁Kathedrale	-11.1719
▁ohnehin	-11.172
▁Playa	-11.1724
▁messen	-11.1725
▁rechtlich	-11.1729
▁stützen	-11.173
▁Lehre	-11.1733
▁James	-11.1733
▁Hunger	-11.1735
▁erweiterten	-11.1737
▁Mails	-11.1737
▁ignoriert	-11.174
halle	-11.1741
stoff	-11.1745
hebt	-11.1746
н	-11.1747
zeichen	-11.175
▁Getreide	-11.1751
▁art	-11.1753
▁rechtfertigen	-11.1757
lan	-11.1761
▁Inc	-11.1766
▁Café	-11.1767
▁marquis	-11.1767
sta	-11.1768
▁Pakt	-11.1771
▁Gu	-11.1771
▁beiträgt	-11.1772
▁eingebunden	-11.1772
▁Kompromisse	-11.1773
▁Zufriedenheit	-11.1778
▁Dritter	-11.1779
▁realisieren	-11.178
▁Fern	-11.1782
▁Visum	-11.1785
▁Schnell	-11.1785
sfalls	-11.1787
skraft	-11.1788
▁ausführen	-11.1795
▁700	-11.1796
iere	-11.18
konferenz	-11.1803
▁Stimmung	-11.1808
▁administrative	-11.1809
▁Abfahrt	-11.181
frei	-11.1812
▁erinnere	-11.1812
▁BMW	-11.1816
▁Heil	-11.1817
▁Übereinkommens	-11.1817
bank	-11.1817
▁nukleare	-11.1822
▁Null	-11.1828
▁Armen	-11.1829
▁Such	-11.183
mon	-11.1835
▁Stabilitäts	-11.184
▁Funk	-11.1841
▁jeweilige	-11.1841
▁vereinfacht	-11.1842
▁Darin	-11.1842
▁Administration	-11.1843
▁Beitritts	-11.1846
▁einzugehen	-11.1847
amt	-11.1848
▁spiegelt	-11.1849
santräge	-11.1851
hält	-11.1851
▁einhalten	-11.1855
▁Plus	-11.1856
▁wirtschafts	-11.1857
▁DIE	-11.1857
grenzen	-11.1858
▁erreichte	-11.186
▁Kapazitäten	-11.186
▁Haushalte	-11.1862
IT	-11.1864
▁area	-11.1865
sis	-11.1866
▁grundlegender	-11.1867
▁gründlich	-11.1871
▁Techniken	-11.1872
▁Konferenzen	-11.1873
▁exklusive	-11.1874
▁Scheitern	-11.1876
▁Übung	-11.1876
▁Betroffenen	-11.1878
▁Gerichten	-11.1879
▁War	-11.188
▁gewisser	-11.188
▁schützt	-11.1881
▁Fachleute	-11.1887
sbericht	-11.1888
▁Neues	-11.1888
▁MS	-11.1888
▁zer	-11.1889
Demokratisierung	-11.189
▁Loch	-11.1891
gegangen	-11.1894
strasse	-11.1897
▁beurteilen	-11.1897
▁drücken	-11.1898
ding	-11.19
▁DER	-11.1905
▁erlangen	-11.191
▁Sitzungen	-11.191
▁Mont	-11.1915
▁Tibet	-11.1915
▁46	-11.1917
ill	-11.1919
▁ausgelegt	-11.1922
▁atemberaubende	-11.1923
▁Spanisch	-11.1923
▁Entdecken	-11.1925
▁85	-11.1926
▁wünschenswert	-11.193
▁Ernährung	-11.193
▁Manche	-11.193
▁renommierte	-11.1932
▁Transaktionen	-11.1932
▁work	-11.1933
▁Behauptung	-11.1936
▁vorhin	-11.1939
▁1,5	-11.1939
▁Leder	-11.194
▁Geräten	-11.1945
▁Auftraggeber	-11.1947
sträger	-11.1949
0.000	-11.1949
klasse	-11.1952
▁vereinfachen	-11.1952
▁Verstärkung	-11.1952
▁effektiver	-11.1952
▁Pu	-11.1954
▁Menschenrechten	-11.1957
▁droht	-11.1958
▁Lieblings	-11.1958
▁Kino	-11.1963
▁Statistik	-11.1967
▁warme	-11.1968
▁Ref	-11.1972
▁Kompromiß	-11.1974
▁neueste	-11.1976
▁Erziehung	-11.198
problem	-11.1982
▁exklusiven	-11.1984
▁verbindlich	-11.1991
▁testen	-11.1991
▁zeigte	-11.1991
▁Cap	-11.1993
temperatur	-11.1993
▁Kreditkarten	-11.1995
▁Gepäckraum	-11.1997
▁Zimmerservice	-11.2
▁zwanzig	-11.2002
▁einzuhalten	-11.2002
▁Gleiche	-11.2008
▁Zubehör	-11.2013
▁Kurse	-11.2014
▁Wohl	-11.2017
▁Gestatten	-11.2018
▁Silber	-11.202
▁Stabilitätspakt	-11.2024
meister	-11.2028
▁freiwillige	-11.2029
filter	-11.2032
▁Aufruf	-11.2033
▁della	-11.2034
▁Salz	-11.2041
▁Dienstag	-11.2041
sverfahrens	-11.2044
▁Whirlpool	-11.2046
▁angefangen	-11.2049
ec	-11.2049
▁Kirk	-11.205
▁ansonsten	-11.2051
wald	-11.2051
▁Echtzeit	-11.2051
▁Große	-11.2052
▁anhaltende	-11.2053
▁erkennbar	-11.2054
▁Wiener	-11.2055
viertel	-11.2055
▁gewann	-11.2057
▁Gemäß	-11.2058
▁Ausfahrt	-11.2058
▁could	-11.2062
▁Szene	-11.2063
▁Taiwan	-11.2065
lager	-11.2066
▁Ortschaft	-11.2069
sarbeit	-11.2075
▁Apple	-11.2077
▁Arena	-11.2077
▁iPhone	-11.2079
▁endet	-11.208
▁Therapie	-11.208
▁Zuständigkeiten	-11.2081
▁Leid	-11.2081
▁schwarz	-11.2082
▁sagten	-11.2082
▁klären	-11.2085
▁XP	-11.2086
▁Spuren	-11.209
▁zukünftig	-11.2092
▁niedrig	-11.2096
▁verwöhnen	-11.2096
▁Aufklärung	-11.2096
▁ermutigen	-11.2098
▁namens	-11.2099
laden	-11.2102
team	-11.2102
▁schreibt	-11.2103
erstattung	-11.2105
box	-11.2112
▁pi	-11.2112
▁Standpunkte	-11.2114
▁zeitlich	-11.2116
krieg	-11.2116
▁befindliche	-11.2118
▁Central	-11.2118
▁Hotelsafe	-11.2119
ür	-11.2121
▁Erwerb	-11.2124
▁Virus	-11.2124
▁Versorgungs	-11.2124
▁sicherer	-11.2124
▁Single	-11.2125
▁globaler	-11.2126
zahlen	-11.2128
▁small	-11.2129
▁unterhalten	-11.213
▁gefällt	-11.2131
▁einzu	-11.2136
US	-11.2138
ika	-11.2142
schreiben	-11.2143
ido	-11.2144
▁Danke	-11.2145
▁180	-11.2147
ida	-11.215
äng	-11.2154
▁Marktwirtschaft	-11.2156
vertrag	-11.2157
ito	-11.2158
flächen	-11.2161
▁irakische	-11.2163
▁Kohäsion	-11.2168
▁Sortiment	-11.2168
▁analysieren	-11.2168
▁schließe	-11.217
▁MB	-11.217
▁One	-11.2172
mat	-11.2172
reichen	-11.2173
▁stehende	-11.2174
▁Instrumenten	-11.2175
▁Haar	-11.2176
▁Überleben	-11.2176
▁geistige	-11.2178
▁Allein	-11.2179
▁registrieren	-11.2179
▁teilgenommen	-11.218
▁Hamas	-11.218
▁gra	-11.218
projekt	-11.2181
gesetz	-11.2181
transport	-11.2184
▁gezielt	-11.2185
jpg	-11.2185
▁Einschränkung	-11.2186
▁Sex	-11.2187
▁großzügig	-11.2198
▁Interpretation	-11.2202
▁Tickets	-11.2204
▁Gesichtspunkt	-11.2204
low	-11.2209
reisen	-11.2214
▁tausend	-11.2214
ete	-11.2217
▁entscheidet	-11.222
▁Register	-11.2221
▁Hall	-11.2223
▁Leser	-11.2223
▁herstellen	-11.2226
▁Assoziierung	-11.2226
▁Simbabwe	-11.223
▁niedrige	-11.2235
▁gewachsen	-11.2237
▁gesucht	-11.2241
▁Corporate	-11.2241
▁ausgestellt	-11.2242
▁römische	-11.2243
▁arbeitete	-11.2246
▁Amtszeit	-11.2248
▁Argentinien	-11.2253
▁Felsen	-11.2254
▁Schi	-11.2256
stehen	-11.2256
▁modernste	-11.2257
▁Inn	-11.226
▁angeben	-11.2264
str	-11.2266
▁unterstreich	-11.2268
▁Ansätze	-11.2269
▁Tabellen	-11.2274
▁use	-11.2274
mark	-11.2275
blick	-11.2277
▁Monats	-11.2278
▁American	-11.2281
▁anzeigen	-11.2285
▁beliebteste	-11.2286
▁Verträgen	-11.229
▁pas	-11.2293
▁Lebensqualität	-11.2294
▁Tragödie	-11.2295
▁Fundament	-11.2296
▁Rande	-11.2297
▁vielfältigen	-11.2298
▁Anreiz	-11.23
▁modernes	-11.2302
ico	-11.2302
han	-11.2304
▁belegt	-11.2305
▁some	-11.2307
▁UND	-11.2307
▁Albanien	-11.2309
▁Niemand	-11.2309
▁Schwarz	-11.2312
▁einge	-11.2313
▁Besuchern	-11.2315
▁einheitlich	-11.2315
▁Rechenschaft	-11.2315
▁Doppelbett	-11.2315
▁Michel	-11.2316
staat	-11.2316
ati	-11.2318
▁zurückkehren	-11.2321
▁Verbündete	-11.2322
▁Drucker	-11.2326
▁bestens	-11.2326
▁Eintrag	-11.2331
▁relevanten	-11.2333
▁Max	-11.2334
▁Einzelnen	-11.2336
▁co	-11.2337
bereiche	-11.2337
▁sub	-11.2337
▁spüren	-11.2338
▁längst	-11.2343
▁Schiffs	-11.2343
▁Hol	-11.2347
▁Effekte	-11.2347
▁gemessen	-11.235
for	-11.2351
ub	-11.2353
▁Security	-11.2355
gu	-11.2359
▁Gewerkschaften	-11.236
▁bedenken	-11.236
▁SAP	-11.2363
▁nötigen	-11.2364
krise	-11.2364
▁getestet	-11.2366
▁abzielen	-11.2368
▁Verhandlung	-11.2369
▁Governance	-11.2372
▁Kohärenz	-11.2372
▁Brüder	-11.2372
▁Buffet	-11.2377
▁Blue	-11.2379
eck	-11.2381
▁HD	-11.2382
▁kon	-11.2382
▁Roll	-11.2385
▁Schl	-11.2385
prozess	-11.2386
regelung	-11.2386
▁maßgeblich	-11.2389
ep	-11.239
▁Flotte	-11.2393
▁extreme	-11.2398
ressourcen	-11.2399
mus	-11.2399
▁Wohlbefinden	-11.2401
las	-11.2401
gebiete	-11.2403
▁Libanon	-11.2406
kel	-11.2406
▁Gummi	-11.2406
▁Halb	-11.2413
▁Arbeitszeit	-11.2413
▁unglaublich	-11.2414
größe	-11.2415
▁Reserve	-11.2417
▁beantragt	-11.2418
▁Warnung	-11.2419
▁Photo	-11.2422
▁Regimes	-11.2424
▁wunderbar	-11.2431
▁Juden	-11.2437
rate	-11.2438
▁Begriffe	-11.2439
ES	-11.2445
plätze	-11.2445
▁high	-11.2445
▁einzigartig	-11.2447
▁Ratsvorsitzes	-11.2448
▁web	-11.2451
▁Bewegungen	-11.2454
▁starb	-11.2458
▁Vietnam	-11.2458
quellen	-11.2463
mission	-11.2463
▁Christen	-11.2465
▁52	-11.2466
kurs	-11.2467
▁Music	-11.2468
▁Architekten	-11.2469
▁gesunde	-11.2471
▁Lärm	-11.2472
▁when	-11.2476
suche	-11.2477
▁Statut	-11.2477
▁Anleitung	-11.2479
nde	-11.2479
instrumente	-11.248
▁Ernennung	-11.2481
▁Premium	-11.2481
▁analysiert	-11.2481
▁schlimmer	-11.2482
▁Meinungen	-11.2482
smittel	-11.2483
▁ausgehend	-11.2487
▁Taste	-11.249
▁vergleichbar	-11.2491
▁beeinträchtigt	-11.2493
▁Ursprungs	-11.2498
▁versetzt	-11.2499
▁Ehren	-11.2499
▁Sp	-11.2501
swegen	-11.2504
▁Koch	-11.2506
▁Anders	-11.2508
▁Vorbild	-11.2509
▁verlängert	-11.251
▁Kamin	-11.2511
▁markiert	-11.2517
▁Skript	-11.2523
▁bit	-11.2524
▁koordiniert	-11.2524
sicht	-11.2525
▁enorm	-11.2529
▁Flüge	-11.2529
▁Golfplatz	-11.2529
▁Gerichtshofs	-11.2536
▁Tu	-11.2539
ea	-11.2541
▁47	-11.2546
ziel	-11.2546
▁Bel	-11.2547
spflicht	-11.2551
▁Forscher	-11.2552
▁Bisher	-11.2552
▁falschen	-11.2554
▁Amerikas	-11.2555
▁Wahrnehmung	-11.2557
▁Gipfels	-11.2558
▁Formel	-11.2559
▁gleicher	-11.2559
▁Arbeitsweise	-11.2561
menge	-11.2562
▁einsetzt	-11.2563
▁existierende	-11.2564
▁genetisch	-11.2567
▁einzelner	-11.2574
▁nennt	-11.2578
▁Trennung	-11.2582
▁verhalten	-11.2584
▁Mund	-11.2585
typen	-11.2585
▁Auslieferung	-11.2586
▁night	-11.2588
▁verbindliche	-11.259
▁Vizepräsident	-11.2591
▁Elektronik	-11.2592
institutionelle	-11.2594
▁freier	-11.2595
▁abzielt	-11.2598
▁tätigen	-11.2601
▁Haushaltsplans	-11.2603
▁lohnt	-11.2604
▁trennen	-11.2604
▁offenkundig	-11.261
▁Arbeitskräfte	-11.2612
hand	-11.2614
▁Gründer	-11.2615
▁Schlußfolgerung	-11.2615
▁ausgeübt	-11.2616
▁griechische	-11.2618
▁Bruder	-11.2621
▁Bedingung	-11.2623
bringt	-11.2625
▁Ernährungs	-11.2627
ius	-11.2628
▁Strecken	-11.2628
▁aufeinander	-11.263
▁vergleichen	-11.2632
verarbeitung	-11.2633
▁Vorsicht	-11.2635
▁abgehalten	-11.2635
ona	-11.2638
▁Erdbeben	-11.2639
▁Captain	-11.2639
▁Room	-11.2639
▁intensive	-11.264
▁klarer	-11.2641
▁setzte	-11.2648
In	-11.2648
▁Gesprächen	-11.2649
▁gesunden	-11.2652
▁Fragestunde	-11.2652
▁Klick	-11.2654
▁Trends	-11.2657
▁Ta	-11.2658
▁Füße	-11.2663
skontrolle	-11.2663
▁startet	-11.2667
▁Segel	-11.2668
▁gestellten	-11.2673
▁gepflegt	-11.2676
bewegung	-11.2677
▁View	-11.2679
OR	-11.2679
▁Ausstellungen	-11.2682
▁PSE	-11.2683
▁Übersetzungen	-11.2684
▁Thailand	-11.2686
▁Ci	-11.2687
▁Einwohnern	-11.2688
sitz	-11.269
▁Bananen	-11.2691
▁Halbinsel	-11.2692
▁befürworte	-11.2694
▁benachteiligt	-11.2697
OS	-11.2697
▁standen	-11.2698
▁Weltbank	-11.2703
▁aufweisen	-11.2703
zufinden	-11.2703
▁zahlreicher	-11.2704
schau	-11.2704
jährigen	-11.2704
▁gewählte	-11.2709
▁è	-11.2709
▁Regen	-11.271
sentwurf	-11.2714
▁Com	-11.2718
▁DS	-11.2719
▁zwingen	-11.2719
▁Defizit	-11.272
▁übrig	-11.2724
sgruppen	-11.2724
▁angehen	-11.2726
▁Piazza	-11.2732
▁dis	-11.2734
sion	-11.2736
▁Verpackung	-11.2738
▁Rindfleisch	-11.2741
▁Back	-11.2741
▁Schluß	-11.2748
▁Christdemokrat	-11.2748
▁werte	-11.2749
▁Account	-11.275
▁Randlage	-11.2752
▁Reaktionen	-11.2753
▁Dich	-11.2756
▁veranstaltet	-11.2757
ici	-11.2763
materialien	-11.2763
▁restaurant	-11.2767
▁aufgehoben	-11.2768
▁bekanntesten	-11.2768
▁Parallel	-11.2769
▁Tre	-11.277
▁Bewertungen	-11.277
▁Ärzte	-11.2772
AL	-11.2774
▁kg	-11.2775
sziele	-11.2777
▁Ch	-11.2782
▁Pin	-11.2782
▁bevorzugt	-11.2784
▁renovierte	-11.2786
eb	-11.2788
▁doppelte	-11.2789
▁Salzburg	-11.2789
▁Korrektur	-11.2791
▁beseitigt	-11.2793
▁geltend	-11.2794
▁passen	-11.2795
saal	-11.2796
gut	-11.2796
▁unmittelbare	-11.2797
▁Analysen	-11.2799
▁And	-11.2799
▁attraktiv	-11.28
▁Tarif	-11.2802
▁Mailand	-11.2803
▁Vista	-11.2804
▁einiges	-11.2804
▁verstoßen	-11.2805
▁zeichnen	-11.2805
ello	-11.2806
▁plant	-11.2806
▁Mond	-11.2807
▁Rechtsrahmen	-11.2808
▁CS	-11.2813
▁Friedensprozess	-11.2814
geben	-11.2815
▁Anzeigen	-11.2816
▁Turnier	-11.2816
▁verhandeln	-11.2817
▁Kor	-11.2818
▁Internetseite	-11.2818
▁Demo	-11.2818
▁gesetzlich	-11.2819
▁regelmäßige	-11.2824
▁Käse	-11.2826
rück	-11.2827
▁Maus	-11.2827
▁steckt	-11.2829
▁gewiss	-11.2833
▁PS	-11.2833
80	-11.2833
▁Interface	-11.2834
information	-11.2836
▁legal	-11.284
▁akzeptabel	-11.284
mäßig	-11.2841
situation	-11.2841
▁vorhandene	-11.2846
side	-11.2846
niveau	-11.2847
verschmutzung	-11.2848
▁Level	-11.285
tour	-11.285
▁Che	-11.2853
▁total	-11.2854
▁einzurichten	-11.2856
▁einzubeziehen	-11.2859
▁Commerce	-11.2859
▁nah	-11.286
▁Ozean	-11.2864
▁Wikitravel	-11.2864
▁fern	-11.2867
▁gesetzliche	-11.287
ula	-11.2871
▁zahlt	-11.2871
▁allmählich	-11.2872
sfragen	-11.2873
▁Award	-11.2875
▁beider	-11.2876
▁Mitwirkung	-11.288
▁geplante	-11.2884
▁greifen	-11.2889
▁schlage	-11.2891
35	-11.2892
gy	-11.2895
200	-11.2895
▁Lebensmitteln	-11.2899
▁Beitrittsländer	-11.29
▁LateRooms	-11.2901
▁Evaluierung	-11.2901
▁Gi	-11.2902
▁erweiterte	-11.2904
▁tatsächliche	-11.2904
▁Zahlungs	-11.291
funktionen	-11.2911
▁Norm	-11.2912
24	-11.2912
▁vorne	-11.2914
ey	-11.2914
▁ungarischen	-11.2918
▁Copyright	-11.2919
▁bewirkt	-11.2919
▁beitreten	-11.292
▁Norwegen	-11.2925
▁Verstöße	-11.2925
bot	-11.2929
▁top	-11.2929
▁idealer	-11.293
▁Träger	-11.2931
▁Komplettpreise	-11.2931
car	-11.2933
saustausch	-11.2934
▁gefangen	-11.2934
ante	-11.2934
▁vorgesehene	-11.2936
▁führend	-11.2936
sk	-11.2937
▁bist	-11.2939
ska	-11.2943
haltung	-11.2946
▁beobachtet	-11.2949
▁Lust	-11.295
Gleichbehandlung	-11.2952
vers	-11.2952
ral	-11.2953
▁durchsetzen	-11.2954
ons	-11.2955
▁gelöscht	-11.2961
▁auszuüben	-11.2961
▁vertrauen	-11.2965
▁schwerer	-11.2966
oberfläche	-11.2966
▁max	-11.2969
srechts	-11.2971
▁Patch	-11.2973
▁Human	-11.2975
▁Verband	-11.2976
agentur	-11.2977
sdaten	-11.2977
▁lebenden	-11.2978
▁Donau	-11.2979
▁Toleranz	-11.2979
▁größtmögliche	-11.2979
finanzierung	-11.2979
▁Mor	-11.298
Gesundheitswesen	-11.2982
zugreifen	-11.2982
▁Emissions	-11.2982
▁Multimedia	-11.2982
▁Jahrestag	-11.2986
▁errichten	-11.2987
tan	-11.299
▁Tr	-11.2991
▁jährige	-11.2991
▁gen	-11.2992
▁het	-11.2993
▁FI	-11.2997
veranstaltungen	-11.2997
▁zerstören	-11.2997
▁UNESCO	-11.2997
▁verwirklicht	-11.2997
emissionen	-11.2998
▁Louis	-11.2999
bricht	-11.2999
elekommunikation	-11.2999
▁Instruments	-11.3002
▁Zahlreiche	-11.3006
ura	-11.3006
▁Museums	-11.3009
▁Pfad	-11.3011
té	-11.3011
▁Folter	-11.3017
▁Turm	-11.302
▁gelang	-11.3022
▁fr	-11.3029
austausch	-11.3029
▁Geschäftsreisen	-11.303
anz	-11.3031
▁benannt	-11.3031
▁Variante	-11.3033
▁Marine	-11.3033
▁Libyen	-11.3034
▁befand	-11.3034
▁konstruktiv	-11.3039
▁veröffentlichte	-11.3041
▁Sicherheitsrat	-11.3041
▁Beweise	-11.3045
▁Schalt	-11.3045
▁Darlehen	-11.3046
▁Unterricht	-11.3052
▁Mix	-11.3053
▁korrigieren	-11.3059
▁EVP	-11.3059
▁Legislativ	-11.3062
farben	-11.3063
▁Sowjetunion	-11.3065
▁Features	-11.3066
charakteristisch	-11.3066
▁Hunderte	-11.3067
▁Erd	-11.3069
▁drängen	-11.3074
bekämpfung	-11.3077
▁Integrität	-11.3077
ev	-11.308
▁Ki	-11.3081
sort	-11.3081
▁gerufen	-11.3083
▁Beendigung	-11.3083
▁Befreiung	-11.3083
▁Busse	-11.3084
▁statistische	-11.3084
▁dramatisch	-11.3084
▁Berichten	-11.3088
▁School	-11.3089
▁verleiht	-11.3089
ala	-11.309
18	-11.3093
▁Indem	-11.3094
körper	-11.3094
▁angehören	-11.3094
▁Reihenfolge	-11.3095
▁ueber	-11.3096
dateien	-11.3096
▁Palast	-11.3096
ique	-11.3097
▁Kühl	-11.3097
▁Tom	-11.3102
▁Abwicklung	-11.3102
▁Cu	-11.3103
halb	-11.3103
▁Ehe	-11.3103
▁Release	-11.3103
setzung	-11.3105
▁Stuttgart	-11.3106
▁Einkauf	-11.3106
▁Zahn	-11.3108
▁Bre	-11.3109
▁Durchschnitt	-11.3112
▁its	-11.3113
▁most	-11.3116
▁vielfach	-11.3117
▁Ber	-11.3119
▁gäbe	-11.312
▁geladen	-11.3124
sräume	-11.3124
▁Brot	-11.313
▁Masse	-11.3136
▁Sorgfalt	-11.3138
▁Annäherung	-11.3138
ins	-11.3139
▁Perspektiven	-11.314
▁begab	-11.3144
▁Nachteil	-11.3146
▁Erscheinung	-11.3147
ness	-11.3149
▁France	-11.3155
▁EP	-11.3156
▁Genf	-11.3157
▁verschärft	-11.3157
▁Korea	-11.3162
▁heran	-11.3162
erei	-11.3164
wo	-11.3164
▁Display	-11.3166
▁diesmal	-11.3167
fonds	-11.3169
▁verschoben	-11.3169
▁massiv	-11.3173
▁dachte	-11.3174
▁besticht	-11.3176
bu	-11.3176
▁Jagd	-11.3177
rand	-11.3179
▁reichhaltige	-11.3179
▁j	-11.318
▁Alexander	-11.3181
aufrechterhalten	-11.3182
▁Temperaturen	-11.3182
sammenzuarbeiten	-11.3185
▁kompletten	-11.3187
ware	-11.3187
▁You	-11.3188
▁Freie	-11.3188
▁rote	-11.3191
▁Inneres	-11.3196
64	-11.3197
▁komplex	-11.32
▁traditionell	-11.3203
pol	-11.3206
▁anbietet	-11.3207
▁1970	-11.3207
▁Beachten	-11.3216
keiten	-11.3217
▁deutlicher	-11.3219
▁eingerichteten	-11.322
pl	-11.3221
▁Finanzmärkte	-11.3221
▁idealen	-11.3223
▁Tipps	-11.3223
▁Kopie	-11.3224
▁potenzielle	-11.3225
▁Nichtregierungs	-11.3225
▁Quartal	-11.3225
▁Nachfolger	-11.323
▁Charles	-11.3232
▁Erdöl	-11.3232
sphase	-11.3233
▁Erleben	-11.3233
▁breiter	-11.3233
▁weite	-11.3234
▁operative	-11.3234
ori	-11.3234
▁Präsidium	-11.3235
▁Autonomie	-11.3235
▁Kranken	-11.3236
dauer	-11.3239
▁bereitzustellen	-11.3239
ile	-11.3241
▁musikalische	-11.3242
▁Krankenhaus	-11.3243
▁home	-11.3243
lassen	-11.3244
▁wünscht	-11.3245
stra	-11.3247
the	-11.3249
▁Tunesien	-11.325
oc	-11.3251
▁köstliche	-11.3252
▁geschmackvoll	-11.3254
14	-11.3255
▁genügt	-11.3257
▁ermittelt	-11.3257
▁Einheiten	-11.3257
▁make	-11.3257
▁Allgemeine	-11.3258
▁Haushaltsjahr	-11.326
▁Ke	-11.3261
▁Viren	-11.3261
mmer	-11.3263
▁hört	-11.3265
ps	-11.3268
▁their	-11.3269
kreis	-11.3269
▁Campingplatz	-11.3269
▁Reichtum	-11.3273
▁part	-11.3274
▁Vo	-11.3276
wege	-11.3277
probleme	-11.3278
spielen	-11.3286
▁schöner	-11.3287
urlaub	-11.3287
▁Putin	-11.3292
▁müßte	-11.3299
▁bedauern	-11.3299
▁durchgesetzt	-11.33
cken	-11.3304
▁Menschenhandel	-11.3304
▁Km	-11.3306
▁verschieben	-11.3307
geschwindigkeit	-11.3308
cher	-11.3308
yl	-11.331
▁internet	-11.3314
▁bedingt	-11.3315
▁Prof	-11.3316
ball	-11.3316
pel	-11.3316
▁Basel	-11.3321
▁Sender	-11.3321
▁kompatibel	-11.3321
▁begreifen	-11.3321
▁Bewerbung	-11.3322
eln	-11.3322
▁Richard	-11.3326
▁geholfen	-11.3326
▁Wagen	-11.3327
▁been	-11.3327
▁Black	-11.3328
▁müsse	-11.3329
▁Währungs	-11.3329
▁meint	-11.3329
▁Zellen	-11.333
dro	-11.333
▁nördlichen	-11.333
met	-11.333
cy	-11.3332
▁Spam	-11.3333
▁Aktionsprogramm	-11.3333
▁interaktive	-11.3336
▁Eisen	-11.3336
▁Grafiken	-11.3337
▁Effektivität	-11.3338
länder	-11.334
▁Vorwand	-11.334
▁Kindes	-11.3341
auswahl	-11.3342
Gastfreundschaft	-11.3344
32	-11.3345
▁Textes	-11.3347
▁geklärt	-11.3349
sverhältnis	-11.3349
▁eventuelle	-11.3351
▁Befürchtung	-11.3351
▁Joseph	-11.3351
▁gefertigt	-11.3355
illa	-11.3356
▁japanischen	-11.3356
ör	-11.3357
▁Hongkong	-11.3357
▁schwerwiegende	-11.3358
▁Pol	-11.3358
▁etabliert	-11.3359
ssystems	-11.3359
treffen	-11.3361
▁Diagnose	-11.3363
▁Folglich	-11.3363
▁ernannt	-11.3365
gehalt	-11.3367
▁Schottland	-11.337
▁Komplex	-11.3372
▁vierten	-11.3373
▁Gay	-11.3375
▁Indonesien	-11.3376
▁koordinieren	-11.3376
▁Einsparung	-11.3376
▁Ag	-11.3381
pon	-11.3385
▁fühlt	-11.3388
▁Düsseldorf	-11.3389
▁Aufträge	-11.3392
rie	-11.3392
lang	-11.3393
fo	-11.3395
technologien	-11.3395
▁häufiger	-11.3395
prüfung	-11.3401
▁Paradies	-11.3401
▁Zusammenbruch	-11.3401
▁Defizite	-11.3402
höhe	-11.3402
▁erschien	-11.3403
▁habt	-11.3403
▁ermitteln	-11.3404
tiefst	-11.3404
▁who	-11.3405
▁HU	-11.3409
▁faszinierende	-11.3409
rahmen	-11.341
▁Rekord	-11.3414
▁betreut	-11.3414
▁Dein	-11.342
▁site	-11.342
datei	-11.3423
▁terroristische	-11.3423
▁Foren	-11.3425
leiter	-11.3426
▁Vermeidung	-11.3427
▁verliert	-11.3429
▁untergraben	-11.343
▁Weiß	-11.3432
▁Erneuerung	-11.3433
▁Marco	-11.3434
▁SE	-11.3436
▁breites	-11.3437
▁verschwinden	-11.3438
verbindungen	-11.3439
▁Finger	-11.3441
ish	-11.3446
▁Erhebung	-11.3446
serv	-11.3447
▁Cor	-11.3447
transfer	-11.3448
▁Erreichen	-11.3449
sunternehmen	-11.3454
verband	-11.3456
▁unnötig	-11.3459
stechnik	-11.3463
▁anstelle	-11.3464
status	-11.3465
▁versprochen	-11.3465
sh	-11.3467
▁Stamm	-11.3471
▁Potential	-11.3471
▁Anleger	-11.3472
fang	-11.3475
▁Sun	-11.3476
▁Line	-11.3477
▁Freien	-11.3478
▁Za	-11.3482
nik	-11.3482
▁Legitimität	-11.3484
▁Höchst	-11.3484
ted	-11.3485
ía	-11.3486
züge	-11.3489
▁Hierzu	-11.349
▁Grill	-11.349
▁Gleichheit	-11.3491
▁Konsumenten	-11.3494
ING	-11.3499
▁beliebten	-11.3499
▁junger	-11.3502
musik	-11.3505
▁Verkehrsmittel	-11.3506
▁Territorium	-11.3508
kurse	-11.3509
▁optimiert	-11.351
▁feiern	-11.351
▁Rang	-11.3511
▁weitergegeben	-11.3511
▁sozusagen	-11.3514
▁Kühlschrank	-11.3516
▁Shopping	-11.3516
▁Bal	-11.3517
schicht	-11.3517
▁Bern	-11.3519
ran	-11.3519
▁Fokus	-11.3521
▁Spielraum	-11.3521
▁Akt	-11.3527
▁Organen	-11.3527
IG	-11.3527
▁Abfälle	-11.3528
▁Grundfreiheiten	-11.3529
▁Abstimmungen	-11.353
elt	-11.3532
▁europaweit	-11.3539
▁Sam	-11.3547
anwendungen	-11.3548
grad	-11.355
▁mußte	-11.3551
▁Peking	-11.3555
▁Br	-11.3555
▁christliche	-11.3557
▁Ju	-11.3562
▁bereitstellen	-11.3565
▁any	-11.3572
▁ignorieren	-11.3574
▁Nero	-11.3574
▁Demokratische	-11.3574
▁einschlägige	-11.358
Ü	-11.3582
▁Parlamentarier	-11.3587
therapie	-11.3588
zulegen	-11.359
lon	-11.3595
▁schönes	-11.3595
▁untereinander	-11.3598
boden	-11.3602
▁überarbeitet	-11.3604
elemente	-11.3606
▁Manchmal	-11.3606
▁Host	-11.3608
▁Besteller	-11.361
▁Netzwerke	-11.3613
▁minutes	-11.3613
▁Control	-11.3617
▁Konzerte	-11.3619
▁Opfern	-11.3622
▁Komponente	-11.3625
last	-11.3626
▁mehrerer	-11.3626
sinstrument	-11.3626
▁stetig	-11.3627
linien	-11.3629
▁Ansprechpartner	-11.3632
wirtschaftlichen	-11.3637
ford	-11.3638
▁zwangsläufig	-11.3639
▁Institute	-11.3639
▁station	-11.3645
listen	-11.3645
▁Song	-11.3646
▁Gefangenen	-11.3648
räumen	-11.3651
▁54	-11.3659
▁Residenz	-11.3659
▁Verbrauch	-11.366
swert	-11.3663
zy	-11.3663
text	-11.3664
▁vorgebracht	-11.3665
▁hinzuweisen	-11.3665
ther	-11.3667
▁Einfuhr	-11.367
▁gewohnt	-11.3672
▁Stellenwert	-11.3672
zudenken	-11.3673
▁Neuigkeiten	-11.3674
▁Qualifikation	-11.3675
▁bemerken	-11.3677
▁ce	-11.3677
▁privat	-11.3678
mb	-11.368
▁Zugleich	-11.3681
▁Chemikalien	-11.3682
▁ökonomischen	-11.3684
▁Beträge	-11.3684
17	-11.3685
▁geringere	-11.3686
rechts	-11.3688
▁Straf	-11.3691
verbindung	-11.3691
zufolge	-11.3697
▁Vertrauens	-11.3697
▁transparente	-11.37
▁spannende	-11.3705
▁Privatisierung	-11.3705
▁Kommissare	-11.3705
▁vorangegangenen	-11.3706
▁Pixel	-11.371
▁Resultat	-11.3711
▁Einfluß	-11.3712
verteilung	-11.3712
▁englisch	-11.3714
▁Zivilisation	-11.3715
▁Versicherung	-11.3718
▁Vorbehalte	-11.3721
partner	-11.3722
stoffe	-11.3722
▁и	-11.3723
▁Mühe	-11.3724
▁hängen	-11.3724
▁Vorgänger	-11.3724
▁Lang	-11.3728
▁Impulse	-11.3728
▁gefolgt	-11.373
▁Valencia	-11.373
▁Datenbanken	-11.3731
▁Gültigkeit	-11.3733
▁Kluft	-11.3738
▁Konflikts	-11.3739
programms	-11.3743
▁Geschäftsführer	-11.3745
▁Schnitt	-11.3745
mos	-11.3746
▁irgendein	-11.3747
tic	-11.3747
kammer	-11.375
▁Magazin	-11.375
▁exakt	-11.3751
▁Fusion	-11.3757
▁Dörfer	-11.3757
▁Erwachsenen	-11.3763
▁Diensten	-11.3764
nähe	-11.3766
ima	-11.3769
▁Einwände	-11.3769
▁indische	-11.3769
gänge	-11.3771
▁bestehend	-11.3775
▁gescheitert	-11.3776
▁beachtet	-11.3776
▁bestellt	-11.3782
▁Kernenergie	-11.3783
nutzung	-11.3784
▁back	-11.3786
▁großzügige	-11.3788
▁Ausfuhr	-11.379
▁Sehen	-11.3791
server	-11.3791
▁Stoff	-11.3793
▁Interview	-11.3794
▁51	-11.3795
formen	-11.3795
▁Signale	-11.3795
▁fünfzehn	-11.3796
▁tra	-11.3797
▁Sir	-11.3798
gan	-11.38
▁allgemeiner	-11.3801
▁Sämtliche	-11.3802
▁ré	-11.3803
▁hinterlassen	-11.3803
cho	-11.3807
▁Begrenzung	-11.3809
cu	-11.3809
▁off	-11.3812
▁At	-11.3813
hang	-11.3813
▁vorschläg	-11.3815
▁Executive	-11.3815
▁Autorität	-11.3816
stück	-11.3818
▁Errungenschaft	-11.3822
▁Wechselkurs	-11.3823
▁gemeldet	-11.3825
▁komplizierte	-11.3827
▁behindert	-11.3828
▁Kleidung	-11.383
▁Hotelzimmer	-11.3831
▁Wurzeln	-11.3836
▁Carl	-11.3838
▁decken	-11.3838
▁Buchstaben	-11.384
ations	-11.3841
vent	-11.3842
▁Börsen	-11.3845
▁Anmerkung	-11.3848
▁Professional	-11.3849
▁Königs	-11.385
▁Editor	-11.385
▁ausgedrückt	-11.3851
▁Listen	-11.3853
▁wahrnehmen	-11.3855
▁Hin	-11.3856
▁Ru	-11.3857
förderung	-11.3858
kette	-11.3858
▁ko	-11.386
ermaßen	-11.3861
▁Sevilla	-11.3862
▁Probe	-11.3863
▁erhöhte	-11.3866
▁URL	-11.3867
kor	-11.3868
▁jüdische	-11.3874
▁bemerkt	-11.3874
eh	-11.3875
▁hand	-11.3878
▁umfassender	-11.3879
let	-11.388
▁Ali	-11.388
▁user	-11.3881
▁fähig	-11.3883
▁schwarze	-11.3887
▁Liberale	-11.3888
▁wusste	-11.3888
▁Zuerst	-11.3891
MS	-11.3892
▁Übersetzer	-11.3892
▁zweimal	-11.3893
▁Tschetschenien	-11.3895
▁anmelden	-11.3895
▁Zertifikat	-11.3895
▁two	-11.3896
▁verbieten	-11.3898
▁belegen	-11.3898
▁Gaza	-11.3898
▁Print	-11.3901
▁Gehäuse	-11.3902
▁Spenden	-11.3903
▁Mehrere	-11.3905
▁zugewiesen	-11.3906
▁Game	-11.3908
▁Besetzung	-11.391
landschaft	-11.3911
▁Place	-11.3911
analyse	-11.3914
▁heruntergeladen	-11.3915
▁CHF	-11.3923
wissenschaften	-11.3924
▁Säule	-11.3925
▁ausgerüstet	-11.3931
gestaltung	-11.3931
baum	-11.3931
▁Chemie	-11.3935
interessen	-11.3936
▁Allah	-11.3936
ett	-11.3938
▁getreten	-11.394
▁Geo	-11.394
▁Ausser	-11.3943
▁Mat	-11.3943
schnitt	-11.3945
▁first	-11.3947
▁Dolomiten	-11.3948
▁kollektive	-11.3951
▁blockiert	-11.3951
▁legte	-11.3953
▁Stränden	-11.3954
▁Olympische	-11.3955
▁Zi	-11.3957
tum	-11.396
▁einzustellen	-11.3961
▁tiefe	-11.3967
▁größtenteil	-11.3969
▁gesorgt	-11.3969
▁treiben	-11.3972
▁gelegentlich	-11.3975
kopf	-11.3976
▁mieten	-11.3976
▁profitiert	-11.3978
▁Daniel	-11.3979
igt	-11.3984
▁bewährte	-11.3985
▁Elementen	-11.3989
▁unterhalb	-11.399
▁bestmögliche	-11.399
▁beliebt	-11.3994
▁Route	-11.3998
▁Men	-11.3998
▁übernahm	-11.4001
pflege	-11.4001
tat	-11.4002
▁GVO	-11.4003
ib	-11.4007
märkte	-11.4009
▁AC	-11.401
▁Motoren	-11.4014
cal	-11.4014
▁bathroom	-11.4016
▁Fund	-11.4017
behandlung	-11.4017
bett	-11.4017
▁Luftverkehrs	-11.402
▁beantragen	-11.4021
16	-11.4023
▁Termine	-11.4024
nder	-11.4024
▁LAN	-11.403
▁Doha	-11.403
▁gültige	-11.4031
▁download	-11.4031
bedarf	-11.4034
▁Time	-11.4035
▁Früchte	-11.4036
▁Auskunft	-11.4036
ob	-11.4038
▁Meilen	-11.404
13	-11.404
▁verteidigt	-11.4043
▁kontinuierliche	-11.4043
▁anlässlich	-11.4044
▁Leit	-11.4048
▁Gestalt	-11.4057
▁Einblick	-11.4062
▁Schulung	-11.4063
▁Bas	-11.4063
▁Mannschaft	-11.4066
▁eigenständige	-11.4067
▁schreckliche	-11.4067
ET	-11.4069
alität	-11.4071
▁Finanzminister	-11.4075
▁Protest	-11.4076
▁Egal	-11.4078
▁Segment	-11.4079
▁blau	-11.408
▁old	-11.408
▁Cha	-11.408
▁Lob	-11.4081
▁begrenzte	-11.4083
▁Container	-11.4083
▁telefonisch	-11.4083
pu	-11.4086
▁Paar	-11.4087
▁Square	-11.409
ufrechterhaltung	-11.409
▁Wellen	-11.4092
stellt	-11.4092
▁Später	-11.4092
▁Abbildung	-11.4092
▁design	-11.4096
▁Explorer	-11.4097
▁beeinträchtigen	-11.4097
▁verbreiten	-11.4097
▁Chile	-11.4098
▁Lande	-11.41
▁frühere	-11.4103
▁AIDS	-11.4104
▁Games	-11.4104
▁open	-11.4105
▁anstreben	-11.4106
▁dynamisch	-11.4106
▁Devisen	-11.4107
olo	-11.4109
az	-11.411
▁Estland	-11.4111
▁Beihilfe	-11.4111
▁vierte	-11.4116
▁view	-11.4117
▁Wall	-11.4119
▁Fristen	-11.4125
▁transeuropäisch	-11.4125
▁Substanzen	-11.4127
▁Oper	-11.4129
▁Eleganz	-11.4131
▁Zentren	-11.4131
▁bewahrt	-11.4131
▁Immunität	-11.4131
▁Stockholm	-11.4131
▁Phasen	-11.4133
▁Vorgang	-11.4134
▁berührt	-11.4138
▁Behinderungen	-11.4138
▁Mitgliedsstaat	-11.4139
▁inhaltlich	-11.4143
▁Koalition	-11.4145
▁Bestände	-11.4145
▁Umstellung	-11.4149
▁schwarzen	-11.4151
▁aufrichtig	-11.4151
▁vorausgesetzt	-11.4152
▁problematisch	-11.4152
▁befreien	-11.4153
▁Binnenmarkts	-11.4153
▁dei	-11.4153
▁Sozialpolitik	-11.4155
▁Cam	-11.4155
▁Christian	-11.4156
ej	-11.4161
▁Applikationen	-11.4163
▁geachtet	-11.4164
planung	-11.4164
▁mar	-11.4166
▁bedient	-11.4166
▁Rollen	-11.4168
▁Profit	-11.4169
pack	-11.4169
▁Zwecken	-11.417
▁wirksamer	-11.4172
▁scheinbar	-11.4172
▁anfangen	-11.4179
▁amerikanischer	-11.418
▁sozialistische	-11.4181
IN	-11.4183
45	-11.4185
stätigkeit	-11.4185
ax	-11.4186
▁betreibt	-11.4187
zutreiben	-11.4188
▁grafische	-11.4188
▁Grundstück	-11.419
▁ausgeliefert	-11.4191
▁geografische	-11.4191
▁erzählt	-11.4194
▁ethische	-11.4195
ender	-11.4202
cht	-11.4203
▁Sky	-11.4204
▁Volumen	-11.4205
ST	-11.4206
▁galt	-11.4207
▁Schauspieler	-11.4208
gekommen	-11.4211
▁Größen	-11.4215
▁gesch	-11.4215
ando	-11.4216
▁vi	-11.4217
code	-11.4217
▁Parks	-11.4218
▁stärkeren	-11.4219
sprobleme	-11.422
▁Ausgangs	-11.4224
▁heikle	-11.4227
▁verglichen	-11.4227
▁Gesamtheit	-11.4229
einsatz	-11.4233
▁Extra	-11.4234
▁main	-11.4236
▁Gerne	-11.4236
▁belastet	-11.4237
▁Ebenfall	-11.4241
▁Pri	-11.4244
muster	-11.4246
▁access	-11.4248
▁fi	-11.425
▁GPS	-11.425
,9	-11.425
▁mehrmal	-11.4251
film	-11.4251
schiff	-11.4251
▁Sierra	-11.4256
kanal	-11.4257
geld	-11.4258
▁Begegnung	-11.4261
▁basierend	-11.4261
▁verwandelt	-11.4261
▁diesjährige	-11.4263
▁walk	-11.4263
▁geräumig	-11.4263
gr	-11.4263
▁Mitbürger	-11.4264
▁bekräftigen	-11.4265
▁Entdeckung	-11.4267
▁Athen	-11.4267
▁Jh	-11.4267
▁Fracht	-11.427
▁inkl	-11.4272
▁Zufall	-11.4272
▁außenpolitische	-11.4273
▁Tatsachen	-11.4274
▁verhandelt	-11.4275
▁Engineering	-11.4276
▁berühmt	-11.4276
▁Außengrenzen	-11.428
▁eingeben	-11.4283
zukommen	-11.4284
▁Key	-11.4286
sofern	-11.4287
▁umfassendes	-11.4288
▁Inanspruchnahme	-11.4289
▁Verknüpfung	-11.4289
▁Quark	-11.4289
sbereiche	-11.4289
▁optimieren	-11.4289
▁Is	-11.4289
▁Renn	-11.4291
wort	-11.4291
len	-11.4295
▁stattfand	-11.4296
▁stoppen	-11.4296
▁leistungsstarke	-11.4298
▁tiefer	-11.4299
back	-11.4302
▁Auswertung	-11.4303
▁Ernst	-11.4306
▁Sea	-11.4308
▁beherbergt	-11.431
▁persönlicher	-11.4311
▁Airlines	-11.4311
▁Schließung	-11.4312
ous	-11.4315
verbände	-11.4316
▁bekämpft	-11.4317
EM	-11.4317
freiheit	-11.4319
▁53	-11.4319
▁Augenmerk	-11.4324
▁festgehalten	-11.4324
artikel	-11.4331
▁abends	-11.4333
▁Tra	-11.4337
▁English	-11.4338
▁Fu	-11.4339
▁leistungsfähige	-11.434
▁Elite	-11.4342
▁vorbereiten	-11.4343
▁optimalen	-11.4344
▁than	-11.4348
basierte	-11.4349
▁Nikon	-11.4349
pläne	-11.4351
▁abend	-11.4351
▁besichtigen	-11.4352
▁Ltd	-11.4352
board	-11.4352
▁56	-11.4356
▁Gar	-11.4356
don	-11.4358
ID	-11.4359
▁Ratspräsidenten	-11.4359
▁reiche	-11.4359
▁Rechtsetzung	-11.4363
fahr	-11.4364
▁dahingehend	-11.4366
smethoden	-11.4367
▁sp	-11.4368
▁Solang	-11.4369
▁Redezeit	-11.4371
fabrik	-11.4372
▁bewundern	-11.4374
tieren	-11.4374
▁Spar	-11.4375
▁Palma	-11.4377
▁Landschaften	-11.4378
▁versichert	-11.4379
▁erzielte	-11.4381
▁Baden	-11.4382
▁Suchen	-11.4383
то	-11.4386
▁identifizieren	-11.4386
▁haftet	-11.4387
▁Golden	-11.4391
▁Log	-11.4392
och	-11.4393
▁touristischen	-11.4394
▁Passagiere	-11.4395
▁Futtermittel	-11.4395
din	-11.4395
▁zog	-11.4396
istisch	-11.44
▁Residence	-11.44
▁Studios	-11.4408
▁Speed	-11.4408
▁day	-11.4409
▁japanische	-11.4411
▁Nordkorea	-11.4414
▁gezahlt	-11.4414
▁beweist	-11.4415
▁einseitig	-11.4416
▁Künstlern	-11.442
ро	-11.4422
▁feste	-11.4422
▁logisch	-11.4423
nie	-11.4423
▁Breite	-11.4423
▁Erfassung	-11.4424
▁separate	-11.4428
▁iPod	-11.4428
ng	-11.4431
▁stilvolle	-11.4433
▁Workshops	-11.4433
▁Minimum	-11.4436
raten	-11.4437
▁Einbindung	-11.4438
▁Mel	-11.4439
design	-11.4439
▁Gastronomie	-11.4443
ox	-11.4443
▁Sofern	-11.4445
▁Jahrhunderte	-11.4447
▁ba	-11.4449
▁check	-11.4449
▁hinzuzufügen	-11.445
▁Unserer	-11.4452
▁Layout	-11.4452
▁feine	-11.4455
▁Indikatoren	-11.4455
▁Übermittlung	-11.4457
▁Einreise	-11.4457
▁Terminal	-11.4459
IA	-11.4459
ois	-11.4463
▁gründen	-11.4463
▁befreit	-11.4464
▁Network	-11.4465
messe	-11.4465
▁Laufzeit	-11.4468
ssen	-11.4469
▁Bürgerrechte	-11.4469
▁asiatische	-11.447
richtung	-11.447
▁Gro	-11.4471
▁einbringen	-11.4473
vin	-11.4474
▁Serien	-11.4475
▁Freihandel	-11.4478
ces	-11.4478
▁Grab	-11.4481
▁bo	-11.4483
▁original	-11.4484
volumen	-11.4485
▁Helsinki	-11.4485
▁PRO	-11.4485
▁bewährt	-11.4487
etz	-11.4488
tür	-11.4489
▁Internetseiten	-11.4492
▁Dienstleister	-11.4492
▁engagieren	-11.4492
▁Gegebenheit	-11.4492
▁Saddam	-11.4492
▁Warcraft	-11.4492
▁facilities	-11.4492
▁Vermögen	-11.4493
mp	-11.4496
▁easy	-11.4499
▁Zusammenfassung	-11.4499
▁Gesetzgeber	-11.4499
▁Moldau	-11.45
▁Höhepunkt	-11.4501
▁Anzeich	-11.4501
▁beglückwünsche	-11.4501
▁Soft	-11.4502
▁gesundheitliche	-11.4505
▁form	-11.4505
▁zwingend	-11.4507
▁Stra	-11.4511
▁Nokia	-11.4513
▁makroökonomisch	-11.4513
▁beschleunigt	-11.4515
▁Camping	-11.4517
sprozeß	-11.4517
▁passenden	-11.4518
▁hell	-11.4518
▁Kriterium	-11.452
▁wiederhole	-11.4521
▁Bandbreite	-11.4521
eo	-11.4522
▁Guide	-11.4523
▁May	-11.4524
▁bloß	-11.4525
glas	-11.4526
arbeiter	-11.4527
▁Eigentums	-11.4529
▁Crew	-11.4529
▁Darauf	-11.4529
▁Ferienhaus	-11.4531
▁späten	-11.4534
▁eignen	-11.4535
▁stieg	-11.4538
uri	-11.4541
▁stützt	-11.4542
▁HIV	-11.4542
▁Schwierigkeit	-11.4543
▁vorzubereiten	-11.4549
▁Zeile	-11.4549
▁Komplexität	-11.4549
▁First	-11.4549
investitionen	-11.455
▁steuern	-11.4551
▁worauf	-11.4554
ick	-11.4555
ira	-11.4555
▁Sant	-11.4556
▁fortzusetzen	-11.4556
▁Birma	-11.4557
ón	-11.4557
▁Vermögens	-11.4561
steuerung	-11.4562
▁Ingenieur	-11.4562
▁Infrastrukturen	-11.4562
gehört	-11.4563
▁Zeitungen	-11.4564
▁comp	-11.4564
▁definitiv	-11.4565
onne	-11.457
▁vorzuschlagen	-11.4573
▁Operationen	-11.4575
▁Mittag	-11.4576
▁look	-11.4576
fl	-11.4577
szentrum	-11.4578
▁sportliche	-11.4578
▁SP	-11.4579
▁erfassen	-11.458
cc	-11.4584
▁Stabilisierung	-11.4586
▁68	-11.4586
ire	-11.4587
▁Schiffen	-11.4589
▁Plugin	-11.4589
▁Abänderung	-11.4589
▁angehört	-11.4593
link	-11.4598
regionen	-11.46
▁72	-11.4606
▁beschädigt	-11.4606
modul	-11.4607
bit	-11.4609
▁Alters	-11.461
▁zufällig	-11.4612
▁Bur	-11.4612
rü	-11.4614
katastrophen	-11.4617
▁Erleichterung	-11.462
▁fortgeschritten	-11.462
▁transparenter	-11.4621
▁Kredite	-11.4621
▁fliegen	-11.4622
▁Liter	-11.4622
▁Einfach	-11.4623
▁Songs	-11.4623
▁ri	-11.4625
▁Wahlkreis	-11.4626
iti	-11.4627
rmaßen	-11.4627
cat	-11.4628
▁baut	-11.4628
▁erbracht	-11.4629
▁Kongo	-11.4631
▁Konvents	-11.4631
▁Bewirtschaftung	-11.4634
▁Maßstab	-11.4634
▁osteuropäische	-11.4635
án	-11.464
▁Flüsse	-11.4642
▁aufgeworfen	-11.4642
▁EWG	-11.4642
▁KDE	-11.4643
▁see	-11.4647
▁Begeisterung	-11.4649
▁abzulehnen	-11.4649
▁Pfeiler	-11.4653
▁Zutaten	-11.4656
▁friedlich	-11.4658
▁Sudan	-11.4658
dos	-11.466
▁unterstrichen	-11.4661
▁Freundschaft	-11.4662
▁Aufstieg	-11.4663
▁Kraftstoff	-11.4663
▁Fe	-11.4663
▁Cala	-11.4665
werke	-11.4665
▁350	-11.4665
schutzes	-11.4667
▁gängige	-11.4668
freie	-11.467
▁Wesentlich	-11.467
▁Gletscher	-11.467
▁festhalten	-11.4673
▁liberale	-11.4674
ordnung	-11.4674
▁spezifisch	-11.4675
▁beherrscht	-11.4678
▁vereinbaren	-11.4678
▁Beschaffung	-11.4678
▁Siemens	-11.4678
▁Aussteller	-11.4678
▁XML	-11.4679
▁gehörte	-11.468
▁Erstellen	-11.4681
▁Cas	-11.4682
▁Erkenntnis	-11.4685
▁Konservative	-11.4685
▁andern	-11.4685
gebühren	-11.4687
software	-11.4689
wi	-11.4689
▁Villen	-11.4693
einheit	-11.4694
tier	-11.4696
▁Mord	-11.4698
▁Konsolidierung	-11.4699
▁vertrieben	-11.47
▁nahmen	-11.4701
anbieter	-11.4702
▁Leiden	-11.4702
▁Vergabe	-11.4704
meisterschaft	-11.4704
maß	-11.4705
UNG	-11.4706
Meinungsäußerung	-11.4706
▁abzuschließen	-11.4707
strukturen	-11.471
▁Portfolio	-11.471
▁Klavier	-11.4714
sregeln	-11.4714
▁Jung	-11.4714
sätze	-11.4716
▁Völkern	-11.4718
▁gründete	-11.472
▁Mas	-11.4721
▁Verurteilung	-11.4721
▁unverändert	-11.4721
▁gemein	-11.4723
▁Petition	-11.4726
wind	-11.4727
▁Vergütung	-11.473
gl	-11.474
▁eingetragen	-11.474
▁konkreter	-11.4741
▁Orchester	-11.4742
▁Gegenwärtig	-11.4743
▁Road	-11.4743
▁Kra	-11.4746
▁personal	-11.4749
speicher	-11.4751
nden	-11.4752
▁bedürfen	-11.4754
▁Miss	-11.4755
▁ordentlich	-11.4755
▁Very	-11.4756
▁fein	-11.4756
▁Verschmutzung	-11.4757
▁za	-11.4758
▁Appell	-11.4759
▁58	-11.4762
▁Zeitalter	-11.4762
▁Net	-11.4765
▁Vortrag	-11.4765
bücher	-11.4766
▁Infos	-11.4767
▁Nigeria	-11.4768
▁strengere	-11.477
▁Löhne	-11.4772
▁VIP	-11.4775
▁Botschafter	-11.4776
▁Fort	-11.4777
▁Zeilen	-11.4777
▁auferlegt	-11.4778
▁architektonisch	-11.4779
▁Gewebe	-11.4779
▁Navigation	-11.478
▁unweit	-11.4784
fu	-11.4784
▁Auflagen	-11.4784
abteilung	-11.4785
▁restliche	-11.4787
▁Schriftsteller	-11.4787
▁ausgenommen	-11.4794
▁beach	-11.4796
▁aufweist	-11.4798
dor	-11.4798
zusammengestellt	-11.48
▁Wörter	-11.4801
▁RSS	-11.4801
▁Fo	-11.4802
▁Gewährung	-11.4805
▁Alarm	-11.4805
▁orientiert	-11.4806
▁voraussichtlich	-11.4808
▁Dresden	-11.4808
▁Ö	-11.4809
▁berufen	-11.4809
▁angemessener	-11.4814
nehmen	-11.4815
ech	-11.4817
tradition	-11.4823
▁Wohnsitz	-11.4824
Ausnahmeregelung	-11.4824
lock	-11.4824
▁ausmachen	-11.4828
jahr	-11.4828
▁Streitkräfte	-11.4829
▁abgeschafft	-11.483
zt	-11.483
▁Ze	-11.4832
▁Nachteile	-11.4834
▁drastisch	-11.4837
▁besuchte	-11.4837
▁Regierungs	-11.484
▁anderswo	-11.4845
seinrichtungen	-11.4845
▁verteilen	-11.4847
tik	-11.4848
▁set	-11.4852
▁Sensor	-11.4852
▁Teilnehmern	-11.4853
▁Anfänger	-11.4854
▁VI	-11.4854
präsidenten	-11.4855
bra	-11.4859
tis	-11.4859
▁benachrichtigt	-11.4859
▁Label	-11.4859
▁Raumfahrt	-11.4863
▁North	-11.4864
aktion	-11.4866
▁wöchentlich	-11.487
▁business	-11.487
▁direkter	-11.4871
serklärung	-11.4871
▁ersuchen	-11.4873
teilnehmer	-11.4873
▁Lettland	-11.4874
▁Rechtsstaat	-11.4876
schäden	-11.4881
▁steigenden	-11.4882
▁Bill	-11.4884
▁informelle	-11.4884
spiele	-11.4885
▁schädlich	-11.4888
▁Nordirland	-11.4888
vereinbarung	-11.489
atur	-11.489
phase	-11.4892
platten	-11.4893
▁potenziell	-11.4894
▁Space	-11.4894
konzept	-11.4898
▁Konflikten	-11.49
▁lehnen	-11.4902
▁chemischen	-11.4903
▁trans	-11.4908
▁130	-11.4909
▁dé	-11.491
36	-11.4912
▁Einleitung	-11.4915
▁Lieder	-11.4915
▁CDs	-11.4917
ré	-11.4918
▁einzuleiten	-11.4918
▁Ideologie	-11.4918
▁Genauigkeit	-11.4918
▁Ausflug	-11.492
▁geführte	-11.492
schrift	-11.492
▁gemeint	-11.492
waren	-11.4921
▁schien	-11.4921
undesrepublik	-11.4923
hy	-11.4926
eten	-11.4927
▁Geschichten	-11.4927
▁Meta	-11.4929
▁Zuschauer	-11.4932
gewicht	-11.4933
▁bot	-11.4935
▁Neuerung	-11.4935
▁Veranstaltungs	-11.4936
minister	-11.4938
▁SA	-11.4939
▁spektakuläre	-11.4941
▁IM	-11.4942
mor	-11.4943
▁Industrieländer	-11.4946
wirkung	-11.4947
cz	-11.4947
▁photo	-11.4949
▁permanent	-11.4952
▁verweigert	-11.4955
▁entlassen	-11.4956
▁weiten	-11.4956
▁Erdgas	-11.4956
läuft	-11.4956
▁Nachweis	-11.4961
▁SQL	-11.4962
▁fantastische	-11.4962
▁made	-11.4962
▁lebenslange	-11.4962
aire	-11.4964
▁Monitor	-11.4967
▁Etagen	-11.4967
▁wertvollen	-11.4968
▁ausgestatteten	-11.4968
▁Akademie	-11.497
▁Atomwaffen	-11.497
▁fortschrittlich	-11.497
▁Einstieg	-11.4972
freundlichkeit	-11.4974
86	-11.4974
▁untergebracht	-11.4974
▁Hindernis	-11.4976
▁benachbarte	-11.4977
▁Akzeptanz	-11.4977
▁pflegen	-11.4979
▁trug	-11.4981
▁anzugehen	-11.4983
▁Kreatur	-11.4984
▁Reden	-11.4985
▁Gedanke	-11.4985
▁EC	-11.4986
▁pool	-11.4987
▁angemeldet	-11.4988
▁Anna	-11.4988
▁hilfsbereit	-11.499
insel	-11.499
Rechtssicherheit	-11.499
▁Alternativ	-11.4991
▁Ak	-11.4992
▁Pat	-11.4993
smethode	-11.4993
▁Haushaltsmittel	-11.4996
▁bestanden	-11.4998
▁Vulkan	-11.4998
▁kopieren	-11.4999
▁korrigiert	-11.4999
pool	-11.5
▁inwiewei	-11.5002
ela	-11.5003
▁Hauptziel	-11.5003
▁wahrgenommen	-11.5007
mitteln	-11.5008
▁bestraft	-11.5014
kern	-11.5015
sbestimmungen	-11.5015
▁gratuliere	-11.5016
▁Flüchtlings	-11.5021
▁Staatsangehörig	-11.5022
▁Netto	-11.5024
▁Pilot	-11.5024
▁pa	-11.5026
▁Sports	-11.5026
▁Auftritt	-11.5027
▁Fülle	-11.5027
händler	-11.503
komponenten	-11.503
▁unterrichtet	-11.5033
blatt	-11.5034
▁echt	-11.5035
▁abschließen	-11.5036
▁people	-11.5037
▁Planet	-11.5037
▁modernsten	-11.5038
▁leitet	-11.5042
.3	-11.5044
sorten	-11.5044
▁Kapitalismus	-11.5046
▁Kommando	-11.5049
▁gestrichen	-11.5051
▁ausgedehnt	-11.5053
kräfte	-11.5054
▁vertraulich	-11.5056
▁Bogen	-11.5057
setzen	-11.5057
▁Kameras	-11.5059
▁Jerusalem	-11.5059
▁leichten	-11.5059
▁Schulz	-11.506
▁Projektes	-11.5063
▁Geburtstag	-11.5065
▁erfreulich	-11.5066
▁Inspektion	-11.5067
▁votre	-11.5067
▁elektrische	-11.5069
▁Zuwanderung	-11.5071
angebote	-11.5077
tsch	-11.5081
▁Bor	-11.5081
▁kommunizieren	-11.5082
▁Taschen	-11.5083
▁Firefox	-11.5089
▁Blair	-11.5089
▁Wandern	-11.509
▁Sozialisten	-11.5091
▁110	-11.5092
▁Kom	-11.5094
gebieten	-11.5096
▁ange	-11.5096
▁verfasst	-11.5096
▁still	-11.5096
▁zertifiziert	-11.5099
▁vorrangige	-11.51
träger	-11.51
▁veränderte	-11.5101
▁Rücktritt	-11.5103
▁gründet	-11.5105
Strafgerichtshof	-11.5106
▁Full	-11.5107
▁Tech	-11.5108
▁mi	-11.5114
▁Nachbarländer	-11.5116
▁Chor	-11.5116
▁schlimmsten	-11.5116
idad	-11.5118
▁Oft	-11.5119
▁nett	-11.5121
▁Aufenthalts	-11.5121
▁Letztere	-11.5125
▁Technology	-11.5127
▁Leipzig	-11.5127
22	-11.5127
▁stabil	-11.5129
av	-11.5129
▁zugreifen	-11.5132
▁kommende	-11.5133
ice	-11.5134
▁Verhaltenskodex	-11.5134
▁halbe	-11.5134
▁beauftragt	-11.5137
▁mache	-11.514
▁Typen	-11.5141
▁Sitzungsperiode	-11.5142
▁Dienstes	-11.5145
ef	-11.5146
gesetzt	-11.5147
▁Migranten	-11.5147
▁Hinzu	-11.5148
▁Bestrebung	-11.5149
▁ordnungsgemäße	-11.5149
▁Controller	-11.515
▁his	-11.5151
lesen	-11.5151
eur	-11.5153
profil	-11.5154
▁LED	-11.5155
▁DA	-11.5157
ehr	-11.5157
▁Wanderungen	-11.5157
isation	-11.5158
▁facto	-11.5161
AS	-11.5166
sergebnisse	-11.5166
orientierte	-11.5167
▁Blau	-11.5169
infrastruktur	-11.5169
▁anzusehen	-11.5169
▁Deck	-11.517
▁Sieger	-11.5172
▁eingebettet	-11.5172
▁Reichweite	-11.5172
▁bekanntlich	-11.5174
▁Dampf	-11.5174
▁Schwerpunkte	-11.5174
▁Verhinderung	-11.518
▁geschenkt	-11.518
▁kurzfristige	-11.518
09	-11.518
▁gerechte	-11.5181
▁Jahreszeit	-11.5182
sanlagen	-11.5182
▁entstehende	-11.5184
ky	-11.5187
▁Fabrik	-11.5187
▁günstiger	-11.5191
▁dorthin	-11.5195
▁Spielern	-11.5196
▁blaue	-11.52
▁familiäre	-11.5201
▁komplexer	-11.5202
ij	-11.5202
▁versorgt	-11.5203
▁elf	-11.5203
▁Strassen	-11.5204
aj	-11.5205
sto	-11.5207
▁sprachliche	-11.5208
▁Publikationen	-11.5211
▁gr	-11.5213
▁Dienststellen	-11.5214
gli	-11.5214
labor	-11.5214
▁Algerien	-11.5217
LE	-11.5218
▁natur	-11.5218
▁irgendw	-11.5218
EL	-11.5218
▁Erkrankungen	-11.522
▁Ford	-11.5222
▁Public	-11.5222
▁Micro	-11.5224
▁Hard	-11.5224
▁Etage	-11.5228
lar	-11.523
▁Benutzern	-11.5232
aw	-11.5236
▁dicht	-11.5237
▁Tierschutz	-11.5238
hafte	-11.5239
▁Zustellbetten	-11.5243
▁Bewerber	-11.5244
smodell	-11.5246
▁Keramik	-11.5248
tru	-11.525
▁unge	-11.5251
▁erwarte	-11.5252
▁Verpackungs	-11.5253
▁Ban	-11.5254
▁Abweichung	-11.5256
▁Hannover	-11.5256
▁Kleine	-11.5262
▁Kolumbien	-11.5263
▁Rohstoff	-11.5264
▁Diejenige	-11.5266
bestand	-11.5266
▁Gross	-11.5266
▁zurückkommen	-11.5267
▁zubereitet	-11.5271
▁Spezifikation	-11.5271
▁Drink	-11.5271
▁Gal	-11.5272
▁manuell	-11.5273
▁abzugeben	-11.5274
hor	-11.5275
▁Akteur	-11.5275
▁tot	-11.5275
▁streben	-11.5275
dia	-11.5277
▁Montenegro	-11.5279
28	-11.5279
▁PR	-11.5279
▁Mittelalter	-11.5281
▁Handbuch	-11.5281
geschäfte	-11.5282
ité	-11.5283
▁Director	-11.5286
Rechtsvorschrift	-11.5286
▁Bügel	-11.5286
▁Binnen	-11.5286
bt	-11.5287
▁Beibehalt	-11.5287
▁Nachtleben	-11.5289
▁Hochzeit	-11.5293
▁Herstellern	-11.5294
becken	-11.5299
▁Big	-11.5302
vertreter	-11.5303
▁abgedeckt	-11.5304
▁Kammer	-11.5305
▁Tiefe	-11.5306
▁AN	-11.5306
▁Arbeitslosen	-11.5309
▁Verstoß	-11.5309
▁aufrufen	-11.5309
wettbewerb	-11.531
▁fur	-11.5311
▁White	-11.5312
elli	-11.5314
▁Europarat	-11.5315
▁Einkommens	-11.5316
▁verdanken	-11.5317
▁Veranstalter	-11.5317
▁dokumentiert	-11.5317
▁gro	-11.5317
▁Auswärtige	-11.5317
▁Zinssätze	-11.5317
▁find	-11.5319
▁mechanische	-11.5319
nischen	-11.532
▁führender	-11.5324
▁ausreichen	-11.5326
▁Aufpreis	-11.5326
▁1960	-11.5326
▁Formate	-11.5326
▁nnen	-11.5327
die	-11.5327
neben	-11.5328
▁offener	-11.5329
▁food	-11.533
bro	-11.533
▁Investment	-11.533
▁Renaissance	-11.5332
▁Linken	-11.5333
▁Chaos	-11.5333
ohne	-11.5333
ai	-11.5334
SI	-11.5336
spannung	-11.5337
▁klarstellen	-11.5338
▁2,5	-11.5339
▁Funktionsweise	-11.5341
ville	-11.5342
abend	-11.5343
▁CE	-11.5343
▁erstaunlich	-11.5344
▁charmante	-11.5344
ova	-11.5347
▁BE	-11.5347
▁Special	-11.5348
▁Harmonie	-11.5348
ative	-11.535
▁1988	-11.5356
▁How	-11.5358
▁Good	-11.5359
tet	-11.5359
▁Schuh	-11.536
▁arabisch	-11.5364
sicher	-11.5368
▁Höhen	-11.5368
▁überraschend	-11.5368
▁Wachstumspakt	-11.5373
prinzipien	-11.5377
betrag	-11.5382
▁aufhören	-11.5385
▁Gesetzen	-11.5385
▁Friendly	-11.5386
▁Wohlergehen	-11.5386
▁ggf	-11.5386
▁Keller	-11.5387
schnellstmöglich	-11.5392
▁Brücken	-11.5394
▁Haltestelle	-11.5399
▁Rechtsprechung	-11.5402
▁erholen	-11.5402
▁Zinsen	-11.5403
▁führten	-11.5404
▁abhängen	-11.5404
▁Haiti	-11.5406
gung	-11.5408
▁reservieren	-11.5409
TA	-11.541
▁near	-11.5411
▁bus	-11.5415
ME	-11.5416
▁Reis	-11.5416
▁erbringen	-11.5416
▁Liebhaber	-11.5417
CO	-11.5417
▁Davon	-11.5419
▁Begleitung	-11.542
▁begünstigt	-11.5422
▁salle	-11.5422
block	-11.5424
▁vereinbar	-11.5427
▁Point	-11.5429
zubringen	-11.543
▁präsent	-11.5432
▁Spielzeug	-11.5432
▁stärkt	-11.5433
▁Überschwemmung	-11.5433
▁Reifen	-11.5434
▁Reisende	-11.5438
▁Bezirk	-11.5439
zunehmen	-11.5439
▁verschieden	-11.544
cars	-11.544
▁ST	-11.5441
▁verhängt	-11.5441
ff	-11.5441
alter	-11.5442
▁visit	-11.545
of	-11.5452
▁Räumlichkeiten	-11.5456
▁Trinkwasser	-11.5456
▁gezielte	-11.5456
▁angestrebt	-11.5458
▁begrenzen	-11.5459
▁Zwischenzeit	-11.5459
ios	-11.546
▁sichert	-11.546
har	-11.5461
▁Handhabung	-11.5464
▁Mittagessen	-11.5464
luft	-11.5466
▁Königreichs	-11.5466
ble	-11.5467
▁Gewähr	-11.5467
▁Aufstellung	-11.5468
▁nördlich	-11.5469
66	-11.547
▁Alm	-11.5471
▁Edinburgh	-11.5472
▁aufhalten	-11.5472
▁92	-11.5474
▁info	-11.5474
▁edle	-11.5475
▁Variablen	-11.5476
▁Zeitschrift	-11.5477
▁Monti	-11.5478
▁Ganzen	-11.5478
▁fügt	-11.5479
▁Holiday	-11.5479
▁vermieten	-11.5479
▁Aussehen	-11.5484
▁Miet	-11.5485
▁eingehend	-11.5486
Verschlechterung	-11.5487
▁widerspiegelt	-11.5487
▁zügig	-11.5488
gleichen	-11.5489
▁Wäscheservic	-11.549
gesehen	-11.5499
▁Ausländer	-11.5499
▁Darau	-11.5505
isierte	-11.5506
▁ju	-11.5507
Unregelmäßigkeit	-11.5511
▁Solution	-11.5511
▁Symbole	-11.5511
▁Fünf	-11.5512
▁Politikbereiche	-11.5513
▁Stress	-11.552
▁Fett	-11.5521
fehler	-11.5521
▁system	-11.5522
▁Informatik	-11.5522
AN	-11.5522
kreuz	-11.5522
▁bedeutender	-11.5526
▁Fri	-11.553
▁Ä	-11.553
▁ka	-11.5533
▁carte	-11.5534
▁Lange	-11.5534
▁Rückzug	-11.5535
▁irgendwo	-11.5535
▁Oase	-11.5536
spieler	-11.5536
▁Liberal	-11.5538
▁Ansehen	-11.5538
ible	-11.5538
▁grundsätzliche	-11.5538
▁Mobiltelefon	-11.554
▁gesendet	-11.5542
vel	-11.5543
▁mobilen	-11.5544
▁Beta	-11.5544
uff	-11.5546
▁South	-11.5549
▁widmet	-11.555
▁Engel	-11.5552
▁Öffentliche	-11.5552
▁agieren	-11.5552
▁There	-11.5553
▁reichlich	-11.5555
▁stabilen	-11.5556
ländern	-11.5557
▁Frank	-11.5558
▁Hochschulen	-11.556
▁Sachverständige	-11.5562
▁Rundfunk	-11.5564
way	-11.5565
▁Ve	-11.5565
▁SK	-11.5567
ew	-11.5567
▁stecken	-11.5569
▁Plug	-11.5572
▁Stick	-11.5574
▁Alpha	-11.5575
▁Nationalstaat	-11.5577
▁Zentrums	-11.558
▁Fahrzeugen	-11.5581
sarbeiten	-11.5582
▁Rabatt	-11.5582
▁russisch	-11.5583
▁Wände	-11.5583
rit	-11.5586
▁eigen	-11.5587
▁Badewanne	-11.5589
▁zeit	-11.5591
verbot	-11.5591
ated	-11.5592
▁Monopol	-11.5597
▁ökonomische	-11.5598
▁Frucht	-11.5599
▁Müller	-11.5599
dischen	-11.5599
▁aufge	-11.56
sky	-11.56
▁Roboter	-11.5604
erzeugnisse	-11.5605
▁Bug	-11.5605
▁Ansprüchen	-11.5606
ht	-11.5606
▁leidet	-11.5606
▁untersagt	-11.5606
▁Rohstoffe	-11.5607
IC	-11.5607
▁halben	-11.5608
▁Ra	-11.561
▁häufigste	-11.5611
▁Tastatur	-11.5611
▁anerkannte	-11.5613
▁double	-11.5613
▁Ausbruch	-11.5615
smechanismus	-11.5618
od	-11.5619
führen	-11.562
▁Anschließend	-11.5621
▁Vormittag	-11.5621
▁Beispielsweise	-11.5622
▁versetzen	-11.5623
21	-11.5623
▁gesenkt	-11.5629
▁Automatisierung	-11.5629
▁pe	-11.5632
▁line	-11.5635
▁public	-11.5635
▁App	-11.5639
legt	-11.5639
▁Seminare	-11.564
▁beeindruckend	-11.5642
▁OLAF	-11.5645
tos	-11.5645
shi	-11.5646
▁GB	-11.5648
▁Action	-11.5648
▁anzuerkennen	-11.565
▁kritisieren	-11.5653
▁historisch	-11.5655
▁Italiens	-11.566
shop	-11.5661
▁Sandstrand	-11.5661
dal	-11.5663
▁folgte	-11.5664
gebäude	-11.5665
▁57	-11.5666
▁aufgetreten	-11.5668
mengen	-11.5668
▁Vorgänge	-11.567
mont	-11.5671
▁tiefen	-11.5671
▁Toten	-11.5674
33	-11.5675
▁Beleuchtung	-11.5676
▁nette	-11.5677
anzubringen	-11.5684
▁Enttäuschung	-11.5684
▁Maßstäbe	-11.5684
▁Todes	-11.5685
▁Light	-11.5686
top	-11.5687
bezogene	-11.5688
▁ehrgeizig	-11.5692
▁Fr	-11.5694
▁Patten	-11.5695
▁Applikation	-11.5695
▁bloße	-11.5695
mente	-11.5697
▁SMS	-11.5697
einstellungen	-11.5699
verkehrs	-11.5699
▁Wolf	-11.57
▁Standorten	-11.5705
▁Tauchen	-11.5706
▁Konzeption	-11.5709
▁Schau	-11.5709
▁versuchte	-11.5713
▁Werde	-11.5714
▁kompakte	-11.5714
▁vorgeschrieben	-11.5719
erzeugung	-11.5719
esse	-11.5723
▁Profi	-11.5727
▁eingenommen	-11.5727
▁löst	-11.5728
▁East	-11.5729
▁Luftverkehr	-11.5729
▁verwandeln	-11.5732
▁Autovermietung	-11.5732
▁ausgeben	-11.5736
▁Bonn	-11.5737
▁Letzte	-11.5738
off	-11.5738
fin	-11.5739
▁kommunistischen	-11.5739
▁erfahrenen	-11.5741
▁anspruchsvoll	-11.5741
▁Installations	-11.5741
▁Ungleichgewicht	-11.5743
▁vergangen	-11.5743
▁Feind	-11.5745
▁Gremien	-11.5748
▁Streben	-11.5748
▁einrichten	-11.575
ings	-11.5753
▁echter	-11.5754
▁Hilfen	-11.5754
▁Bemühen	-11.5756
▁beunruhigt	-11.5756
▁Häusern	-11.5757
▁versorgen	-11.5757
▁hervorzuheben	-11.5757
ise	-11.5759
kur	-11.576
▁unverzichtbar	-11.576
▁Gewässer	-11.5761
▁Georg	-11.5762
▁Poly	-11.5762
▁fe	-11.5763
▁juristische	-11.5764
▁prinzipiell	-11.5764
▁Wortlaut	-11.5765
ielmehr	-11.5766
▁end	-11.5766
▁Gra	-11.5767
▁Angel	-11.5769
▁objektiv	-11.5772
institut	-11.5772
stärke	-11.5773
▁Geber	-11.5773
▁verwendete	-11.5774
▁Lizenzen	-11.5774
▁ungarische	-11.5777
▁serbische	-11.578
▁Stadium	-11.578
▁1986	-11.5781
▁Einen	-11.5784
▁gänzlich	-11.5788
▁Schaf	-11.5792
▁Übergangs	-11.5794
▁schwache	-11.5795
sprachen	-11.5798
zusetzen	-11.5798
▁Biotechnologie	-11.5799
kapital	-11.5799
▁Vorzüge	-11.5808
lot	-11.5808
aria	-11.5811
kla	-11.5811
zonen	-11.5816
▁nachfolgenden	-11.5818
effekt	-11.5818
▁qm	-11.582
▁aufgezeigt	-11.5821
▁Solarium	-11.5821
▁Klaren	-11.5822
▁Freiwilligen	-11.5822
ram	-11.5824
▁Button	-11.5826
▁Chinesen	-11.5833
▁bedau	-11.5834
▁Stufen	-11.5835
▁Schnittstellen	-11.5837
▁herausragende	-11.5838
boot	-11.5838
▁unver	-11.5841
▁schuldig	-11.5842
▁Atlantik	-11.5843
kin	-11.5844
▁Nutzern	-11.5844
▁muslimische	-11.5845
▁LCD	-11.5845
▁Ära	-11.5846
schließt	-11.5847
▁AS	-11.5849
▁Standorte	-11.5849
lia	-11.585
▁eingebaut	-11.5853
kommunikation	-11.5853
▁Sichtweise	-11.5857
▁vorzugehen	-11.586
wechslungsreiche	-11.5861
▁Umstand	-11.5862
▁unternehmerisch	-11.5862
TS	-11.5863
▁weise	-11.5866
▁mittelständisch	-11.5869
▁Vollständigkeit	-11.5869
ausrüstung	-11.587
▁Shops	-11.5871
▁Kommen	-11.5872
▁SS	-11.5872
▁Wollen	-11.5873
kan	-11.5874
▁Übereinkunft	-11.5877
▁Fein	-11.5878
▁verweis	-11.588
▁Bike	-11.5882
komplex	-11.5884
▁Jesus	-11.5885
▁Führungs	-11.5885
▁geeinigt	-11.5885
ziele	-11.5885
▁geschah	-11.5886
sing	-11.5886
▁Arbeitsprogramm	-11.5889
titel	-11.5889
▁Franz	-11.589
▁Fischereisektor	-11.5893
▁umgewandelt	-11.5894
▁Prestige	-11.5894
▁Gedächtnis	-11.5894
▁Sicherstellung	-11.5894
yo	-11.5895
▁Reisenden	-11.5896
▁Wäre	-11.5897
▁Schaltfläche	-11.5897
akt	-11.5898
reihe	-11.5898
▁Aufteilung	-11.5903
verhalten	-11.5905
▁Wellnessbereich	-11.5906
kar	-11.5906
▁alternativen	-11.5908
ath	-11.5911
▁irgendwan	-11.5911
▁verbundene	-11.5911
▁aufgegeben	-11.5911
▁Bestand	-11.5913
▁Verweis	-11.5918
tas	-11.5918
▁Tragen	-11.5919
▁Intel	-11.5919
▁Maler	-11.5919
ney	-11.5919
▁privater	-11.592
▁Auslands	-11.5923
tim	-11.5926
▁übermäßige	-11.5927
▁Ya	-11.5928
29	-11.5928
rüber	-11.5929
▁Animation	-11.5932
▁Class	-11.5932
▁positiver	-11.5933
▁Provider	-11.5934
▁Unterscheidung	-11.5934
▁Überwindung	-11.5934
▁Auftreten	-11.5937
▁Festplatten	-11.5938
▁tragische	-11.594
▁einbeziehen	-11.5943
▁behindern	-11.5943
▁bürokratische	-11.5945
mitglieder	-11.5946
▁Fehl	-11.5946
67	-11.5947
▁erzählen	-11.5948
▁entnehmen	-11.5948
23	-11.5949
▁Unrecht	-11.5949
▁Nichts	-11.595
▁verlängern	-11.5951
vis	-11.5951
▁aufgegriffen	-11.5951
▁Ter	-11.5953
tiert	-11.5955
▁Junior	-11.5956
▁Pr	-11.5957
▁goldene	-11.5957
lie	-11.5958
▁fragt	-11.5959
▁starker	-11.596
ux	-11.5961
▁verläuft	-11.5961
fahrzeuge	-11.5962
▁Shuttle	-11.5962
ama	-11.5963
▁quiet	-11.5965
sz	-11.5966
▁Belange	-11.5966
tiv	-11.597
marken	-11.597
▁Werken	-11.5975
▁Aufstockung	-11.5975
▁schweigen	-11.5975
▁Bindung	-11.5975
▁Medium	-11.5976
▁Unterbrechung	-11.5977
▁140	-11.5978
▁begeben	-11.5978
▁59	-11.5978
▁Up	-11.5979
▁Strafe	-11.5979
pos	-11.598
▁empfehlenswert	-11.5983
▁Einstimmigkeit	-11.5983
▁ermordet	-11.5983
▁zusammengefasst	-11.5984
▁Beratungs	-11.5985
▁anschauen	-11.5985
verein	-11.5985
rot	-11.5986
▁dramatische	-11.5987
▁Unabhängig	-11.5989
our	-11.5991
▁betragen	-11.5995
behörde	-11.5997
adi	-11.5997
▁verhaftet	-11.5997
▁price	-11.5997
▁SO	-11.5997
▁Out	-11.5998
▁Universal	-11.5998
▁Kodex	-11.6
ün	-11.6001
▁geschlossenen	-11.6001
▁ta	-11.6004
▁schlug	-11.6005
▁Flucht	-11.6005
▁Angestellten	-11.6005
▁Gr	-11.6006
▁holen	-11.6006
spiegel	-11.6007
▁Währungen	-11.6007
▁Association	-11.6008
▁Gehirn	-11.6008
▁Pharma	-11.6009
use	-11.6009
▁Cafés	-11.6009
▁Periode	-11.601
sein	-11.601
▁Momente	-11.601
▁local	-11.6015
▁Machen	-11.6016
▁Herzegowina	-11.6016
▁Serviceleistung	-11.6017
AC	-11.6019
▁Abreise	-11.602
stehenden	-11.6022
firma	-11.6023
▁Könnte	-11.6025
▁Non	-11.6027
▁möge	-11.6029
▁Day	-11.6032
▁Rücksicht	-11.6033
anteil	-11.6034
▁gefüllt	-11.6035
▁Italienisch	-11.6037
▁Angebots	-11.6037
▁bat	-11.6038
AG	-11.6039
▁vorkommen	-11.6041
konto	-11.6041
gesetzgebung	-11.6042
▁Angehörigen	-11.6044
▁Nahrung	-11.6044
▁Einträge	-11.6046
▁Schätzungen	-11.6046
▁kümmert	-11.6049
77	-11.6049
▁Bürgerkrieg	-11.605
▁intensiven	-11.6053
NET	-11.6053
▁Impuls	-11.6054
▁namentlich	-11.6055
▁ehe	-11.6056
▁como	-11.6058
ans	-11.6059
▁Afrikas	-11.606
▁Schriften	-11.6063
▁überleben	-11.6064
▁steigende	-11.6066
▁Franzosen	-11.6066
sgrad	-11.6066
▁Marmor	-11.6067
▁juristischen	-11.6068
▁Riesen	-11.6069
▁Passagier	-11.6071
▁LT	-11.6071
▁Feder	-11.6073
▁Klaus	-11.6074
▁Klärung	-11.6075
▁Varianten	-11.6075
▁ra	-11.6076
▁Flusses	-11.6077
af	-11.6078
▁Tar	-11.6079
▁Nächte	-11.6079
rechtzuerhalten	-11.6082
▁weibliche	-11.6083
▁hinausgehen	-11.6083
▁aufrecht	-11.6084
▁Brok	-11.6086
marke	-11.6089
▁auto	-11.6091
▁Smart	-11.6092
▁deckt	-11.6094
▁umliegende	-11.6096
▁Eier	-11.6096
▁fundierte	-11.6097
▁Auftrags	-11.6098
▁GUE	-11.61
▁verlaufen	-11.6103
inger	-11.6103
▁Hass	-11.6104
quelle	-11.6106
ord	-11.6108
▁Vogel	-11.6109
▁standard	-11.611
▁King	-11.6111
▁legitim	-11.6113
gemacht	-11.6116
▁Freilassung	-11.6116
▁Welle	-11.6116
▁what	-11.6116
▁widerspiegeln	-11.6124
▁1985	-11.6124
▁nachgewiesen	-11.6128
bgesehen	-11.6132
▁Toskana	-11.6132
▁Verschiebung	-11.6132
▁erledigt	-11.6132
▁reserviert	-11.6132
▁Verwertung	-11.6133
▁Kinderbetreuung	-11.6133
▁Geltungsbereich	-11.6133
▁diesbezügliche	-11.6134
▁Inneren	-11.6135
▁höherer	-11.6137
überwachung	-11.6138
▁appelliere	-11.6138
▁einheimischen	-11.6142
lagen	-11.6144
▁freundliches	-11.6144
gezogen	-11.6144
möglich	-11.6148
▁gewahrt	-11.6149
bearbeitung	-11.6149
▁Beschränkung	-11.6149
▁resultierende	-11.6149
▁begrenzten	-11.6149
▁anscheinend	-11.615
lä	-11.615
ssektor	-11.615
▁mitzuteilen	-11.6157
stell	-11.6158
sol	-11.6159
▁Nichtraucher	-11.6159
▁Classic	-11.6162
▁Balance	-11.6164
,8	-11.6166
▁Suites	-11.6166
▁1945	-11.6166
▁OK	-11.617
▁Lagerung	-11.6171
▁Instabilität	-11.6172
ista	-11.6172
fleisch	-11.6174
▁Times	-11.6174
▁ermutigt	-11.6174
▁veranlassen	-11.6174
▁OSZE	-11.6174
▁Beschleunigung	-11.6175
▁beheben	-11.6175
▁parking	-11.6176
▁Stücke	-11.6177
center	-11.6177
▁town	-11.6177
▁Gefühle	-11.6179
▁exportieren	-11.618
▁verbleibende	-11.6181
▁Lied	-11.6184
fern	-11.6185
▁unberührt	-11.6186
OM	-11.6187
▁Doktor	-11.6191
Kandidatenländer	-11.6196
▁ersucht	-11.6197
▁Ambition	-11.6199
▁unannehmbar	-11.6199
▁Ausdehnung	-11.6199
▁Südtirol	-11.6201
▁kenne	-11.6201
nom	-11.6203
▁absurd	-11.6205
▁River	-11.6205
▁Fische	-11.6206
▁Market	-11.6206
▁Erdgeschoss	-11.6208
▁Öko	-11.6208
▁entziehen	-11.621
▁Nieder	-11.6211
39	-11.6212
Generaldirektion	-11.6212
▁Lade	-11.6213
gra	-11.6214
▁intern	-11.6214
werten	-11.6214
▁billigen	-11.6216
▁Gremium	-11.6216
▁vertiefen	-11.6216
katalog	-11.6216
▁Research	-11.6216
▁900	-11.6216
▁Bedrohungen	-11.622
dom	-11.622
Die	-11.622
▁fließen	-11.6221
treten	-11.6221
▁much	-11.6223
▁Festivals	-11.6224
lle	-11.6224
▁Gebirge	-11.6224
▁identifiziert	-11.6224
▁Einmal	-11.6226
▁Bayern	-11.6228
▁einmalig	-11.6228
IL	-11.6229
▁Tunnel	-11.6229
▁Inhalts	-11.6233
zel	-11.6233
▁Mütter	-11.6233
▁stellvertretend	-11.6233
▁Verkehrsmitteln	-11.6233
GA	-11.6234
▁Andreas	-11.6235
rent	-11.6236
▁Zurück	-11.6236
▁bester	-11.6237
ical	-11.6238
lern	-11.624
▁beautiful	-11.6241
▁Bestandteile	-11.6241
tun	-11.6242
regelungen	-11.6243
▁на	-11.6246
▁bedeutsam	-11.6246
anda	-11.6248
bereitschaft	-11.6249
▁aufgeteilt	-11.625
▁Dia	-11.6253
▁Küchen	-11.6256
fälle	-11.6256
spunkt	-11.6258
▁fu	-11.6261
iel	-11.6262
▁Lokal	-11.6263
▁Germany	-11.6266
▁Stolz	-11.6266
▁too	-11.6267
ös	-11.6267
▁einzeln	-11.6268
▁vorgetragen	-11.6272
▁DJ	-11.6272
▁Feedback	-11.6275
▁Winkel	-11.6275
▁Solana	-11.6276
▁Kampagnen	-11.6276
eigenschaften	-11.6278
▁Upgrade	-11.6279
▁Energieversorg	-11.628
sfindung	-11.6281
▁neuartige	-11.6283
ille	-11.6285
spolitiken	-11.6285
▁Scan	-11.6286
▁Holland	-11.6286
▁62	-11.6287
▁Gewässern	-11.6287
hä	-11.6287
▁Talent	-11.6287
ais	-11.6287
▁Fahren	-11.6288
▁Instanz	-11.6288
▁unnötige	-11.6291
▁Gemälde	-11.6292
▁Riviera	-11.6292
▁Schwangerschaft	-11.6292
▁Verbände	-11.6292
▁prüft	-11.6292
chten	-11.6292
▁Verwenden	-11.6293
standards	-11.6294
pflanzen	-11.6294
house	-11.6297
set	-11.6297
▁them	-11.6299
▁Beantwortung	-11.63
▁Slideshow	-11.63
▁1987	-11.6301
▁Aufschwung	-11.6301
oren	-11.6304
sformen	-11.6308
▁Em	-11.6308
▁person	-11.6309
▁ME	-11.6309
▁li	-11.631
▁Viertens	-11.6311
▁Note	-11.6312
▁entdeckte	-11.6315
essen	-11.6318
▁geehrter	-11.6318
ua	-11.6319
union	-11.6322
▁lehnt	-11.6323
▁getrennte	-11.6323
aff	-11.6323
▁Nuklear	-11.6324
▁Sri	-11.6325
▁Superior	-11.6326
▁Erlaubnis	-11.6329
▁RE	-11.6329
▁etwaige	-11.6332
▁Flügel	-11.6332
▁Hör	-11.6333
kra	-11.6334
▁Wiederaufnahme	-11.6335
▁gedenkt	-11.6335
▁unklar	-11.6335
▁flexibler	-11.6336
▁Uni	-11.6337
▁Gehör	-11.6337
Industriepolitik	-11.6338
▁Routen	-11.6339
▁Muss	-11.6342
▁realistische	-11.6342
übertragung	-11.6343
ativ	-11.6343
▁Weltmarkt	-11.6344
▁vorwiegend	-11.6345
▁did	-11.6345
▁Berufung	-11.6345
▁Demonstration	-11.6346
▁Palm	-11.6347
▁aufgeben	-11.6348
▁Sprecher	-11.6349
▁Samsung	-11.6351
▁Col	-11.6352
▁Patente	-11.6353
▁hübsche	-11.6354
▁ho	-11.6355
▁OECD	-11.636
▁63	-11.6361
▁Qua	-11.6362
▁überdenken	-11.6365
▁Bou	-11.6368
▁öfter	-11.6368
▁Tief	-11.6368
▁wirst	-11.6369
▁obligatorische	-11.6369
▁Christus	-11.6369
kapazität	-11.637
▁studierte	-11.637
▁seinerzeit	-11.6371
▁hinnehm	-11.6371
▁Beschwerde	-11.6372
▁Sar	-11.6375
▁Rein	-11.6375
my	-11.6376
firmen	-11.6376
▁Messen	-11.6377
▁Flair	-11.6377
ér	-11.638
▁Aktionäre	-11.6381
sammlung	-11.6381
ät	-11.6382
▁Roh	-11.6382
ute	-11.6383
49	-11.6385
aktiv	-11.6386
▁ALDE	-11.6387
▁basierte	-11.6388
▁Stoffen	-11.6393
tec	-11.6395
rang	-11.6396
▁touristische	-11.6396
pan	-11.6396
▁teilnehmende	-11.6401
▁nannte	-11.6402
▁Salon	-11.6403
▁Blatt	-11.6403
▁right	-11.6404
▁angekommen	-11.6405
▁trinken	-11.6406
▁Nahe	-11.6407
▁Andern	-11.6407
tragen	-11.6409
▁Ashton	-11.6411
▁Bestreben	-11.6412
wachsen	-11.6412
▁Sammel	-11.6414
▁entsprechender	-11.6417
▁Liga	-11.6417
▁behilflich	-11.642
▁Mountainbike	-11.642
▁Diplom	-11.6421
▁gekürzt	-11.6421
▁Bass	-11.6421
▁Schriftliche	-11.6422
▁Vorträge	-11.6422
▁Genfer	-11.6422
65	-11.6423
▁large	-11.6423
▁ausgebildet	-11.6425
▁bestreb	-11.6425
kontroll	-11.6426
▁Ol	-11.6427
▁Verheugen	-11.6428
▁CA	-11.6429
tausend	-11.6429
▁niedrigere	-11.6432
etzt	-11.6434
▁Befürworter	-11.6437
runde	-11.6437
fassung	-11.6438
▁Wa	-11.6439
▁nein	-11.6439
▁Vorjahr	-11.6439
▁spürbar	-11.644
aro	-11.6441
cio	-11.6442
sabkommens	-11.6442
▁körperliche	-11.6447
▁auszuführen	-11.6449
▁Unterhaltungs	-11.6452
▁unbekannt	-11.6452
▁fürchte	-11.6453
▁Recycling	-11.6454
▁sowjetische	-11.6454
▁value	-11.6454
▁Kohäsionsfonds	-11.6454
TI	-11.6456
▁zugeschnitten	-11.6457
▁Verlag	-11.6458
▁Cre	-11.6459
▁hinnehmbar	-11.646
▁Kontrast	-11.6467
▁ALE	-11.6469
▁Galileo	-11.6471
▁EIB	-11.6471
▁abzustimmen	-11.6471
marktes	-11.6477
▁Cup	-11.6477
▁Straßenverkehr	-11.6478
▁Übersetzungs	-11.6479
red	-11.6479
▁Hussein	-11.648
▁Downloads	-11.648
▁after	-11.648
▁Mega	-11.6481
▁aussieht	-11.6482
▁rumänische	-11.6488
▁Smith	-11.6488
▁generiert	-11.6488
▁Spekulation	-11.6489
papier	-11.649
▁schaden	-11.6495
bestände	-11.6496
▁Singapur	-11.6497
ping	-11.6499
▁Weltraum	-11.65
▁Hill	-11.6503
▁gepflegte	-11.6503
▁Kriege	-11.6503
ast	-11.6504
feuer	-11.6505
sführung	-11.6506
▁Olivenöl	-11.6506
▁José	-11.6506
▁Trainer	-11.6508
zieht	-11.6509
▁gefährlicher	-11.6511
▁zugesagt	-11.6513
▁sinnvolle	-11.6513
▁Gastgeber	-11.6515
liches	-11.6515
▁Innenhof	-11.6515
▁Dis	-11.6516
▁Demokratien	-11.6516
▁Garden	-11.6518
▁birg	-11.6518
▁Play	-11.6519
27	-11.652
▁Roth	-11.652
til	-11.6521
▁systematische	-11.6522
▁morgens	-11.6522
▁Waffe	-11.6523
▁Infolge	-11.6524
zufordern	-11.6525
▁Denk	-11.6526
▁Delegationen	-11.6526
▁italienisch	-11.6526
▁SDL	-11.6528
▁teure	-11.6529
oj	-11.6531
▁Bibliotheken	-11.6532
▁Schulungen	-11.6532
cker	-11.6532
▁Treffpunkt	-11.6532
▁Früh	-11.6532
▁Fair	-11.6534
▁Schauen	-11.6534
zeug	-11.6535
▁unterzeichnen	-11.6536
angaben	-11.6538
▁Dolmetscher	-11.6538
▁jahrelang	-11.6539
55	-11.654
▁forderte	-11.6541
▁Ausschluss	-11.6542
strecken	-11.6543
▁If	-11.6544
srechte	-11.6544
▁Wal	-11.6544
platte	-11.6545
.1	-11.6545
▁wendet	-11.6545
▁Zell	-11.6546
▁Heiz	-11.6546
▁detailliert	-11.6547
▁überschritten	-11.6548
ED	-11.6549
▁formulieren	-11.6549
▁geltende	-11.6549
▁Komposition	-11.6549
▁nachkommen	-11.6552
▁isoliert	-11.6552
▁einräumen	-11.6552
▁üben	-11.6554
diskriminierung	-11.6554
▁mehrjährige	-11.6556
▁Easy	-11.6558
▁Bedauern	-11.6558
termin	-11.6558
▁legale	-11.6558
▁Mur	-11.6559
▁gründliche	-11.656
▁met	-11.6562
▁Säulen	-11.6563
▁Umfrage	-11.6564
▁Glückwunsch	-11.6566
,6	-11.6569
steuern	-11.6571
CA	-11.6573
▁Urheberrecht	-11.6574
zuführen	-11.6574
▁beurteilt	-11.6575
▁erledigen	-11.6575
▁dreißig	-11.6575
tourismus	-11.6576
▁liegende	-11.6576
ane	-11.6576
schnittliche	-11.6577
▁Spiels	-11.6577
▁Einmischung	-11.6578
▁Betrachtung	-11.658
▁Bürgermeister	-11.658
▁ci	-11.658
▁Vernichtung	-11.6582
▁Engine	-11.6583
derherzustellen	-11.6584
projekten	-11.6585
▁Fischler	-11.6585
▁Rahmens	-11.6586
zustand	-11.659
26	-11.6591
▁stoßen	-11.6591
DS	-11.6592
gre	-11.6595
▁Quer	-11.6596
▁dortige	-11.6596
▁Tap	-11.6597
▁multi	-11.66
▁Act	-11.66
▁berühmteste	-11.66
▁Zentrale	-11.66
▁Bol	-11.6601
▁daraufhin	-11.6602
▁Gor	-11.6604
,50	-11.6607
▁Yacht	-11.6608
▁sont	-11.6608
▁Rauchen	-11.6608
▁Letzt	-11.6608
▁verarbeiten	-11.6609
▁verschwunden	-11.661
▁Fran	-11.6611
fallen	-11.6612
▁Pra	-11.6614
geräten	-11.6617
▁objektive	-11.6618
▁erschwert	-11.6619
touren	-11.662
▁Züge	-11.6622
grund	-11.6623
▁ruft	-11.6623
▁Vertiefung	-11.6627
▁Kap	-11.663
▁Allgemein	-11.6632
▁DIN	-11.6634
mail	-11.6634
erhalb	-11.6635
▁billiger	-11.6635
aktionen	-11.6636
▁Fotokopier	-11.6636
▁Protektionismus	-11.6636
AR	-11.6641
▁name	-11.6643
▁formal	-11.6643
▁DC	-11.6644
▁Durchbruch	-11.6646
▁Angeboten	-11.6649
sc	-11.6649
▁soviel	-11.665
▁Meerblick	-11.6655
▁vorgelegte	-11.6658
▁anwendbar	-11.6662
▁Simulation	-11.6663
CH	-11.6663
▁anmerken	-11.6664
▁empfehle	-11.6664
▁Moral	-11.6665
▁Erfolgs	-11.6666
splan	-11.6667
▁een	-11.6667
▁Zusammenhalts	-11.6668
weiterentwickelt	-11.667
▁Kommun	-11.667
stern	-11.6671
▁hochrangige	-11.6672
▁Pfund	-11.6672
gewinn	-11.6673
▁Terrassen	-11.6677
▁Magnet	-11.668
▁identisch	-11.6681
▁Promotion	-11.6681
▁Klimaschutz	-11.6688
▁IBM	-11.669
sieht	-11.6691
▁2015	-11.6692
manager	-11.6695
herstellung	-11.6696
▁Jacque	-11.6698
tions	-11.6698
▁Skandal	-11.6701
▁überschreiten	-11.6704
aufenthalt	-11.6706
kampf	-11.6708
▁Sozialmodell	-11.6709
▁Cross	-11.6709
▁unabdingbar	-11.6712
▁Gre	-11.6713
adresse	-11.6713
▁Einbau	-11.6714
gesetze	-11.672
▁Unionsbürger	-11.6721
▁Ernte	-11.6721
row	-11.6725
▁air	-11.6727
ION	-11.6732
start	-11.6733
▁Great	-11.6734
▁herrschen	-11.6734
▁regional	-11.6736
▁Boutique	-11.6737
methoden	-11.6738
ausgaben	-11.6738
▁66	-11.6739
einheiten	-11.6739
▁Außenhandel	-11.6741
▁praktiziert	-11.6742
▁Trade	-11.6743
▁denkbar	-11.6743
RE	-11.6749
▁Figur	-11.675
▁Aktualität	-11.6751
▁befaßt	-11.6751
▁organisatorisch	-11.6751
▁Jury	-11.6751
▁information	-11.6752
übergreifende	-11.6753
▁transportiert	-11.6754
▁angesiedelt	-11.6756
▁Unfälle	-11.6756
kunden	-11.6757
dre	-11.6758
▁grenz	-11.6759
▁Weihnachten	-11.676
▁Haftbefehl	-11.676
▁Add	-11.676
lt	-11.676
▁Ed	-11.6764
▁Plattformen	-11.6766
begriff	-11.6766
▁kriminelle	-11.6766
▁Erzeugnissen	-11.6767
▁Fitnesscenter	-11.6769
kirche	-11.6771
▁HP	-11.6772
orientierten	-11.6772
▁übliche	-11.6775
▁Münzen	-11.6775
▁theoretisch	-11.6776
▁pur	-11.6777
▁Ausbildungs	-11.6777
▁Francisco	-11.6778
▁überflüssig	-11.6779
▁übereinstimmen	-11.678
lis	-11.678
▁Familienzimmer	-11.6781
iva	-11.6781
▁Öffnen	-11.6782
▁veranlasst	-11.6785
▁Friedrich	-11.6786
▁Ausgewogenheit	-11.6786
▁Gebäudes	-11.6786
▁blicken	-11.6789
▁Motiv	-11.6791
netzwerk	-11.6792
▁Behandlungen	-11.6795
▁jenseit	-11.6797
▁Wäldern	-11.6799
▁Por	-11.68
▁Trocken	-11.6804
▁abhängt	-11.6806
▁Hund	-11.6806
sminister	-11.6808
ierbar	-11.6808
▁Fotografen	-11.681
▁RI	-11.6811
ris	-11.6813
▁Staatsbürger	-11.6814
▁Mil	-11.6814
▁Schokolade	-11.6814
▁Ausstellungs	-11.6815
▁Pisten	-11.6816
▁umfangreiches	-11.6816
▁Alliance	-11.6822
▁befürchten	-11.6822
▁Gestern	-11.6823
▁staatlicher	-11.6826
▁Ap	-11.683
▁vorgegeben	-11.6831
▁Kugel	-11.6831
van	-11.6837
▁horizontale	-11.6839
▁Wahlkampf	-11.6839
▁Verlagerung	-11.684
▁Ultra	-11.6841
▁erneuert	-11.6842
▁Jet	-11.6844
34	-11.6847
▁herausgegeben	-11.6849
BA	-11.685
▁repräsentiert	-11.6851
vorschläge	-11.6857
▁Fertigungs	-11.6858
kom	-11.6858
zellen	-11.6861
▁Schuhe	-11.6864
▁tu	-11.6865
mut	-11.6866
▁treu	-11.6866
▁orientieren	-11.6867
▁Weitergabe	-11.6867
▁auszubauen	-11.6867
▁78	-11.6868
reinigung	-11.6875
▁Location	-11.6876
isches	-11.6876
▁Development	-11.6876
▁Staub	-11.6876
▁Verts	-11.6878
▁Tarifa	-11.6879
▁eingetreten	-11.6879
▁inspiriert	-11.6881
▁intensiver	-11.6882
▁Resultate	-11.6884
entwurf	-11.6884
▁NGL	-11.6885
▁inner	-11.6885
▁berechnen	-11.6886
▁Reit	-11.6889
▁Streitigkeit	-11.6894
▁Anschläge	-11.6895
▁Ass	-11.6896
▁Spur	-11.6899
oll	-11.6899
▁historischer	-11.6899
▁Grenzwerte	-11.69
▁Tampere	-11.6903
▁Consulting	-11.6903
portal	-11.6904
ban	-11.6905
halter	-11.6906
mangel	-11.6913
▁Lebensdauer	-11.6914
▁Court	-11.6916
PC	-11.6918
reform	-11.6919
▁Zonen	-11.6921
▁Reduktion	-11.6921
alen	-11.6922
▁übersetzen	-11.6922
▁Artikels	-11.6925
▁Nordamerika	-11.6933
▁Sha	-11.6933
MA	-11.6938
▁kürzeste	-11.6939
▁central	-11.6939
▁Urlauber	-11.6942
▁Opera	-11.6943
ank	-11.6943
▁Unglück	-11.6946
▁scharf	-11.6946
▁Var	-11.6949
▁gedruckt	-11.695
serie	-11.6955
▁Brunnen	-11.6957
▁Kritiker	-11.6958
▁Schreib	-11.6958
37	-11.6959
38	-11.6959
▁digital	-11.696
experten	-11.6962
▁eingegeben	-11.6964
▁Gene	-11.6964
▁Call	-11.6965
▁ODER	-11.6966
▁unvergesslich	-11.6968
▁Schwester	-11.6968
▁bewaffnete	-11.6969
▁Boote	-11.6969
ries	-11.6969
▁Mich	-11.697
▁Wiedergabe	-11.6971
nica	-11.6972
gna	-11.6974
▁71	-11.6976
▁spa	-11.6976
SE	-11.6976
▁umstritten	-11.6979
iges	-11.6979
▁into	-11.698
▁ROM	-11.6981
.00	-11.6982
eva	-11.6982
institutionen	-11.6983
▁Distanz	-11.6984
▁nos	-11.6985
RI	-11.6989
ego	-11.6991
bibliothek	-11.6993
voraussetzung	-11.6993
▁Rettung	-11.6994
sniveau	-11.6996
sgruppe	-11.6997
beratung	-11.6997
▁mangelt	-11.6998
ock	-11.7
▁61	-11.7001
flüge	-11.7002
▁namhafte	-11.7002
▁Kupfer	-11.7002
▁Belastungen	-11.7002
▁gegebenen	-11.7003
▁Eingliederung	-11.7003
▁seid	-11.7005
▁betrug	-11.7006
artigen	-11.7009
▁Telefonnummer	-11.7011
▁dringende	-11.7017
▁weitreichende	-11.7019
optionen	-11.7019
▁Hitler	-11.7021
▁Nar	-11.7023
▁Frühling	-11.7024
familie	-11.7025
68	-11.7026
ción	-11.7026
▁Adria	-11.7028
▁bevorzugen	-11.7031
netze	-11.7032
▁Sturm	-11.7033
ole	-11.7036
▁Hygiene	-11.7038
▁British	-11.7038
▁College	-11.7039
▁weiße	-11.7041
▁kohärente	-11.7041
verkauf	-11.7041
▁Heilung	-11.7042
ieß	-11.7043
bie	-11.7045
▁sitzt	-11.7048
▁weitergehen	-11.7048
anzeigen	-11.7049
bewertung	-11.7049
▁begehen	-11.705
▁Einsicht	-11.705
▁Anforderung	-11.7052
leg	-11.7053
▁Borg	-11.7055
▁engere	-11.7055
teams	-11.7058
▁bu	-11.706
▁erholsamen	-11.7062
▁Umweltpolitik	-11.7065
tive	-11.7065
▁Va	-11.7066
▁Ansonsten	-11.7066
▁Matt	-11.7066
▁enden	-11.7068
▁nachhaltiger	-11.7069
cent	-11.7069
▁Male	-11.707
▁Telekommunika	-11.7072
press	-11.7072
▁Messung	-11.7072
▁strukturellen	-11.7072
▁Stärken	-11.7074
▁konventionelle	-11.7074
▁Ersten	-11.7075
▁Kommunismus	-11.7076
▁helle	-11.7076
▁freigegeben	-11.7076
95	-11.7076
▁eröffnete	-11.7078
▁ausgewiesen	-11.7081
▁strikt	-11.7082
▁Suchmaschinen	-11.7082
OL	-11.7083
▁geleistete	-11.7087
▁übermäßig	-11.7087
▁Rasse	-11.7091
▁way	-11.7092
rechnung	-11.7093
▁Verdacht	-11.7093
▁zivil	-11.7096
SC	-11.7098
▁beziehe	-11.7099
▁Titan	-11.71
häusern	-11.71
scha	-11.7101
▁Anstatt	-11.7102
▁Schöne	-11.7102
▁Garage	-11.7102
ym	-11.7103
ín	-11.7104
▁materielle	-11.7106
▁Abs	-11.7107
▁Kit	-11.7107
▁Transit	-11.7109
▁glaubwürdig	-11.711
▁Press	-11.7111
▁Modellen	-11.7114
▁bemerkenswerte	-11.7114
auftrag	-11.7116
▁Nachbar	-11.7116
king	-11.7118
▁getroffenen	-11.7118
▁Glaubens	-11.7119
▁sea	-11.7119
▁Dor	-11.712
imstande	-11.7121
▁benötigte	-11.7121
▁demografische	-11.7122
▁EURO	-11.7122
mie	-11.7123
▁Preises	-11.7124
▁versprechen	-11.7125
▁IS	-11.7125
▁Chip	-11.7125
▁Bettwäsche	-11.713
▁Knochen	-11.713
ehn	-11.7134
▁Substanz	-11.7135
gestellt	-11.7138
▁Kundendienst	-11.7138
▁Erforschung	-11.7139
shaushalt	-11.7139
▁don	-11.7139
▁Laufwerk	-11.7141
▁gesteuert	-11.7141
▁Frequenz	-11.7143
▁verfahren	-11.7144
▁vorsehen	-11.7148
▁ausgehandelt	-11.7148
▁übersehen	-11.7149
▁sprachen	-11.7149
▁Drittländer	-11.7149
▁einzigartiges	-11.7151
▁widersprechen	-11.7151
sbürgerschaft	-11.7152
uro	-11.7156
▁suite	-11.7157
sraum	-11.7157
▁Taliban	-11.7158
▁Milliarde	-11.7158
▁verletzen	-11.7158
zahlung	-11.716
uni	-11.7161
▁Kampfes	-11.7162
▁Tode	-11.7164
▁Hot	-11.7166
erin	-11.7167
▁Relax	-11.7167
▁Außer	-11.7169
▁diente	-11.7169
▁gravierende	-11.717
▁legitime	-11.717
▁pu	-11.7171
▁frühzeitig	-11.7171
▁eingestuft	-11.7173
▁Designs	-11.7173
spricht	-11.7175
▁Etappe	-11.7176
▁Geduld	-11.7176
▁language	-11.7176
▁Prozessor	-11.7177
steigt	-11.7178
▁verfügbare	-11.7181
▁verschlechtert	-11.7185
ра	-11.7186
▁ankommen	-11.7186
▁Fahrplan	-11.7187
▁Haft	-11.7188
▁traf	-11.7188
etto	-11.7188
▁KG	-11.7189
▁elektrischen	-11.7189
St	-11.7192
nu	-11.7193
ön	-11.7194
▁Erwärmung	-11.7195
▁WWU	-11.7195
▁sozioökonomisch	-11.7195
▁würdigen	-11.72
▁herrschende	-11.7202
training	-11.7203
▁weiss	-11.7203
▁Del	-11.7203
▁ankommt	-11.7206
▁CEO	-11.7206
▁einfaches	-11.7208
▁Gehen	-11.7209
▁angegriffen	-11.721
▁bequeme	-11.7212
▁Verschiedene	-11.7213
▁Verwirrung	-11.7213
bruch	-11.7217
▁Johannes	-11.7218
▁beeindruckt	-11.7223
▁schlafen	-11.7224
▁akademische	-11.7227
ruf	-11.7229
▁Infektion	-11.7229
▁Ly	-11.7231
▁eingeschlossen	-11.7231
▁far	-11.7232
▁Ste	-11.7233
▁exportiert	-11.7234
▁Hilfsmittel	-11.7236
▁mer	-11.7237
▁Spass	-11.7238
ges	-11.7239
erlebnis	-11.7239
handels	-11.7239
▁Entsorgung	-11.7241
▁Köpfe	-11.7243
▁Anwendungs	-11.7244
▁biologisch	-11.7245
▁explizit	-11.7245
behörden	-11.7248
▁Tun	-11.7249
▁koennen	-11.725
▁bisherige	-11.7252
▁vereinen	-11.7252
▁kalt	-11.7253
element	-11.7255
▁Jungen	-11.7256
▁Völkermord	-11.726
▁hofft	-11.726
nia	-11.7261
▁Schwellenländer	-11.7261
▁Paare	-11.7262
▁Hart	-11.7263
▁Rathaus	-11.7265
info	-11.7267
▁Transaktion	-11.7269
eth	-11.7269
▁Dampfbad	-11.7269
▁quasi	-11.7269
▁Zuhause	-11.727
▁Straftaten	-11.7274
▁ausgeglichen	-11.7275
▁Cent	-11.7276
▁Gewissen	-11.7277
▁Madeira	-11.7279
▁wundervolle	-11.7283
verlust	-11.7285
▁Sportler	-11.7286
verhältnisse	-11.7286
▁Fischfang	-11.7287
▁Lift	-11.7287
▁kombinieren	-11.7288
▁Knopf	-11.7288
▁hervorgerufen	-11.7288
▁Verbrennung	-11.7288
▁Streifen	-11.7288
▁Posten	-11.7294
▁Antonio	-11.7296
sprojekte	-11.7296
▁Reader	-11.7296
.2	-11.7297
▁Sekretariat	-11.7297
▁Entertainment	-11.7297
▁Banner	-11.7299
▁Exporte	-11.73
Pressemitteilung	-11.7301
▁Lese	-11.7303
▁Vers	-11.7304
samt	-11.7304
erfahrung	-11.7305
▁Kalifornien	-11.7306
▁verzichtet	-11.7306
▁Access	-11.7307
sha	-11.7308
▁Meilenstein	-11.731
forum	-11.7312
▁zusammenhängend	-11.7314
▁Verbund	-11.7314
▁Istanbul	-11.7316
▁long	-11.7317
▁multinationalen	-11.7319
▁Innovations	-11.7321
▁direct	-11.7324
▁beabsichtige	-11.7325
▁Lake	-11.7325
▁geradezu	-11.7326
ellen	-11.7327
▁Bach	-11.7328
▁schnellsten	-11.7328
93	-11.733
▁heiße	-11.7331
▁Anschein	-11.7331
RA	-11.7332
▁Überraschung	-11.7333
spläne	-11.7334
lay	-11.7336
rak	-11.7336
▁9001	-11.7336
▁entschuldigen	-11.7337
▁Jugendherberge	-11.7337
▁Tro	-11.7338
ove	-11.7338
xi	-11.734
betriebe	-11.7341
▁cu	-11.7341
▁Einigkeit	-11.7342
▁Lebensbedingung	-11.7343
TC	-11.7344
imo	-11.7346
aufnahme	-11.7346
▁handelte	-11.7349
▁Spaniens	-11.7351
▁müßten	-11.7351
▁reibungslose	-11.7351
betreiber	-11.7352
▁Römer	-11.7352
büro	-11.7354
gefühl	-11.7358
▁Körpers	-11.7358
▁star	-11.736
▁Kontinuität	-11.7363
▁Labour	-11.7363
▁nächstes	-11.7364
trittskandidaten	-11.7365
▁1950	-11.7366
sgrundlage	-11.7368
▁Anzahlung	-11.7369
▁liebevoll	-11.7369
▁Damal	-11.737
▁Kollektion	-11.7371
▁entre	-11.7375
▁Pferd	-11.7378
▁neuste	-11.7379
▁Vollendung	-11.7382
▁vorhergehende	-11.7382
▁Scanner	-11.7382
▁Depression	-11.7382
zumachen	-11.7387
▁Wasch	-11.7388
▁bulgarische	-11.7391
▁gleichnamige	-11.7391
▁radioaktive	-11.7391
▁airport	-11.7391
▁verschärfen	-11.7392
▁Science	-11.7395
änderungen	-11.7395
▁Far	-11.7396
▁erfolgreicher	-11.7397
▁Schmerz	-11.7398
opfer	-11.74
▁gesteigert	-11.7401
▁Spaziergänge	-11.7401
TO	-11.7401
▁Motorrad	-11.7401
▁Snacks	-11.7405
▁schloss	-11.7407
▁world	-11.7409
stücke	-11.7409
▁Saudi	-11.7409
▁Behinderung	-11.7409
regierung	-11.741
TEN	-11.7411
sse	-11.7416
sgeschichte	-11.7418
▁unsicher	-11.7418
stationen	-11.7418
ière	-11.7419
▁Blätter	-11.742
▁Umwandlung	-11.742
▁available	-11.742
zig	-11.742
▁Rose	-11.742
▁Kosmetik	-11.7422
erweist	-11.7423
400	-11.7425
▁koordinierte	-11.7425
▁beizubehalten	-11.7429
▁Schön	-11.743
säure	-11.743
▁kleinste	-11.7431
weisen	-11.7432
▁überwunden	-11.7433
▁ausdrückliche	-11.7433
▁Eingriff	-11.7433
▁Fels	-11.7437
lat	-11.7437
▁vorübergehend	-11.7438
▁Hochschule	-11.7438
▁Hoheitsgebiet	-11.7439
▁Mari	-11.7439
▁Lebensstandard	-11.7439
ats	-11.744
▁leid	-11.7442
▁Han	-11.7442
CC	-11.7442
decken	-11.7443
wärts	-11.7444
▁Fremd	-11.7444
0,00	-11.7445
DE	-11.7445
▁bi	-11.7446
▁deutschsprachig	-11.7447
▁Ph	-11.7447
▁Klausel	-11.7448
▁Vögel	-11.7448
▁ausschlaggebend	-11.7448
▁herbeizuführen	-11.7448
▁locker	-11.7449
▁begrüßenswert	-11.7451
99	-11.7451
▁Wiederholung	-11.7452
▁traumhafte	-11.7455
▁Propaganda	-11.7457
▁draußen	-11.7458
personal	-11.7459
▁Eigenmittel	-11.7462
ecke	-11.7463
icht	-11.7465
▁einseitige	-11.7465
parlamentarische	-11.7466
▁Cer	-11.7468
tend	-11.7468
▁Anklage	-11.7469
▁einschränken	-11.7469
▁restauriert	-11.7472
olgenabschätzung	-11.7473
▁3000	-11.7473
▁vertrete	-11.7474
▁anstehende	-11.7476
äre	-11.7477
▁Niederlage	-11.7478
▁take	-11.7479
▁Weihnachts	-11.7482
▁82	-11.7488
brücke	-11.749
srate	-11.749
▁wovo	-11.749
▁Eure	-11.7491
cer	-11.7491
▁Kal	-11.7493
▁Mobil	-11.7493
▁Schicht	-11.7497
▁Papst	-11.7497
▁implementiert	-11.7502
technischen	-11.7502
▁Aufsichtsrat	-11.7503
▁sendet	-11.7504
▁unterworfen	-11.7505
▁polizeiliche	-11.7505
▁1979	-11.7506
ack	-11.7506
▁Vol	-11.7506
▁SIE	-11.7509
▁Energieträger	-11.7509
▁bevorzugte	-11.7509
▁William	-11.751
▁professionell	-11.7511
▁Experiment	-11.7512
▁Beton	-11.7514
▁Motivation	-11.7517
▁Sektion	-11.7517
▁simple	-11.7518
unterricht	-11.7519
▁Logos	-11.752
▁künstliche	-11.752
lag	-11.7521
▁Filmen	-11.7522
erst	-11.7522
▁help	-11.7525
300	-11.7525
▁Stille	-11.7526
▁Wanderung	-11.7526
▁riesig	-11.7529
▁klimatisierte	-11.7529
▁Erweiterungen	-11.7529
▁Adapter	-11.753
▁Strafen	-11.7533
▁Anlaß	-11.7534
▁Interieur	-11.7534
▁Zusicherung	-11.7536
▁Einverständnis	-11.7537
modelle	-11.7537
▁Grüne	-11.7538
zweck	-11.7541
▁Sozialversicher	-11.7541
▁450	-11.7543
▁zitiere	-11.7544
etti	-11.7544
▁Durchmesser	-11.7544
spräsidenten	-11.7545
▁Einsätze	-11.7545
▁dominiert	-11.7546
SA	-11.7547
▁Bildes	-11.7549
gue	-11.7552
▁Anderen	-11.7553
▁fossile	-11.7553
▁dementsprechend	-11.7553
tech	-11.7555
▁Golfplätze	-11.7555
▁beliebte	-11.7557
küche	-11.7558
▁Reservierungen	-11.7558
▁streichen	-11.756
fr	-11.756
▁Sh	-11.7561
▁vernichtet	-11.7563
kapazitäten	-11.7563
ufer	-11.7564
aka	-11.7564
▁jedermann	-11.7564
▁leer	-11.7565
UR	-11.7565
▁Qualifikationen	-11.7567
▁Vertreterin	-11.7567
▁vorlegt	-11.757
▁Anwalt	-11.7572
▁beziehungsweise	-11.7572
▁Diplomatie	-11.7573
dis	-11.7574
▁Invasion	-11.7582
▁Blockade	-11.7582
▁hierher	-11.7583
▁Zivilisten	-11.7583
▁krank	-11.7586
▁Höhlen	-11.7591
▁Klinik	-11.7593
▁Festland	-11.7594
ore	-11.7595
▁Thematik	-11.7595
turm	-11.7598
▁Geistes	-11.76
wie	-11.7601
sinn	-11.7602
▁appellieren	-11.7604
▁begannen	-11.7605
▁Geheimnis	-11.7607
▁Sid	-11.7608
▁Disk	-11.7608
▁ser	-11.761
▁verlinkt	-11.7611
praxis	-11.7613
▁Vizepräsidentin	-11.7614
▁Jeden	-11.7615
▁Parlamentarisch	-11.7615
▁zweites	-11.7615
▁optimistisch	-11.762
▁Company	-11.7621
▁entschied	-11.7623
▁Finanzsystem	-11.7624
▁88	-11.7624
Meinungsfreiheit	-11.7625
bürger	-11.7626
lig	-11.7628
▁Besichtigung	-11.7629
▁Sarkozy	-11.763
▁Tschechien	-11.763
ami	-11.763
▁Meldung	-11.7632
▁Komplett	-11.7634
▁bien	-11.7636
▁149	-11.7636
▁ausmacht	-11.764
▁Fitnessraum	-11.7641
ergebnisse	-11.7642
59	-11.7646
▁Ressource	-11.7649
▁Renovierung	-11.765
▁zuversichtlich	-11.765
▁Friedhof	-11.765
▁Mahlzeiten	-11.765
dan	-11.7652
▁strategischer	-11.7652
▁Speise	-11.7653
▁Str	-11.7653
kunde	-11.7654
▁Head	-11.7655
▁Sur	-11.7655
▁File	-11.7658
▁zitiert	-11.7659
▁Darfur	-11.766
Geschäftsbereich	-11.7662
▁Breitband	-11.7663
▁Artikeln	-11.7663
▁auseinandersetz	-11.7665
▁ac	-11.7668
lau	-11.7669
▁konfiguriert	-11.7669
▁Roten	-11.767
▁arm	-11.7672
▁vers	-11.7676
▁Track	-11.7677
▁Auflage	-11.7677
märkten	-11.7678
▁Feinde	-11.7679
AM	-11.7681
sprojekt	-11.7681
▁gestützt	-11.7682
avi	-11.7682
▁Kette	-11.7683
lü	-11.7685
Mo	-11.7685
pat	-11.7686
▁fing	-11.7687
▁Stehende	-11.7689
▁innovativer	-11.7692
fahrer	-11.7693
▁Träume	-11.7697
▁Abwesenheit	-11.7698
▁should	-11.7698
▁vergrößert	-11.7698
▁Funktions	-11.7698
▁Beamte	-11.7699
▁verweigern	-11.7699
▁weitergeleitet	-11.7699
▁Mos	-11.7701
bin	-11.7701
▁mediterranen	-11.7701
▁gesundheits	-11.7703
р	-11.7704
▁LA	-11.7705
ichtigkeit	-11.7706
▁Verspätung	-11.7708
▁angeregt	-11.7708
▁FAQ	-11.7708
▁Unterbringung	-11.7708
inhalte	-11.7711
▁lief	-11.7712
▁93	-11.7714
aux	-11.7716
▁Südkorea	-11.7718
▁Bezüglich	-11.7719
▁LE	-11.7723
▁strenger	-11.7724
▁Bestes	-11.7724
▁Laufend	-11.7727
▁Selbstverständ	-11.7729
▁WM	-11.773
▁tour	-11.7732
▁geheim	-11.7732
▁Zeugen	-11.7732
fü	-11.7733
▁Juan	-11.7736
▁Ibiza	-11.7737
▁faktisch	-11.7737
▁unterzogen	-11.7737
asi	-11.7738
bre	-11.7739
▁Konten	-11.7743
▁Misch	-11.7744
▁Einzahlung	-11.7745
▁Santer	-11.7746
ación	-11.7746
▁Neapel	-11.7747
▁Zigaretten	-11.7747
▁AB	-11.7748
▁nötige	-11.7748
▁auszuarbeiten	-11.7749
▁Hochschul	-11.775
▁Zo	-11.775
▁ni	-11.7752
rod	-11.7753
▁erlangt	-11.7753
▁Ohr	-11.7754
▁Mus	-11.7755
▁Kristall	-11.7757
▁echtes	-11.7758
bal	-11.7761
▁anfällig	-11.7763
▁pla	-11.7763
▁Rosa	-11.7763
▁Medikamenten	-11.7763
▁Ei	-11.7764
hör	-11.7764
▁file	-11.7765
▁unvermeidlich	-11.7767
▁Fortbildung	-11.7767
▁Präzision	-11.7769
▁Malware	-11.7769
book	-11.7769
▁motiviert	-11.7771
▁Audit	-11.7772
▁Erfindung	-11.7772
gelände	-11.7776
▁Travel	-11.7776
▁Maustaste	-11.7777
esten	-11.7778
▁rechtmäßig	-11.7778
eri	-11.778
▁kroatische	-11.7782
▁Verhütung	-11.7785
▁Prämien	-11.7786
▁demonstrieren	-11.7786
mond	-11.7787
▁klinische	-11.7787
macher	-11.7788
▁erwachsen	-11.7789
▁universelle	-11.779
▁Ohren	-11.7793
▁video	-11.7793
verbrauch	-11.7794
▁Adam	-11.7796
▁1984	-11.7796
prüf	-11.7797
▁Tur	-11.7799
▁bedacht	-11.7799
klingt	-11.7802
▁SL	-11.7807
47	-11.7807
ions	-11.7808
dar	-11.7809
▁künstlich	-11.781
▁Hals	-11.781
▁beträchtlichen	-11.7811
▁visuelle	-11.7812
▁Sanierung	-11.7814
▁einheimische	-11.7814
▁Auschecken	-11.7816
▁Apache	-11.7816
vollen	-11.7817
75	-11.7818
GE	-11.7819
gesch	-11.7819
lli	-11.782
ful	-11.782
▁zumeist	-11.7821
▁begeistern	-11.7826
▁Fischbestände	-11.7826
▁Etikettierung	-11.7826
▁od	-11.7827
rus	-11.7828
▁GE	-11.7828
▁Nice	-11.7828
ism	-11.7831
rates	-11.7831
wissenschaft	-11.7832
▁Sportart	-11.7832
▁Müll	-11.7833
▁älter	-11.7834
▁exklusiv	-11.7835
▁Bedauerlich	-11.7835
▁Szenario	-11.7835
▁zuzustimmen	-11.7835
gründen	-11.7836
schloss	-11.7837
▁Mehrzahl	-11.7838
▁zweier	-11.7839
MO	-11.7839
PO	-11.7841
vid	-11.7843
▁Installer	-11.7845
▁ausgeweitet	-11.7845
Investitionsbank	-11.7847
disziplin	-11.7851
ali	-11.7852
▁alleinige	-11.7854
▁AGB	-11.7855
module	-11.7855
▁schalten	-11.7856
▁Word	-11.7857
▁ro	-11.7857
▁lebhafte	-11.7863
▁Bestell	-11.7863
▁Zentralbanken	-11.7863
▁erfahrene	-11.7864
▁next	-11.7865
▁little	-11.7866
win	-11.7868
geber	-11.7869
▁even	-11.7869
bol	-11.7871
▁beträchtlich	-11.7871
protokoll	-11.7873
▁Sänger	-11.7873
zin	-11.7873
▁Regisseur	-11.7875
▁Monster	-11.7878
▁einladen	-11.7878
▁anführen	-11.7879
▁generelle	-11.7879
▁Tank	-11.788
▁Jack	-11.7883
▁Aqua	-11.7885
▁Verschlüsselung	-11.7885
▁again	-11.7885
arm	-11.7885
▁Mittler	-11.7888
Ma	-11.7888
bewegungen	-11.7889
▁platziert	-11.7889
88	-11.7892
küste	-11.7892
▁Zucht	-11.7893
rá	-11.7894
ves	-11.7895
mas	-11.7896
▁standardmäßig	-11.7897
▁Spe	-11.7897
▁obligatorisch	-11.7898
▁entzieh	-11.7898
▁zugeordnet	-11.7901
▁Vermittler	-11.7905
▁Palacio	-11.7905
▁zunehmen	-11.7905
▁eindrucksvolle	-11.7905
▁elektronischer	-11.7906
▁konsequente	-11.7906
▁Lama	-11.7906
laufen	-11.7908
▁fügen	-11.7909
▁Israelis	-11.7912
show	-11.7912
▁sanft	-11.7912
schaftlicher	-11.7913
dr	-11.7913
▁Venezuela	-11.7915
gio	-11.7916
▁Spring	-11.7918
strahl	-11.7921
▁Aktivierung	-11.7922
kabel	-11.7924
tica	-11.7924
▁probieren	-11.7925
▁United	-11.7926
fisch	-11.7926
PA	-11.7929
▁Metal	-11.793
ration	-11.7934
▁Obergrenze	-11.7934
▁ablehnt	-11.7935
▁verbracht	-11.7936
Herangehensweise	-11.7938
werkzeug	-11.7939
▁Finden	-11.7939
▁Kenn	-11.794
▁Russisch	-11.7941
46	-11.7941
▁jüngere	-11.7942
69	-11.7942
▁auslösen	-11.7944
▁Olympus	-11.7945
▁know	-11.7945
▁away	-11.7946
▁Flora	-11.7946
▁Tasten	-11.7947
▁verursachte	-11.7949
▁Maison	-11.7949
kov	-11.7951
MI	-11.7954
▁Ängste	-11.7955
▁Spezialist	-11.7955
▁regiert	-11.7955
▁belasten	-11.7956
ario	-11.7957
gebühr	-11.7958
▁qualifiziert	-11.7958
▁many	-11.7962
ade	-11.7963
▁Alten	-11.7964
Vervielfältigung	-11.7965
▁Solo	-11.7966
▁Sternen	-11.7968
▁Reihen	-11.797
▁Amsterdamer	-11.7971
▁Excel	-11.7972
▁Lücken	-11.7974
▁EX	-11.7974
▁Bäume	-11.7974
▁AKVIS	-11.7975
▁Corporation	-11.7975
▁Deluxe	-11.7975
▁Santiago	-11.7975
▁Palazzo	-11.7975
▁schottische	-11.7975
▁zugenommen	-11.7975
▁hindern	-11.7975
treibt	-11.7977
Initiativbericht	-11.7979
grenze	-11.7983
regulierung	-11.7984
▁where	-11.7985
▁Vakuum	-11.7985
▁gefeiert	-11.7985
▁Schweiß	-11.7985
klima	-11.7988
▁services	-11.7988
▁Force	-11.799
▁blieben	-11.7991
▁Model	-11.7991
▁Interaktion	-11.7991
▁Programmierung	-11.7991
gie	-11.7992
▁Erfahren	-11.7993
▁Peru	-11.7994
▁Aktiv	-11.7994
plattform	-11.7995
▁afghanische	-11.7995
▁kopiert	-11.7995
▁Sorten	-11.7996
▁Pierre	-11.7998
beauftragte	-11.7999
▁technologisch	-11.7999
43	-11.8
▁kompetente	-11.8
▁10.000	-11.8002
▁Helden	-11.8003
▁Bali	-11.8004
▁arme	-11.8005
▁wählt	-11.8008
▁Cat	-11.8008
89	-11.801
brechen	-11.801
▁romantischen	-11.8012
figur	-11.8013
kr	-11.8014
▁Berechtigung	-11.8015
▁selbständig	-11.8016
via	-11.8017
▁nachzukommen	-11.8018
▁Strahlung	-11.8019
▁ausser	-11.8022
▁Endes	-11.8023
▁Marktführer	-11.8026
quer	-11.8027
▁vergleichbare	-11.8027
▁unterstützte	-11.803
▁floor	-11.8035
▁Batterie	-11.8035
osa	-11.8036
MP	-11.8036
wood	-11.8036
▁jüngst	-11.8037
▁Geldpolitik	-11.8039
br	-11.804
▁Abu	-11.8041
less	-11.8043
▁zweckmäßig	-11.8045
▁Lido	-11.8046
verzeichnis	-11.8047
sdienste	-11.8049
▁Old	-11.8052
▁Publikation	-11.8053
▁UK	-11.8054
aufnahmen	-11.8054
▁Besten	-11.8054
▁aktiver	-11.8055
▁Promenade	-11.8055
▁Herunterladen	-11.8055
▁Nürnberg	-11.8055
▁Vorbeugung	-11.8055
▁360	-11.8055
▁Figuren	-11.8056
▁Malaysia	-11.8056
▁genügen	-11.8057
rö	-11.8057
scher	-11.8058
▁schrecklich	-11.8059
▁einzuräumen	-11.806
lla	-11.8061
get	-11.8063
▁Long	-11.8063
angehörigen	-11.8065
▁Hubschrauber	-11.8065
▁Immobilie	-11.8065
ric	-11.8066
▁Kofinanzierung	-11.8066
▁Verhaftung	-11.8066
▁ideologische	-11.8067
länge	-11.8069
▁auszuschließen	-11.807
reg	-11.807
▁Speicherung	-11.8072
▁va	-11.8072
▁Student	-11.8074
▁befördert	-11.8075
▁Übel	-11.8076
TER	-11.8076
reiche	-11.8077
▁Notfall	-11.808
szene	-11.8083
▁Rentner	-11.8086
▁begriffen	-11.8087
▁Mitglieds	-11.8087
▁Mitgefühl	-11.809
▁ch	-11.809
▁Finanzrahmen	-11.8091
▁center	-11.8092
600	-11.8092
sstelle	-11.8095
schulen	-11.8096
▁Food	-11.8097
▁gespannt	-11.8099
▁Motive	-11.81
▁legendäre	-11.81
▁Wortmeldung	-11.8101
unwahrscheinlich	-11.8102
▁Duft	-11.8102
▁Zelt	-11.8104
▁Geltung	-11.8104
▁illegaler	-11.8105
▁Schichten	-11.8106
▁Lanzarote	-11.8106
▁schwächer	-11.8106
▁Massaker	-11.8106
▁Lücke	-11.8107
▁Anordnung	-11.8108
▁gestaltete	-11.8109
▁Prozentsatz	-11.811
cke	-11.811
▁unabhängiger	-11.8111
▁verheerende	-11.8111
▁gew	-11.8114
▁Organismen	-11.8116
▁verdeutlicht	-11.8116
▁Firewall	-11.8116
card	-11.8116
▁Produktpalette	-11.8116
erfolg	-11.8119
▁Mauern	-11.812
dialog	-11.8121
▁angelegte	-11.8123
▁Afrikanische	-11.8125
▁Angeles	-11.8125
▁versteckt	-11.8126
theater	-11.8127
erzeugnissen	-11.8128
08	-11.8129
▁ähnlicher	-11.813
▁einleiten	-11.8132
▁Handelspartner	-11.8133
▁Antrieb	-11.8134
▁archäologische	-11.8136
▁Identifizierung	-11.8137
▁Entschuldigung	-11.8138
▁Vorfälle	-11.8138
▁zuteil	-11.8139
48	-11.8141
▁ausgegangen	-11.8143
▁tat	-11.8146
▁Expansion	-11.8146
▁Eigentlich	-11.8147
▁Pay	-11.8148
lehrer	-11.8149
▁Ermessen	-11.8149
▁Zer	-11.815
▁Gras	-11.815
bereichen	-11.815
▁Buchen	-11.8151
▁wuchs	-11.8152
▁interpretiert	-11.8157
▁morgige	-11.8157
▁Glückwünsche	-11.8157
folge	-11.816
rd	-11.816
ks	-11.8163
ture	-11.8166
▁verbreitete	-11.8166
▁Naturschutz	-11.8167
▁lächerlich	-11.8167
▁Beauty	-11.8167
▁Arzneimitteln	-11.8168
kl	-11.8168
100	-11.8169
▁Namens	-11.817
▁hochwertiger	-11.8171
stunden	-11.8172
energie	-11.8173
neu	-11.8174
▁fertigen	-11.8174
▁Langzeit	-11.8176
▁Bergbau	-11.8177
▁Lodge	-11.8177
▁begegnet	-11.8177
▁haushalts	-11.8178
segment	-11.8181
stände	-11.8181
übergreifenden	-11.8182
swahlen	-11.8182
▁Mad	-11.8182
amente	-11.8185
▁getätigt	-11.8187
▁indirekte	-11.8188
▁support	-11.8191
▁1967	-11.8191
▁vorab	-11.8193
regeln	-11.8196
▁vernachlässigt	-11.8197
▁Haartrockner	-11.8197
▁Strafverfolgung	-11.8198
▁Mol	-11.8198
anischen	-11.8199
44	-11.8199
staatlichen	-11.82
zip	-11.82
▁Personenverkehr	-11.8201
kal	-11.8201
▁Konfigurations	-11.8201
▁Ram	-11.8202
tests	-11.8202
lö	-11.8202
▁Demonstrationen	-11.8204
▁around	-11.8208
▁Westeuropa	-11.8208
▁Handelspolitik	-11.8208
gedacht	-11.8208
modus	-11.8209
▁trocken	-11.821
▁Auszahlung	-11.821
▁GO	-11.8212
▁Cro	-11.8213
▁show	-11.8214
▁Ziffern	-11.8217
▁bunte	-11.8217
▁bisweil	-11.8218
▁slowenische	-11.8218
wein	-11.8218
▁Water	-11.8219
▁Sozialfonds	-11.8219
▁Pariser	-11.822
▁fragte	-11.822
▁vertraglich	-11.8221
▁Mitarbeit	-11.8221
▁CH	-11.8222
leiste	-11.8222
▁gestrigen	-11.8223
▁AL	-11.8224
nov	-11.8226
DA	-11.8229
▁Verona	-11.823
▁strafrechtliche	-11.823
ui	-11.8231
▁maßgeschneidert	-11.8236
halt	-11.8236
63	-11.8239
▁Geschlecht	-11.8239
▁Gy	-11.824
▁beachtliche	-11.824
76	-11.8241
96	-11.8241
▁Russen	-11.8245
▁hinten	-11.8245
▁zugeben	-11.8246
▁Cubas	-11.8246
strecke	-11.8247
▁Bon	-11.8249
▁Komitologie	-11.8249
▁kapitalistische	-11.8249
▁Schande	-11.8249
▁LKW	-11.825
▁mediterrane	-11.8251
▁Ay	-11.8251
IM	-11.8252
▁minimal	-11.8254
▁Grande	-11.8256
▁Straßenbahn	-11.8256
▁pass	-11.8256
▁Durchschnitts	-11.8256
▁Linke	-11.8256
▁optische	-11.8257
▁content	-11.8257
▁anerkennt	-11.8259
▁shower	-11.8262
▁Workshop	-11.8263
orte	-11.8263
▁Sternenflotte	-11.8264
led	-11.8266
▁hebt	-11.8266
▁Pakets	-11.8269
▁Hybrid	-11.8269
▁Provence	-11.8269
▁Albert	-11.827
berger	-11.8272
rez	-11.8272
▁come	-11.8274
▁water	-11.8277
▁Schein	-11.8277
TZ	-11.8277
▁GASP	-11.828
▁1978	-11.828
▁Handtücher	-11.828
nic	-11.828
▁festlegt	-11.8281
besitzer	-11.8281
▁latein	-11.8282
▁Malaria	-11.8282
▁Malerei	-11.8282
▁Verfassungs	-11.8283
pin	-11.8283
▁Bra	-11.8285
én	-11.8286
▁tausende	-11.8287
▁toll	-11.8288
▁Ruinen	-11.8289
bauen	-11.829
▁aufregende	-11.829
▁drehen	-11.829
ре	-11.8291
▁Zehn	-11.8292
▁romantische	-11.8292
▁relevant	-11.8297
▁Zeichnungen	-11.8297
▁gross	-11.8298
▁such	-11.8298
▁Pf	-11.8298
sverschiedenheit	-11.83
▁Array	-11.83
▁lokal	-11.8301
▁wohin	-11.8301
ssystemen	-11.8302
▁Österreichs	-11.8305
▁Urheber	-11.8305
▁einladende	-11.8305
▁Gleichberechtig	-11.8307
liegenden	-11.8307
una	-11.8309
▁Erwähnung	-11.8311
▁Kohlendioxid	-11.8311
▁Victoria	-11.8312
bewusste	-11.8314
▁sog	-11.8315
▁Reiz	-11.8317
work	-11.8317
gri	-11.8318
▁vo	-11.8318
▁Quality	-11.8322
▁zurückgreifen	-11.8323
▁Programmier	-11.8324
▁Pause	-11.8325
▁gu	-11.8325
star	-11.833
▁übertrieben	-11.833
▁Handelsabkommen	-11.8332
friedenstellend	-11.8332
stag	-11.8332
▁Rechtfertigung	-11.8335
▁stattfindenden	-11.8335
▁ungewöhnlich	-11.834
jährige	-11.834
▁Steine	-11.8341
▁Bruch	-11.8341
▁perfect	-11.8341
▁Stationen	-11.8341
var	-11.8344
lic	-11.8348
▁Luc	-11.8349
key	-11.8351
▁energisch	-11.8352
▁eindringlich	-11.8352
itz	-11.8353
▁afrikanische	-11.8356
▁Einzelpersonen	-11.8362
▁Ermäßigung	-11.8363
▁Jackson	-11.8363
▁festgeschrieben	-11.8364
▁67	-11.8366
▁Zeitschriften	-11.8367
▁Krankenhäuser	-11.8368
▁Zoom	-11.8368
▁Texten	-11.837
▁Blitz	-11.837
▁Gel	-11.8371
zuhalten	-11.8373
tiere	-11.8373
▁Picard	-11.8374
fahrten	-11.8375
unterstützung	-11.8376
▁vol	-11.8376
▁Gebot	-11.8377
▁Rettungs	-11.8378
air	-11.8378
herr	-11.8378
bauten	-11.8381
▁Bri	-11.8382
▁töten	-11.8384
▁vergrößern	-11.8384
datenbank	-11.8384
▁traurig	-11.8386
zog	-11.8389
▁Proteste	-11.8393
rechtlichen	-11.8393
▁Kuchen	-11.8394
▁spätere	-11.8396
▁Dekoration	-11.8396
▁plan	-11.8397
san	-11.8399
llen	-11.84
▁apartment	-11.8401
07	-11.8401
▁app	-11.8404
▁Vorsorge	-11.8405
▁zeugt	-11.8405
schauen	-11.8412
▁Hel	-11.8412
LA	-11.8414
▁State	-11.8414
▁Rohr	-11.8414
▁Wilhelm	-11.8415
büros	-11.8416
▁beschriebenen	-11.8417
det	-11.8424
[...]
