<unk>	0
<s>	0
</s>	0
▁the	-3.01806
▁,	-3.23343
▁.	-3.3909
▁of	-3.66954
▁and	-3.77537
▁to	-3.8296
##	-3.96596
▁in	-4.13142
s	-4.16764
▁a	-4.2383
AT	-4.38598
▁is	-4.46947
▁that	-4.73125
▁for	-4.78693
▁	-4.87093
;	-5.03233
-	-5.04759
▁on	-5.05934
▁##	-5.0676
▁&	-5.12986
ed	-5.13212
▁with	-5.17317
▁The	-5.20952
▁be	-5.21205
▁are	-5.23474
ing	-5.28189
▁I	-5.3003
▁this	-5.3744
▁as	-5.42448
▁it	-5.48481
▁we	-5.50392
▁by	-5.55226
▁have	-5.55421
ly	-5.56507
▁not	-5.56525
▁you	-5.60884
apos	-5.62638
▁will	-5.69591
▁which	-5.69955
▁from	-5.75991
▁(	-5.83772
▁at	-5.84332
▁)	-5.84777
▁or	-5.85165
▁has	-5.8772
d	-5.90509
▁an	-5.90896
▁can	-6.02191
▁European	-6.06321
▁our	-6.07165
▁all	-6.08415
▁was	-6.08568
y	-6.15698
▁:	-6.1778
▁also	-6.19359
quot	-6.20192
▁-	-6.27171
▁your	-6.3177
▁We	-6.37304
▁but	-6.41225
.	-6.42719
e	-6.4404
▁In	-6.44479
▁its	-6.44712
▁would	-6.44801
▁more	-6.45481
▁their	-6.46869
▁been	-6.49592
▁one	-6.52892
▁It	-6.52936
▁This	-6.53885
▁Mr	-6.54344
▁should	-6.58023
▁’	-6.61703
▁s	-6.64943
▁Commission	-6.65526
▁must	-6.68094
▁new	-6.71408
▁very	-6.72791
▁there	-6.73227
▁other	-6.73816
▁like	-6.74445
▁time	-6.75303
▁President	-6.75406
▁do	-6.76159
/	-6.78978
▁only	-6.7947
▁about	-6.80297
▁they	-6.82446
▁up	-6.86522
▁?	-6.87528
▁these	-6.89427
▁so	-6.89579
▁A	-6.91173
▁who	-6.91265
▁us	-6.95753
▁if	-6.96772
▁no	-6.96839
▁Union	-6.96911
▁Parliament	-7.00651
▁any	-7.01815
▁people	-7.02438
▁out	-7.0252
▁Europe	-7.03855
▁into	-7.04303
▁were	-7.08393
▁report	-7.08478
▁such	-7.09134
▁well	-7.09212
▁what	-7.10199
▁States	-7.10478
▁Member	-7.10647
▁need	-7.129
▁some	-7.12946
▁first	-7.13843
▁countries	-7.14196
▁when	-7.14625
▁use	-7.15394
▁most	-7.15429
▁than	-7.15567
▁!	-7.1567
▁my	-7.16622
▁his	-7.16945
▁Council	-7.18693
▁make	-7.19779
▁important	-7.2012
▁work	-7.2048
▁EU	-7.21832
▁now	-7.2193
▁–	-7.22426
▁;	-7.23064
▁many	-7.23409
▁them	-7.23945
▁between	-7.24094
▁take	-7.26535
▁because	-7.27393
▁...	-7.31791
t	-7.32671
▁hotel	-7.33627
es	-7.33784
▁information	-7.34268
▁made	-7.34454
▁support	-7.34942
▁two	-7.35487
▁way	-7.36893
▁where	-7.36925
▁over	-7.38037
▁If	-7.38195
▁years	-7.38512
▁just	-7.38885
▁he	-7.39172
▁world	-7.39946
▁those	-7.40258
▁had	-7.41205
er	-7.41279
▁right	-7.43939
▁policy	-7.44546
a	-7.4651
▁being	-7.47303
▁place	-7.48322
▁system	-7.48639
▁year	-7.48885
▁may	-7.49459
▁even	-7.50562
▁am	-7.52819
▁order	-7.53611
▁good	-7.53686
▁part	-7.53993
▁area	-7.54483
▁high	-7.56803
▁market	-7.57051
▁own	-7.57947
▁here	-7.58616
1	-7.59373
▁political	-7.5955
▁You	-7.59995
▁see	-7.60088
▁through	-7.60946
▁possible	-7.61223
▁same	-7.6217
▁after	-7.63008
▁want	-7.64071
▁economic	-7.64221
▁great	-7.6467
▁For	-7.64844
▁development	-7.6495
▁As	-7.64952
“	-7.65112
n	-7.6534
▁There	-7.65475
▁within	-7.67148
▁how	-7.67342
▁under	-7.67393
▁de	-7.67821
o	-7.68105
▁could	-7.68272
▁find	-7.68337
▁%	-7.68606
▁against	-7.69578
▁rights	-7.69713
▁therefore	-7.69734
▁both	-7.70082
▁public	-7.70134
▁2	-7.70423
▁country	-7.70548
▁much	-7.71552
▁used	-7.71942
▁then	-7.72153
▁does	-7.73603
▁point	-7.73859
▁number	-7.75212
▁1	-7.75336
▁”	-7.75456
▁free	-7.76297
▁without	-7.76367
▁international	-7.77764
▁long	-7.77947
▁believe	-7.78972
▁fact	-7.79435
▁know	-7.79853
▁vote	-7.80189
▁social	-7.80476
▁view	-7.80574
▁services	-7.80699
▁still	-7.80756
▁say	-7.80935
▁available	-7.81322
▁Hotel	-7.819
▁different	-7.82405
▁me	-7.82718
▁last	-7.83527
▁process	-7.84662
▁future	-7.84884
▁already	-7.85581
▁&#9	-7.86172
▁course	-7.86376
▁&#93;	-7.86556
▁3	-7.86622
▁before	-7.86964
▁today	-7.87892
▁think	-7.8823
▁That	-7.8841
▁level	-7.88925
▁issue	-7.8924
▁products	-7.89345
▁service	-7.89639
▁able	-7.90215
▁quality	-7.90808
▁case	-7.91041
▁data	-7.9121
▁cannot	-7.9169
▁human	-7.92163
▁too	-7.9298
▁Commissioner	-7.93126
▁set	-7.93366
▁debate	-7.93398
▁day	-7.93402
▁room	-7.93514
▁get	-7.93593
▁end	-7.93651
▁national	-7.9447
▁question	-7.9557
▁offers	-7.96272
▁certain	-7.96689
▁financial	-7.97414
▁But	-7.97703
th	-7.97779
▁proposal	-7.98561
▁during	-7.98605
▁open	-7.98973
▁best	-7.9917
▁example	-7.99505
▁said	-7.99566
▁city	-8.00024
▁small	-8.0066
▁means	-8.0072
▁regard	-8.00812
▁help	-8.01369
▁access	-8.01381
▁situation	-8.0143
▁large	-8.01443
▁every	-8.01551
▁since	-8.02125
▁However	-8.02295
m	-8.02381
▁clear	-8.02826
▁including	-8.02852
▁allow	-8.03437
▁Our	-8.03513
▁offer	-8.04507
▁business	-8.04538
▁common	-8.04958
▁particular	-8.0501
▁few	-8.05352
▁based	-8.05447
▁each	-8.05459
▁Committee	-8.07554
▁give	-8.08344
▁three	-8.09147
▁measures	-8.09418
▁provide	-8.09725
i	-8.09833
▁ensure	-8.10144
▁rooms	-8.10183
▁result	-8.10448
▁energy	-8.10587
▁next	-8.10706
▁agreement	-8.10758
▁further	-8.11006
▁state	-8.11032
▁All	-8.11073
▁citizens	-8.11517
▁problem	-8.11732
▁taken	-8.12054
▁areas	-8.12143
▁On	-8.12185
est	-8.1265
▁4	-8.12699
▁put	-8.12716
▁To	-8.13503
▁far	-8.13984
▁come	-8.14756
▁again	-8.15233
▁company	-8.16862
▁back	-8.17363
▁5	-8.17449
en	-8.1755
▁change	-8.17604
▁necessary	-8.17712
▁present	-8.17908
▁close	-8.17947
▁S	-8.17988
▁life	-8.18245
▁hope	-8.18248
▁position	-8.18368
▁security	-8.18664
▁shall	-8.19049
▁problems	-8.19143
▁second	-8.19329
▁why	-8.19361
▁given	-8.19403
▁go	-8.19523
▁however	-8.19749
▁cooperation	-8.19946
▁legal	-8.20318
amp	-8.20319
▁At	-8.208
▁group	-8.20915
▁10	-8.21492
▁her	-8.21526
▁special	-8.2216
▁while	-8.22464
▁look	-8.22466
▁stay	-8.22752
▁real	-8.22811
▁law	-8.22919
▁With	-8.234
▁always	-8.23457
▁form	-8.23497
▁e	-8.24072
▁located	-8.24702
▁action	-8.24856
▁reach	-8.2498
▁And	-8.25128
▁account	-8.26286
▁protection	-8.26787
▁better	-8.26947
▁main	-8.27069
▁trade	-8.27347
▁full	-8.27696
▁needs	-8.28077
▁Group	-8.28145
▁What	-8.28256
▁production	-8.28546
▁United	-8.28668
▁They	-8.29099
▁using	-8.29284
▁current	-8.2945
▁C	-8.2953
▁working	-8.30322
▁become	-8.30734
▁around	-8.30842
▁House	-8.31563
▁down	-8.31585
▁whether	-8.31679
▁power	-8.31927
▁Community	-8.32015
▁together	-8.32156
▁particularly	-8.32511
▁making	-8.32777
▁welcome	-8.32918
▁did	-8.32951
▁terms	-8.33277
▁These	-8.33498
▁respect	-8.33523
▁When	-8.33942
▁old	-8.34094
▁another	-8.34102
▁list	-8.34296
▁local	-8.35085
▁children	-8.35356
▁centre	-8.3546
▁him	-8.36201
▁role	-8.37302
▁play	-8.37319
▁conditions	-8.3739
▁third	-8.37884
▁experience	-8.37894
▁issues	-8.38155
▁He	-8.38181
▁various	-8.38797
▁control	-8.389
▁health	-8.38946
▁industry	-8.39071
▁whole	-8.39126
▁matter	-8.39167
▁sector	-8.39193
▁companies	-8.39548
▁women	-8.39814
▁basis	-8.39994
▁per	-8.40058
▁aim	-8.4014
▁budget	-8.40449
▁site	-8.40515
▁No	-8.40717
▁specific	-8.40977
▁remain	-8.41044
▁Mrs	-8.41088
▁wish	-8.41116
▁systems	-8.41642
▁especially	-8.41674
st	-8.42188
▁research	-8.42229
▁please	-8.42343
▁water	-8.4248
▁called	-8.42767
▁create	-8.42811
▁done	-8.42959
▁German	-8.43352
▁project	-8.43493
▁region	-8.43851
▁non	-8.44185
▁hand	-8.44899
▁really	-8.44966
▁decision	-8.45157
▁subject	-8.45362
▁government	-8.45377
able	-8.45668
▁transport	-8.45682
▁20	-8.45846
▁rapporteur	-8.45974
▁million	-8.46154
▁single	-8.46269
▁enjoy	-8.46631
▁page	-8.46644
▁resolution	-8.46821
▁term	-8.4683
▁address	-8.47183
▁major	-8.47468
▁range	-8.47549
▁programme	-8.4767
▁among	-8.47673
▁continue	-8.47873
▁thank	-8.4791
▁something	-8.48211
▁general	-8.48575
▁itself	-8.48647
▁several	-8.4885
▁modern	-8.49962
▁gentlemen	-8.50123
▁Germany	-8.50391
▁So	-8.50395
▁line	-8.5045
▁name	-8.5062
▁directive	-8.50749
▁B	-8.50895
▁less	-8.51116
▁achieve	-8.5152
▁improve	-8.51579
▁management	-8.51596
▁going	-8.5167
▁start	-8.51717
▁ask	-8.52117
▁often	-8.52244
▁D	-8.52427
▁opinion	-8.52432
r	-8.52587
▁environment	-8.52983
S	-8.53045
▁least	-8.53077
▁individual	-8.53315
▁following	-8.53323
▁crisis	-8.53553
ness	-8.53687
▁forward	-8.53698
▁away	-8.53846
▁rules	-8.53864
▁family	-8.53992
▁personal	-8.5417
▁product	-8.54377
▁towards	-8.54679
▁global	-8.54889
▁found	-8.55169
▁price	-8.55339
▁once	-8.55441
▁Madam	-8.55464
▁text	-8.55815
▁off	-8.5582
▁approach	-8.55912
▁software	-8.56037
▁excellent	-8.56203
▁food	-8.56388
▁money	-8.56588
▁location	-8.56768
▁call	-8.57346
▁institutions	-8.57634
▁home	-8.57665
▁until	-8.57721
▁increase	-8.57753
▁short	-8.57835
▁things	-8.58085
▁near	-8.58147
▁customers	-8.58316
▁Treaty	-8.58356
▁15	-8.58539
▁agree	-8.5854
▁known	-8.58933
▁little	-8.58981
▁protect	-8.59065
▁aid	-8.59445
ies	-8.59509
▁opportunity	-8.59726
▁private	-8.60178
com	-8.60439
▁value	-8.60447
▁activities	-8.60789
▁staff	-8.6082
▁favour	-8.61074
▁US	-8.61308
▁air	-8.61348
▁2009	-8.61409
▁rather	-8.61411
▁period	-8.62123
▁days	-8.6217
▁interest	-8.62235
▁resources	-8.62941
▁quite	-8.63096
▁growth	-8.63164
▁6	-8.63304
▁fully	-8.63867
▁framework	-8.63962
▁provided	-8.63966
▁30	-8.64017
▁include	-8.64088
▁field	-8.64541
▁technology	-8.64653
▁consider	-8.64813
▁ladies	-8.64826
▁reason	-8.6516
▁progress	-8.65327
▁yet	-8.65452
▁solution	-8.65524
on	-8.6561
▁State	-8.65956
▁might	-8.66275
▁amendments	-8.66613
▁having	-8.66878
▁safety	-8.67166
▁seem	-8.67301
▁taking	-8.674
▁along	-8.67402
▁contact	-8.67578
▁town	-8.67711
▁design	-8.678
▁left	-8.67956
▁members	-8.68036
124	-8.68484
▁above	-8.68544
▁proposals	-8.68661
▁extreme	-8.68814
▁adopted	-8.68939
▁&#	-8.68948
▁essential	-8.68989
▁content	-8.69154
▁building	-8.69359
▁After	-8.69463
▁strong	-8.69769
▁costs	-8.6986
▁legislation	-8.69921
▁application	-8.70189
▁behalf	-8.70387
▁economy	-8.70413
▁Members	-8.70488
▁complete	-8.70565
▁entire	-8.7064
▁addition	-8.70643
▁E	-8.70692
ity	-8.71056
▁beautiful	-8.71083
▁website	-8.71099
▁show	-8.71275
▁key	-8.71311
▁effective	-8.71618
▁12	-8.72517
▁difficult	-8.72531
▁sure	-8.72624
▁freedom	-8.72689
▁easy	-8.72766
▁never	-8.72809
▁attention	-8.72972
▁responsibility	-8.73185
2	-8.73221
▁due	-8.73277
▁concerned	-8.73547
▁minutes	-8.73648
▁One	-8.73841
▁projects	-8.7418
▁simply	-8.74467
▁focus	-8.74699
▁turn	-8.74735
▁China	-8.74814
▁policies	-8.74835
▁technical	-8.74868
▁importance	-8.74893
▁heart	-8.7501
▁results	-8.75198
▁provides	-8.75633
▁sea	-8.75692
▁pay	-8.7585
▁environmental	-8.76009
▁principle	-8.76173
▁she	-8.76289
▁7	-8.76581
▁version	-8.76602
▁society	-8.7661
▁kind	-8.76757
▁points	-8.7681
▁strategy	-8.77199
▁greater	-8.77322
▁World	-8.77476
▁la	-8.77514
▁makes	-8.77698
▁8	-8.77823
▁training	-8.7804
▁groups	-8.78111
▁increasing	-8.78175
▁wide	-8.78311
al	-8.78358
▁risk	-8.78387
▁questions	-8.78591
▁accept	-8.78598
▁P	-8.78625
▁natural	-8.78947
▁re	-8.79447
▁central	-8.79673
▁standards	-8.79775
▁step	-8.80071
▁light	-8.8013
▁en	-8.80346
▁meeting	-8.8038
▁required	-8.80647
▁hard	-8.80667
▁Internet	-8.80813
▁deal	-8.8088
▁size	-8.80998
▁words	-8.81095
▁user	-8.81273
▁past	-8.81334
▁car	-8.8153
▁authorities	-8.81584
▁clearly	-8.8195
▁amount	-8.82055
▁bring	-8.82348
▁times	-8.82365
▁competition	-8.82422
▁side	-8.8245
re	-8.82693
▁serious	-8.82913
▁recent	-8.82925
▁century	-8.83022
▁cost	-8.83135
▁aware	-8.83247
▁feel	-8.83335
ary	-8.83339
▁four	-8.83393
▁cultural	-8.83587
▁internal	-8.83819
▁others	-8.84058
▁positive	-8.84303
▁visit	-8.84576
▁employment	-8.84715
▁responsible	-8.84891
▁directly	-8.84984
▁longer	-8.85209
▁proposed	-8.85225
▁nature	-8.85236
▁understand	-8.8537
▁fundamental	-8.85392
▁pages	-8.85617
▁2010	-8.85749
▁months	-8.85938
g	-8.86188
▁live	-8.86261
▁person	-8.86266
▁currently	-8.86283
▁requirements	-8.864
▁solutions	-8.86411
▁M	-8.86694
▁New	-8.86856
▁history	-8.86966
▁regulation	-8.87052
▁2008	-8.87286
▁enough	-8.87309
▁implementation	-8.87331
▁guarantee	-8.87456
▁apply	-8.8748
▁request	-8.87549
▁m	-8.8755
▁house	-8.87586
▁involved	-8.87656
▁network	-8.87742
▁Please	-8.87769
▁democratic	-8.87939
▁themselves	-8.8803
▁interests	-8.884
▁developed	-8.88403
▁democracy	-8.88441
▁guests	-8.88494
▁parties	-8.88648
▁online	-8.88655
▁peace	-8.88717
▁events	-8.88803
▁EUR	-8.88921
▁link	-8.88927
▁young	-8.88932
▁language	-8.89018
▁prevent	-8.89339
▁regions	-8.89397
▁let	-8.89498
▁event	-8.89613
▁date	-8.89652
▁top	-8.89664
▁related	-8.8973
▁T	-8.89851
▁From	-8.89964
▁war	-8.90045
▁ago	-8.9041
▁keep	-8.90446
l	-8.90498
▁Russia	-8.90601
▁efforts	-8.90656
▁t	-8.90703
▁facilities	-8.90965
▁check	-8.91009
▁original	-8.91363
▁needed	-8.91455
▁unique	-8.91523
▁art	-8.91623
▁appropriate	-8.91687
▁force	-8.91854
▁total	-8.91857
▁function	-8.92124
▁represent	-8.92285
▁week	-8.92485
▁additional	-8.9262
▁i	-8.92881
▁reform	-8.92939
▁team	-8.92963
▁soon	-8.92989
▁negotiations	-8.93235
▁etc	-8.9328
▁International	-8.93321
▁effect	-8.93625
▁run	-8.93749
▁either	-8.93971
▁changes	-8.94143
▁balance	-8.9422
▁return	-8.9441
▁An	-8.94512
▁low	-8.94624
▁breakfast	-8.94649
▁via	-8.94699
▁regional	-8.94715
▁basic	-8.94737
▁music	-8.9494
▁meet	-8.95051
▁though	-8.951
▁developing	-8.9541
▁Presidency	-8.95489
▁standard	-8.9567
▁type	-8.95704
▁foreign	-8.95843
▁created	-8.96014
▁share	-8.96081
▁performance	-8.96093
▁according	-8.96126
▁situated	-8.96269
▁education	-8.96332
▁success	-8.96459
▁true	-8.96475
▁climate	-8.96513
▁2007	-8.9654
▁structure	-8.96542
▁receive	-8.96702
▁lot	-8.96828
▁direct	-8.96927
▁comes	-8.97008
▁file	-8.97204
▁everything	-8.97402
▁rate	-8.97467
▁idea	-8.97552
▁establish	-8.97578
▁views	-8.97578
▁cases	-8.97671
▁traditional	-8.97978
▁population	-8.98
▁almost	-8.98026
▁French	-8.98032
h	-8.98115
▁50	-8.98138
▁restaurant	-8.98139
▁thus	-8.98248
▁living	-8.9839
▁actually	-8.98498
‘	-8.98606
▁lead	-8.98832
▁famous	-8.98877
▁procedure	-8.98934
▁develop	-8.98987
▁knowledge	-8.99094
▁24	-8.99181
▁seen	-8.99437
▁station	-8.99473
▁held	-8.99485
▁later	-8.99615
▁beach	-8.99645
▁looking	-8.99707
▁un	-8.99791
▁included	-8.99882
▁capital	-8.99902
▁prices	-8.99984
▁promote	-9.00101
▁care	-9.00147
▁night	-9.00256
▁five	-9.00393
▁states	-9.00442
▁final	-9.0062
▁funds	-9.00892
▁cover	-9.00915
▁enable	-9.01054
▁thing	-9.01082
▁move	-9.01091
▁road	-9.0116
▁designed	-9.01262
▁add	-9.0131
▁France	-9.01357
▁markets	-9.01359
STAR	-9.0149
▁customer	-9.01556
▁11	-9.01603
▁100	-9.01675
▁program	-9.01733
▁communication	-9.01735
▁mean	-9.01798
▁majority	-9.01878
▁workers	-9.01886
▁My	-9.02456
▁18	-9.0248
▁2000	-9.02609
▁benefit	-9.02785
▁join	-9.02811
▁plan	-9.02876
▁outside	-9.03073
▁comfortable	-9.03089
▁professional	-9.03109
▁context	-9.03141
▁read	-9.03262
▁ideal	-9.03356
▁space	-9.03557
▁tax	-9.03832
▁throughout	-9.03921
us	-9.04141
▁features	-9.04243
▁G	-9.04246
▁express	-9.04249
▁Government	-9.04305
▁By	-9.04336
▁9	-9.04742
▁American	-9.04877
▁mentioned	-9.05277
▁potential	-9.054
▁investment	-9.05697
▁across	-9.05912
▁early	-9.05965
▁hours	-9.06216
▁friendly	-9.06216
▁existing	-9.0624
▁writing	-9.06266
▁users	-9.06446
▁connection	-9.06638
▁act	-9.0688
▁impact	-9.06895
▁How	-9.06992
▁bar	-9.07208
▁member	-9.07295
▁25	-9.07343
▁built	-9.07359
▁big	-9.07416
▁relations	-9.07434
▁Turkey	-9.07705
upon	-9.0773
▁practice	-9.07731
▁concerns	-9.07935
▁although	-9.08219
▁ever	-9.0825
▁moment	-9.0832
▁took	-9.08369
▁committee	-9.08389
▁joint	-9.08416
▁significant	-9.08491
▁16	-9.08526
▁leading	-9.0854
▁try	-9.08708
▁web	-9.08724
▁perfect	-9.09031
▁pool	-9.09173
▁km	-9.0918
▁walk	-9.09328
▁concerning	-9.09429
ers	-9.09526
▁doing	-9.09548
▁party	-9.09771
▁game	-9.09777
▁W	-9.09802
▁culture	-9.09927
▁package	-9.10049
▁programmes	-9.10098
▁completely	-9.10122
▁community	-9.1024
▁model	-9.10403
▁established	-9.10411
▁media	-9.10698
▁initiative	-9.10715
▁military	-9.10739
▁objective	-9.1075
▁nothing	-9.10947
+	-9.11167
▁send	-9.11343
▁reasons	-9.11971
▁Since	-9.12062
▁holiday	-9.1215
ation	-9.12302
▁Let	-9.12319
▁equipped	-9.12388
▁decisions	-9.12548
▁parts	-9.12652
▁equipment	-9.12661
▁America	-9.12695
▁Office	-9.12695
▁euro	-9.12746
▁style	-9.12767
▁fight	-9.12934
▁La	-9.131
▁2006	-9.13145
▁Court	-9.13224
▁concern	-9.13269
▁choice	-9.13309
▁material	-9.13364
▁body	-9.13365
▁TV	-9.13653
▁May	-9.13866
▁Lisbon	-9.13904
▁answer	-9.14133
▁takes	-9.14135
▁demand	-9.14143
▁simple	-9.14176
▁image	-9.14201
▁received	-9.14377
▁includes	-9.14596
D	-9.14628
▁border	-9.14642
▁objectives	-9.14688
▁partners	-9.14826
▁agricultural	-9.14986
UNDER	-9.14992
▁Here	-9.15298
▁book	-9.15356
▁jobs	-9.15695
SCORE	-9.15752
▁South	-9.15758
▁English	-9.15809
▁agreements	-9.16157
▁values	-9.1619
▁reduce	-9.1619
▁maintain	-9.16264
▁enter	-9.16465
▁works	-9.16516
▁click	-9.16589
▁speak	-9.16649
▁mind	-9.16663
▁treatment	-9.1672
▁stop	-9.16735
▁sense	-9.16827
▁document	-9.16843
▁regarding	-9.16944
▁14	-9.17018
▁quickly	-9.17051
▁half	-9.17111
▁applications	-9.17274
▁Article	-9.17331
▁dialogue	-9.17432
▁fair	-9.17542
▁beginning	-9.17607
▁face	-9.17719
▁00	-9.17748
▁produce	-9.17988
▁computer	-9.18091
▁follow	-9.18138
▁below	-9.18316
▁discuss	-9.18512
▁strengthen	-9.18731
▁suggest	-9.18836
▁guest	-9.18856
▁lack	-9.18952
▁huge	-9.19224
z	-9.19278
▁indeed	-9.19346
▁card	-9.194
▁stage	-9.19847
▁Affairs	-9.19853
▁keyword	-9.1986
▁Finally	-9.19908
▁O	-9.19944
▁internet	-9.20075
▁choose	-9.20096
▁search	-9.20117
▁Amendment	-9.20379
▁contains	-9.20381
▁successful	-9.20404
▁active	-9.20432
▁center	-9.20475
▁independent	-9.20565
▁travel	-9.20603
▁self	-9.2068
▁files	-9.20692
▁carry	-9.20818
▁exchange	-9.20908
▁job	-9.21122
▁June	-9.21273
▁mail	-9.21425
▁recently	-9.21629
▁integration	-9.21692
▁amendment	-9.21732
▁Some	-9.2183
▁complex	-9.21896
▁series	-9.21988
▁achiev	-9.22124
▁adopt	-9.22141
▁everyone	-9.22282
▁office	-9.2238
u	-9.22859
▁rule	-9.22872
▁East	-9.22894
▁K	-9.23001
▁presented	-9.23172
▁commitment	-9.23505
▁increased	-9.23512
▁highly	-9.2355
▁attempt	-9.23584
▁H	-9.23795
▁consumers	-9.23908
▁agreed	-9.24024
▁whose	-9.24049
▁post	-9.24247
an	-9.24478
▁former	-9.2449
▁double	-9.24495
▁Therefore	-9.24552
▁compromise	-9.24784
▁reviews	-9.24872
▁direction	-9.24903
▁d	-9.24965
▁13	-9.25144
▁damage	-9.25165
▁commercial	-9.25227
▁star	-9.25239
▁tell	-9.25253
▁consequence	-9.25331
▁Berlin	-9.2543
▁perhaps	-9.25499
▁added	-9.25518
▁sound	-9.25564
▁higher	-9.25627
x	-9.25734
▁similar	-9.25858
▁floor	-9.2588
▁goods	-9.25896
▁Second	-9.25937
▁nuclear	-9.25966
▁shown	-9.26003
▁avoid	-9.26025
▁und	-9.26085
▁cross	-9.26186
о	-9.26242
▁industrial	-9.26407
▁principles	-9.26459
▁pressure	-9.26699
A	-9.26733
▁sub	-9.2674
▁oil	-9.26915
▁land	-9.26975
▁setting	-9.26989
▁governments	-9.27028
▁front	-9.27151
▁L	-9.27271
▁17	-9.27309
▁asked	-9.27398
▁Now	-9.27419
▁aspects	-9.27715
▁creation	-9.27726
▁response	-9.27775
▁previous	-9.27849
▁latest	-9.27914
▁opportunities	-9.28104
▁shows	-9.28274
▁2005	-9.28318
▁prepared	-9.28333
®	-9.28427
▁possibility	-9.28461
▁carri	-9.28484
▁levels	-9.28486
▁external	-9.28651
▁behind	-9.28661
▁depend	-9.28719
▁register	-9.28778
▁enlargement	-9.28792
▁speed	-9.28792
▁considered	-9.28815
▁came	-9.28921
▁Central	-9.28922
▁Spain	-9.28997
▁begin	-9.29035
▁effects	-9.29038
▁summer	-9.29166
▁note	-9.29219
▁R	-9.29434
▁sustainabl	-9.29573
▁study	-9.2963
▁clean	-9.29729
▁matters	-9.29826
▁reports	-9.29842
▁thanks	-9.29871
▁capacity	-9.29996
▁providing	-9.30056
▁atmosphere	-9.30089
▁serve	-9.30092
▁contain	-9.302
▁easily	-9.3034
▁submitted	-9.30364
▁popular	-9.30369
▁accommodation	-9.30461
▁talk	-9.30566
▁materials	-9.30689
▁decided	-9.30816
▁age	-9.30922
▁video	-9.31079
▁coming	-9.31174
▁table	-9.31197
▁men	-9.31201
▁combat	-9.31281
▁construction	-9.31325
▁rest	-9.31332
▁civil	-9.31369
▁V	-9.31443
▁cause	-9.31466
▁p	-9.31475
▁leave	-9.31518
▁consumer	-9.31525
▁supply	-9.31644
▁St	-9.31673
▁priority	-9.31756
▁island	-9.31759
▁display	-9.3176
▁Do	-9.31904
▁operation	-9.31928
▁U	-9.31993
▁rates	-9.3208
▁press	-9.32085
▁Of	-9.3215
▁encourage	-9.32176
5	-9.32414
▁F	-9.32496
▁expect	-9.32565
▁Italy	-9.32616
▁practical	-9.32813
▁Convention	-9.32832
▁test	-9.32878
3	-9.33087
▁distance	-9.33128
▁19	-9.33222
▁September	-9.33236
▁details	-9.33252
▁December	-9.33346
▁funding	-9.33404
▁Africa	-9.33512
▁closed	-9.33515
▁2004	-9.33626
▁billion	-9.33643
▁safe	-9.33693
▁movement	-9.33704
▁credit	-9.33876
▁charge	-9.33947
▁hold	-9.34036
▁contribute	-9.34042
$	-9.34182
▁purpose	-9.34433
▁assistance	-9.3463
▁Dur	-9.34726
▁property	-9.34785
▁di	-9.35076
▁class	-9.35306
▁limited	-9.35391
▁perform	-9.35466
▁March	-9.35479
▁First	-9.35502
▁stress	-9.3561
in	-9.35691
▁don	-9.35703
▁source	-9.35942
▁creating	-9.36043
▁nice	-9.36092
▁categories	-9.36193
▁relevant	-9.3638
▁discussion	-9.36415
▁brought	-9.3659
▁actions	-9.36662
▁historical	-9.36774
▁40	-9.36836
▁message	-9.3687
▁General	-9.36908
▁man	-9.36915
▁conference	-9.36977
▁largest	-9.36978
ally	-9.37147
▁produced	-9.37166
▁January	-9.37349
▁gives	-9.3736
ll	-9.37395
▁reduction	-9.37853
▁supported	-9.37855
▁bus	-9.37895
▁six	-9.379
▁Bank	-9.37973
▁item	-9.38312
▁variety	-9.38315
▁sites	-9.38406
▁regulations	-9.38439
▁Service	-9.38478
▁efficient	-9.38594
▁save	-9.38818
▁UN	-9.38851
▁Republic	-9.38875
▁Italian	-9.38905
▁instead	-9.38947
▁thousand	-9.38951
▁October	-9.39058
▁became	-9.39219
▁Mediterranean	-9.39258
▁stability	-9.39374
▁concept	-9.39402
▁partner	-9.39473
▁fishing	-9.39583
▁obvious	-9.39635
▁month	-9.39735
▁contribution	-9.39809
▁school	-9.39957
▁task	-9.39968
▁2003	-9.40062
▁code	-9.40305
▁forms	-9.40517
▁rich	-9.40626
▁British	-9.40662
▁interesting	-9.40854
▁Today	-9.40866
▁medium	-9.40873
▁review	-9.40873
4	-9.40904
▁c	-9.40909
▁San	-9.41065
▁tool	-9.41149
▁activity	-9.41167
▁relation	-9.41202
▁draft	-9.41459
ism	-9.41504
▁labour	-9.41552
▁National	-9.41553
▁started	-9.41805
▁conduct	-9.41819
▁intend	-9.41969
▁alternative	-9.41982
▁effort	-9.41986
▁statement	-9.42035
▁Minister	-9.42075
▁conflict	-9.42077
▁status	-9.42258
▁option	-9.42617
▁apartment	-9.42645
▁giving	-9.42662
▁written	-9.42665
c	-9.42778
▁board	-9.42874
▁criteria	-9.42935
▁procedures	-9.42985
▁equal	-9.43106
▁operate	-9.43253
▁hotels	-9.43266
▁ourselves	-9.43302
▁der	-9.43383
▁provisions	-9.43456
▁allowed	-9.43476
▁airport	-9.43501
▁refer	-9.43628
▁violence	-9.4365
nalysis	-9.43703
▁steps	-9.43843
▁Spanish	-9.43873
▁reading	-9.44014
▁instruments	-9.44018
▁section	-9.44273
▁places	-9.4437
▁require	-9.44394
▁July	-9.44396
▁exact	-9.44645
▁distribution	-9.44728
▁word	-9.44848
▁influence	-9.4486
▁village	-9.44931
▁download	-9.45071
а	-9.45356
▁documents	-9.45453
▁North	-9.45532
▁wine	-9.45549
▁led	-9.45592
▁payment	-9.45649
▁nor	-9.45717
▁co	-9.45744
▁restaurants	-9.45773
▁base	-9.45908
▁stand	-9.4598
▁agenda	-9.46011
▁2001	-9.46038
▁transparency	-9.46068
▁integrated	-9.46087
▁film	-9.46096
▁Many	-9.461
ic	-9.4611
▁waste	-9.46178
▁die	-9.46259
▁digital	-9.46617
▁useful	-9.46687
▁drive	-9.46719
▁000	-9.46724
▁immediately	-9.46815
▁ground	-9.4688
▁congratulate	-9.46997
▁anti	-9.4721
€	-9.4722
▁DE	-9.47291
▁death	-9.47311
▁employees	-9.47458
▁legislative	-9.47495
▁21	-9.47571
▁pre	-9.47646
▁Although	-9.47699
▁introduce	-9.47718
▁numerous	-9.47719
▁finally	-9.47725
▁mention	-9.47781
▁elements	-9.47792
▁Rights	-9.47793
▁applied	-9.478
▁Furthermor	-9.47814
▁growing	-9.47923
▁benefits	-9.47981
▁broad	-9.48123
▁poor	-9.48195
▁November	-9.48418
▁types	-9.48456
▁draw	-9.48462
▁solidarity	-9.48635
▁transfer	-9.48755
▁sufficient	-9.48803
▁official	-9.48823
▁firm	-9.48845
▁processes	-9.48924
▁affect	-9.4895
▁poverty	-9.48982
▁daily	-9.4904
▁reality	-9.49051
▁N	-9.49177
▁paid	-9.492
▁elections	-9.49249
▁Windows	-9.49275
▁crucial	-9.49379
▁Your	-9.49652
▁quiet	-9.49717
▁round	-9.49785
▁fall	-9.49793
{	-9.49829
▁extra	-9.49942
▁reference	-9.49979
▁build	-9.50072
▁comprehensive	-9.5014
▁challenges	-9.50189
▁late	-9.50361
▁mobile	-9.50435
▁ten	-9.5044
k	-9.50506
▁colleagues	-9.50654
▁tools	-9.50781
▁separate	-9.5092
▁camera	-9.50953
▁beyond	-9.51027
▁saying	-9.51138
▁gas	-9.51206
▁friends	-9.51213
▁del	-9.51259
▁launch	-9.5137
▁machine	-9.51445
▁regime	-9.51446
▁offering	-9.51555
▁goes	-9.51575
е	-9.516
as	-9.51822
▁challenge	-9.51909
▁April	-9.52005
▁relate	-9.52096
▁Development	-9.5219
▁tomorrow	-9.52199
▁b	-9.52213
▁happy	-9.52333
▁train	-9.52384
▁park	-9.52421
▁implemented	-9.52456
▁server	-9.52476
▁relat	-9.52534
▁terrorism	-9.52542
▁2002	-9.52565
▁bit	-9.52575
▁illegal	-9.5261
▁minimum	-9.52651
▁exist	-9.52683
▁instrument	-9.527
▁grant	-9.5272
▁efficiency	-9.52912
▁recommendation	-9.52948
▁mountain	-9.52955
▁apartments	-9.53056
▁implement	-9.53082
▁Euro	-9.53334
▁Party	-9.53416
▁operating	-9.53531
▁requires	-9.53539
▁correct	-9.53556
▁organisations	-9.5361
▁love	-9.53676
▁worth	-9.53752
▁learn	-9.53877
▁historic	-9.53908
▁ways	-9.53967
▁lower	-9.54106
▁monitoring	-9.54131
▁Directive	-9.54185
▁Park	-9.54214
▁respond	-9.54294
▁published	-9.54462
▁infrastructure	-9.54554
▁sent	-9.54573
▁persons	-9.54576
▁X	-9.54649
▁ideas	-9.54816
▁green	-9.54817
▁sales	-9.55017
▁ready	-9.55043
▁offered	-9.55052
▁starting	-9.55056
▁maximum	-9.55196
▁target	-9.55227
▁sometimes	-9.55522
▁cut	-9.55561
▁explain	-9.55619
▁thought	-9.5566
▁Even	-9.55661
▁accession	-9.55694
▁contract	-9.5576
▁selection	-9.55787
▁fine	-9.55866
▁links	-9.55891
▁scale	-9.55924
▁pass	-9.55985
▁forces	-9.56003
▁clients	-9.56146
▁morning	-9.56311
▁secure	-9.56405
▁Western	-9.56408
▁method	-9.56492
▁caused	-9.5655
▁weeks	-9.56619
▁accordanc	-9.5662
▁farmers	-9.57047
▁Thank	-9.57095
▁release	-9.57224
▁child	-9.57369
▁technologies	-9.57374
▁voting	-9.57478
▁extent	-9.57602
▁anything	-9.57603
▁campaign	-9.57701
▁limit	-9.57915
▁doubt	-9.57938
▁parking	-9.57976
▁sports	-9.58016
▁typical	-9.5808
▁probably	-9.581
▁chance	-9.58128
▁While	-9.58144
▁garden	-9.5815
▁scientific	-9.5828
▁rapid	-9.58285
▁Israel	-9.58297
▁assessment	-9.58368
▁advantage	-9.58368
▁vital	-9.584
▁worldwide	-9.58412
▁innovative	-9.58515
▁lines	-9.58696
▁got	-9.58776
▁lives	-9.5882
▁options	-9.58835
▁players	-9.58887
▁Austria	-9.58996
▁select	-9.59047
▁bathroom	-9.59161
▁comfort	-9.59241
te	-9.59317
▁Fund	-9.59349
▁shopping	-9.59416
▁interested	-9.59452
▁IT	-9.59534
▁Web	-9.59661
▁methods	-9.59775
▁head	-9.59791
ve	-9.59897
▁introduc	-9.60177
▁fund	-9.60274
▁appear	-9.60392
▁businesses	-9.60419
▁bad	-9.60513
▁bed	-9.60601
▁seek	-9.61077
▁street	-9.61077
▁Paris	-9.61096
▁annual	-9.611
▁email	-9.61318
▁visitors	-9.61447
▁West	-9.61537
▁languages	-9.61633
▁raised	-9.61643
▁Ireland	-9.62003
ion	-9.6202
▁strategic	-9.62096
▁absolutely	-9.62261
▁hour	-9.62268
▁swimming	-9.62274
▁Conference	-9.62344
▁minute	-9.6236
▁innovation	-9.62371
▁lost	-9.62388
▁extensive	-9.62581
▁genuine	-9.62592
▁60	-9.62717
▁highlight	-9.6278
▁accepted	-9.62788
to	-9.62948
less	-9.63008
ability	-9.63031
▁reflect	-9.63264
▁urgent	-9.63267
▁1999	-9.6329
▁Russian	-9.63384
▁Chinese	-9.63403
▁trying	-9.63548
▁www	-9.63556
▁fast	-9.6381
▁deliver	-9.63827
▁menu	-9.63896
▁player	-9.63925
▁namely	-9.64027
▁initial	-9.64132
▁alone	-9.64277
▁City	-9.64406
▁Moreover	-9.64501
▁overall	-9.64534
▁sort	-9.64553
▁22	-9.64619
▁sectors	-9.64623
▁images	-9.64662
▁fresh	-9.64809
▁yourself	-9.6488
▁relationship	-9.64883
p	-9.64923
▁processing	-9.65043
▁reserve	-9.65088
▁representatives	-9.65142
▁demands	-9.65221
▁games	-9.65242
▁Centre	-9.65275
▁critical	-9.65438
▁ensur	-9.65445
▁remember	-9.65471
▁white	-9.65517
▁borders	-9.65705
▁changed	-9.65853
▁photo	-9.65919
▁season	-9.65982
▁tourist	-9.66031
▁proper	-9.66106
▁expressed	-9.66217
▁wanted	-9.66232
▁Room	-9.66305
▁committed	-9.66375
▁running	-9.6642
▁despit	-9.66649
▁goal	-9.6674
▁heard	-9.66838
▁More	-9.66871
▁powers	-9.66938
▁traffic	-9.66992
▁plant	-9.67025
▁terrace	-9.67046
▁rise	-9.6712
▁met	-9.67158
▁approved	-9.67201
▁talking	-9.6722
▁fields	-9.67294
▁0	-9.67296
▁decide	-9.67327
▁wrong	-9.67497
▁cities	-9.67506
▁University	-9.67529
▁leaders	-9.67592
▁confidence	-9.67655
▁combine	-9.67671
▁initiatives	-9.6776
▁conclusion	-9.67783
▁feature	-9.67836
▁guide	-9.67871
▁cohesion	-9.67942
▁inform	-9.6796
▁planning	-9.67968
▁De	-9.67983
▁mainly	-9.68009
▁Only	-9.68045
▁remind	-9.68137
▁London	-9.68339
▁fish	-9.68387
▁phone	-9.68423
▁opening	-9.68528
▁walking	-9.68606
▁purchase	-9.68675
▁affected	-9.68706
le	-9.68946
▁involve	-9.68979
▁ability	-9.68989
▁justice	-9.691
▁GmbH	-9.69165
▁structural	-9.69173
▁automatically	-9.69227
▁families	-9.69272
▁obtain	-9.69277
▁People	-9.69295
▁currency	-9.69319
▁Public	-9.69395
▁II	-9.69427
▁23	-9.69442
▁administration	-9.6945
▁delivery	-9.69519
▁plans	-9.69666
▁electronic	-9.69745
▁calls	-9.69816
▁circumstances	-9.69851
▁collection	-9.69864
▁suitable	-9.69905
▁adapt	-9.70108
▁strict	-9.7015
▁comments	-9.70201
▁competitive	-9.70232
▁fill	-9.70495
▁priorities	-9.7051
▁reduced	-9.70553
▁whom	-9.70616
▁export	-9.70691
▁Not	-9.70855
▁powerful	-9.70863
▁usually	-9.71051
ia	-9.71061
▁scope	-9.71072
▁manner	-9.71092
▁Le	-9.71156
▁raise	-9.71173
▁crime	-9.71224
de	-9.71296
▁banks	-9.71315
▁Security	-9.71315
▁She	-9.71504
▁warm	-9.71634
▁evening	-9.71636
▁ski	-9.71666
▁fellow	-9.71718
▁unfortunate	-9.71807
▁south	-9.71876
▁began	-9.71919
▁convince	-9.71932
▁Sea	-9.71938
▁Palestinian	-9.71994
▁High	-9.7208
▁emissions	-9.72272
▁participation	-9.72272
▁Iraq	-9.72304
▁students	-9.72469
▁victims	-9.72493
▁installation	-9.72558
▁trust	-9.72568
▁police	-9.72569
▁unemployment	-9.72621
▁helpful	-9.72652
▁UK	-9.72656
▁tabled	-9.72684
▁Bar	-9.72707
▁motion	-9.72824
▁mere	-9.73051
▁record	-9.73069
▁agriculture	-9.73087
▁specifically	-9.73158
▁sitting	-9.73259
▁debt	-9.73516
▁worked	-9.73556
▁partnership	-9.73584
▁War	-9.73665
▁Nations	-9.73668
▁200	-9.73742
▁spend	-9.73837
▁client	-9.73859
▁effectively	-9.73869
C	-9.73981
▁Each	-9.74005
▁reforms	-9.7407
▁else	-9.74117
▁Inde	-9.74167
▁measure	-9.74272
▁detailed	-9.74352
▁al	-9.74464
▁27	-9.74571
▁exercise	-9.74597
▁referred	-9.74655
▁hundred	-9.74666
▁larger	-9.74707
▁speaking	-9.7474
▁wonderful	-9.74767
▁attack	-9.74956
▁port	-9.75001
▁session	-9.75089
▁print	-9.75168
▁Free	-9.75181
▁rural	-9.75452
▁animals	-9.75498
▁Just	-9.75669
▁permanent	-9.75841
▁sources	-9.75851
▁Also	-9.75943
▁served	-9.75962
▁instance	-9.75997
▁According	-9.76057
▁managed	-9.76213
▁sign	-9.76238
▁Star	-9.76238
▁precisely	-9.7629
▁becoming	-9.76357
▁discussed	-9.765
▁budgetary	-9.7651
и	-9.7655
▁Other	-9.76567
▁AG	-9.76607
▁getting	-9.76653
▁won	-9.76723
▁speech	-9.76742
▁God	-9.76897
▁purposes	-9.7697
▁entry	-9.76978
▁regular	-9.77023
▁failure	-9.77097
▁J	-9.77122
▁dealing	-9.77151
▁lies	-9.77212
▁medical	-9.77241
▁tour	-9.77372
▁recommend	-9.77608
▁administrative	-9.77609
▁February	-9.77611
▁introduction	-9.7765
▁selected	-9.77712
▁August	-9.77915
▁happen	-9.78039
▁Agreement	-9.78185
▁India	-9.7824
man	-9.78245
▁enterprises	-9.78381
▁otherwise	-9.78397
▁functions	-9.78506
▁Why	-9.78526
▁unit	-9.78607
▁screen	-9.78732
▁bank	-9.78735
▁kitchen	-9.7875
▁80	-9.78843
▁founded	-9.78871
▁earlier	-9.78889
▁degree	-9.78917
▁guidelines	-9.78932
▁peaceful	-9.78933
▁spirit	-9.78937
▁Japan	-9.79098
▁track	-9.79148
▁relative	-9.79283
▁discussions	-9.7933
▁discrimination	-9.794
▁exclusive	-9.79406
▁His	-9.79454
▁Czech	-9.79585
▁winter	-9.79593
▁provision	-9.79767
▁hear	-9.80037
▁metres	-9.80064
▁manage	-9.80149
▁buy	-9.80156
▁Switzerland	-9.80197
▁loss	-9.80216
▁fun	-9.80287
▁immigration	-9.80424
▁pleasant	-9.80574
▁improving	-9.80655
▁institutional	-9.80799
▁followed	-9.80804
f	-9.80929
▁inside	-9.80993
▁telephone	-9.81042
▁laws	-9.81076
▁defined	-9.81238
▁actual	-9.81264
▁Christian	-9.81273
▁considerable	-9.81427
▁paper	-9.81476
▁duty	-9.81493
▁Middle	-9.81586
▁animal	-9.81648
▁income	-9.81697
▁voice	-9.81715
▁tourism	-9.81744
▁Human	-9.81745
▁risks	-9.81754
▁brand	-9.81841
▁red	-9.81956
▁deep	-9.821
▁understanding	-9.82124
▁Can	-9.82167
▁Last	-9.82258
▁expected	-9.82277
▁character	-9.82326
▁Then	-9.82346
▁que	-9.8238
▁Barcelona	-9.82514
▁presence	-9.82609
▁Greece	-9.82804
▁path	-9.82907
▁programs	-9.82933
▁Asia	-9.82981
▁components	-9.83051
▁des	-9.83125
▁operations	-9.83125
▁average	-9.8318
▁extend	-9.832
▁Click	-9.83215
▁Most	-9.8323
ar	-9.83234
is	-9.83238
▁slow	-9.83264
▁says	-9.83287
ment	-9.83321
▁Policy	-9.83418
▁impose	-9.83469
▁summit	-9.83495
▁Swiss	-9.83516
▁origin	-9.83549
▁facing	-9.83556
▁fisheries	-9.83573
▁normal	-9.83687
▁presidency	-9.83783
▁picture	-9.83888
self	-9.83929
▁experts	-9.84012
▁properly	-9.84015
▁hot	-9.84192
▁prior	-9.84194
▁coordination	-9.84223
▁map	-9.84236
▁organisation	-9.84258
▁Social	-9.84391
▁element	-9.84421
▁definition	-9.84446
▁cheap	-9.84531
▁competitiveness	-9.84724
▁Economic	-9.84751
▁shape	-9.84878
▁detail	-9.84938
▁install	-9.8495
▁born	-9.84958
▁difficulties	-9.85014
▁networks	-9.85069
▁gave	-9.85101
▁playing	-9.85148
▁paragraph	-9.85284
▁Poland	-9.85328
▁format	-9.85344
▁l	-9.85345
▁y	-9.85386
▁financing	-9.85441
▁authority	-9.85454
▁Because	-9.85484
▁solve	-9.85523
▁buildings	-9.85596
▁argument	-9.8566
▁Brussels	-9.85685
▁consideration	-9.85748
▁modified	-9.85752
gt	-9.85755
▁Be	-9.85827
▁resort	-9.86083
▁supporting	-9.86093
ch	-9.86232
▁went	-9.86262
▁elegant	-9.86432
▁spacious	-9.86461
▁Airport	-9.86477
▁comment	-9.86559
▁Unfortunately	-9.86562
▁applies	-9.86563
▁generally	-9.86581
▁competence	-9.8665
▁plants	-9.86671
▁criminal	-9.86713
▁news	-9.87012
▁district	-9.87019
▁Iran	-9.87047
▁consistent	-9.87085
▁items	-9.87125
▁tradition	-9.87136
▁aspect	-9.87189
▁forget	-9.87207
▁discover	-9.8721
os	-9.87492
▁fear	-9.87638
▁brief	-9.87676
▁marketing	-9.87698
▁intervention	-9.8776
▁informed	-9.87832
▁fixed	-9.87975
▁establishment	-9.87977
▁Rooms	-9.88087
▁defence	-9.88144
▁vehicles	-9.88166
▁domestic	-9.88224
▁estate	-9.88233
ce	-9.88304
▁multi	-9.88306
▁USA	-9.88317
▁shower	-9.88356
▁black	-9.88472
▁machines	-9.88566
▁flexibility	-9.88618
▁likely	-9.88663
▁color	-9.88668
▁flexible	-9.88684
▁o	-9.88739
▁emphasis	-9.88798
▁Once	-9.8883
▁El	-9.88918
▁database	-9.88955
▁succeed	-9.88961
▁generation	-9.88975
▁supports	-9.89059
▁cuisine	-9.8911
or	-9.89228
▁tru	-9.89284
▁bodies	-9.8929
▁sport	-9.89352
▁factor	-9.89357
▁coffee	-9.8939
▁sun	-9.89429
▁negative	-9.89559
▁500	-9.89585
▁touch	-9.89612
▁conclude	-9.89647
▁Amsterdam	-9.89705
▁enormous	-9.89884
▁translation	-9.89937
▁thinking	-9.90192
▁promoting	-9.90198
▁easier	-9.90229
▁north	-9.90299
▁developments	-9.90315
▁signed	-9.90324
▁African	-9.9034
▁temperature	-9.90363
▁myself	-9.90385
▁assist	-9.90464
▁evidence	-9.90558
▁beds	-9.90606
▁claim	-9.90651
▁threat	-9.90713
▁wants	-9.90715
▁concrete	-9.90718
▁shops	-9.90842
▁connected	-9.90847
▁relax	-9.91142
▁Great	-9.91197
▁ancient	-9.91396
▁reception	-9.91565
▁exhibition	-9.91606
▁adoption	-9.91633
▁politics	-9.91688
▁advanced	-9.91691
▁humanitarian	-9.91694
▁meetings	-9.91773
▁seriously	-9.9181
▁combination	-9.91875
▁dangerous	-9.91924
▁parliamentar	-9.92113
▁adequate	-9.92135
▁propose	-9.92177
▁difference	-9.92246
na	-9.92311
▁Debian	-9.92334
▁Every	-9.92363
▁ultimate	-9.92374
▁length	-9.92474
▁Linux	-9.92484
▁experienced	-9.92508
▁told	-9.92509
▁opposition	-9.9261
▁television	-9.92979
▁promotion	-9.93039
▁safeguard	-9.93072
▁carefully	-9.93091
▁middle	-9.93101
▁Firstly	-9.93151
▁attractive	-9.93162
b	-9.93236
▁article	-9.93343
▁CD	-9.93481
▁virtual	-9.93489
▁reservation	-9.9349
▁practices	-9.93505
▁Green	-9.9351
▁trip	-9.9352
▁invest	-9.93539
▁implementing	-9.93554
▁differences	-9.93618
▁happened	-9.93698
▁leader	-9.93722
▁anyone	-9.93743
▁reducing	-9.93744
▁architecture	-9.93778
▁improvement	-9.93827
▁Due	-9.93961
▁stable	-9.94001
▁ahead	-9.94031
▁studies	-9.94034
▁producers	-9.94067
▁York	-9.94095
▁sole	-9.94158
▁recognition	-9.94173
▁hands	-9.94205
▁agencies	-9.94345
▁beaches	-9.94348
▁feeling	-9.94436
▁Budget	-9.94548
▁Kingdom	-9.94564
▁advance	-9.94646
▁Board	-9.94886
▁et	-9.9489
▁immediate	-9.94903
▁availability	-9.94949
▁impossible	-9.95035
▁consultation	-9.95119
▁physical	-9.95192
▁surround	-9.95198
▁Dr	-9.95271
▁described	-9.9534
▁emphasise	-9.95415
▁spent	-9.95435
isation	-9.95481
▁appears	-9.95529
▁membership	-9.95544
▁participate	-9.95573
▁el	-9.95576
▁object	-9.95595
▁possibilities	-9.95635
▁box	-9.95703
▁stock	-9.95752
▁desire	-9.95754
▁trading	-9.95756
▁unacceptable	-9.95877
▁wishes	-9.95903
▁becomes	-9.95938
▁released	-9.95987
▁statements	-9.95991
▁Booking	-9.96087
▁background	-9.96111
▁surface	-9.96157
▁bear	-9.9621
G	-9.96335
▁Greek	-9.96365
▁shared	-9.96537
▁transparent	-9.96546
▁valid	-9.96553
▁territory	-9.9662
▁button	-9.96904
▁models	-9.96917
▁houses	-9.96942
▁confirm	-9.97014
▁Justice	-9.97054
▁Services	-9.97075
▁religious	-9.97078
▁consumption	-9.97085
▁calling	-9.97086
▁door	-9.97252
▁reasonable	-9.97253
▁charged	-9.97278
▁Research	-9.97337
▁300	-9.97477
▁arrival	-9.97587
▁insurance	-9.97635
▁Irish	-9.97746
▁unless	-9.97844
▁indicate	-9.97861
▁import	-9.97875
▁Business	-9.97956
▁fire	-9.97966
▁sale	-9.98007
▁surrounding	-9.9809
▁26	-9.98141
▁break	-9.98206
▁monetary	-9.98219
▁condition	-9.98238
▁notice	-9.9824
▁coast	-9.9829
▁figures	-9.98323
▁profit	-9.98394
▁pictures	-9.98449
▁platform	-9.9848
▁con	-9.98503
▁Turkish	-9.98524
▁core	-9.98555
▁continued	-9.98621
▁learning	-9.98624
▁urge	-9.98705
▁Museum	-9.98724
▁ban	-9.98887
▁recognise	-9.98928
▁Democrats	-9.99019
▁completed	-9.99021
▁attitude	-9.99024
▁devices	-9.99057
▁booking	-9.99073
▁closer	-9.99121
B	-9.99177
▁guarantees	-9.9919
▁shop	-9.9919
▁entitled	-9.99199
▁square	-9.99238
▁court	-9.99303
▁strongly	-9.99313
V	-9.9932
▁beauty	-9.99359
▁sensitive	-9.9949
▁28	-9.99499
tended	-9.99519
▁perspective	-9.99587
▁Health	-9.99716
▁tasks	-9.99724
▁license	-9.99735
▁Red	-9.99814
▁election	-9.99844
▁kept	-9.99903
▁du	-9.99973
▁river	-9.99982
▁nearby	-10.0007
▁skills	-10.0019
▁WTO	-10.0027
▁cards	-10.0036
▁Ukraine	-10.0038
▁dedicated	-10.004
▁asylum	-10.0045
▁Are	-10.0046
▁title	-10.0052
▁mission	-10.0061
▁installed	-10.0061
▁demonstrate	-10.0081
▁Or	-10.0085
▁gain	-10.009
▁1998	-10.0092
▁reliable	-10.0096
▁expenditure	-10.0101
ist	-10.0104
é	-10.0114
▁70	-10.0115
▁railway	-10.0117
▁device	-10.0119
▁window	-10.0128
▁signal	-10.0129
▁positions	-10.0135
▁Prime	-10.0135
▁drawn	-10.0143
▁90	-10.0146
▁Kosovo	-10.0148
▁Nevertheless	-10.0148
▁meters	-10.0163
▁storage	-10.0174
▁packages	-10.0188
▁le	-10.0188
▁relaxing	-10.0191
▁associat	-10.0192
▁enables	-10.0197
▁advertising	-10.0201
▁advice	-10.0204
▁Another	-10.0212
▁Guest	-10.0217
▁pure	-10.0221
it	-10.0225
▁landscape	-10.0231
▁appeal	-10.0231
▁phase	-10.0233
▁numbers	-10.0243
▁finance	-10.0261
▁exceptional	-10.0262
▁moving	-10.0273
▁disease	-10.0275
▁Such	-10.0275
▁bath	-10.0278
▁science	-10.0285
▁corporate	-10.0296
▁institution	-10.0298
▁extended	-10.0301
▁foot	-10.0307
▁totally	-10.0312
▁Z	-10.0335
▁interface	-10.0336
▁biggest	-10.0336
▁memory	-10.0336
▁f	-10.0337
▁strength	-10.0344
▁contrar	-10.0344
▁cars	-10.0344
ver	-10.0352
▁forced	-10.0354
▁manufacture	-10.0357
▁Eastern	-10.036
▁union	-10.0368
▁suite	-10.0369
▁engine	-10.037
▁candidate	-10.0377
▁Trade	-10.0381
▁quick	-10.0381
▁Austrian	-10.0383
▁vehicle	-10.0393
▁expression	-10.0396
▁claims	-10.0407
▁Netherlands	-10.0414
▁Restaurant	-10.0417
▁attractions	-10.0417
▁mass	-10.0418
▁PC	-10.0423
▁01	-10.0427
▁route	-10.0429
▁passed	-10.0432
▁economies	-10.0436
▁failed	-10.0443
▁chosen	-10.0448
▁fit	-10.0457
▁Third	-10.0458
▁Regulation	-10.0473
▁flight	-10.0473
▁31	-10.0476
▁listen	-10.0477
▁update	-10.0479
▁Vienna	-10.0479
▁System	-10.048
▁colleague	-10.049
▁EC	-10.0492
▁unable	-10.0494
▁outcome	-10.0495
▁continues	-10.0498
▁church	-10.0499
▁maintenance	-10.0507
▁conclusions	-10.0508
▁unto	-10.0508
▁Constitution	-10.0509
▁stands	-10.0514
▁evaluation	-10.0521
▁Information	-10.0528
▁names	-10.0533
▁laid	-10.0534
E	-10.0539
▁defend	-10.0548
▁Club	-10.0552
▁ambitious	-10.0555
▁pleasure	-10.0565
▁saw	-10.057
▁vision	-10.0574
▁Foreign	-10.0575
▁spending	-10.0577
▁Association	-10.0589
▁neither	-10.0591
▁tried	-10.0595
▁Portugal	-10.0598
▁push	-10.06
▁weight	-10.0602
▁delay	-10.0606
▁holidays	-10.0608
▁Thus	-10.0609
▁Management	-10.0611
▁radio	-10.0612
▁changing	-10.0615
honourable	-10.0621
▁remove	-10.0624
▁g	-10.0627
▁registration	-10.0639
▁race	-10.0643
▁Grand	-10.0645
▁agency	-10.0646
▁organis	-10.0655
▁von	-10.0664
▁artists	-10.067
▁weapons	-10.0674
▁luxury	-10.0674
▁organization	-10.0674
▁Open	-10.0675
▁aircraft	-10.0676
▁count	-10.0679
▁perfectly	-10.0689
▁monitor	-10.0694
▁factors	-10.0695
▁assess	-10.0705
▁outstanding	-10.0708
▁constantly	-10.0718
▁story	-10.0719
▁yesterday	-10.0722
▁Yet	-10.0746
▁approximately	-10.0746
▁continuous	-10.0748
▁courses	-10.0761
▁seven	-10.0769
▁command	-10.0784
▁criticism	-10.079
▁glass	-10.0803
▁identify	-10.0807
▁continuing	-10.0809
▁binding	-10.081
▁combin	-10.081
▁equality	-10.0822
▁obligations	-10.085
▁mountains	-10.0851
▁uses	-10.0854
▁visa	-10.0854
▁reject	-10.0857
▁sides	-10.0861
▁invite	-10.0867
▁independence	-10.087
▁meaning	-10.0872
▁buffet	-10.0875
▁lake	-10.089
ry	-10.0891
▁accessible	-10.0893
▁commitments	-10.0905
▁dynamic	-10.0907
▁compar	-10.0908
▁comply	-10.0911
▁category	-10.0926
▁successfully	-10.0927
▁individuals	-10.0934
▁fiscal	-10.0939
▁mechanism	-10.094
▁prevention	-10.0941
ra	-10.0946
▁x	-10.095
▁limits	-10.0951
▁Center	-10.0957
M	-10.0957
▁Art	-10.0965
no	-10.0971
▁prepare	-10.0975
▁payments	-10.0985
side	-10.0988
▁abuse	-10.0988
▁wood	-10.099
▁author	-10.0998
▁species	-10.0999
▁Lake	-10.1001
▁29	-10.1003
▁zone	-10.1012
▁Any	-10.1012
▁disposal	-10.1023
▁govern	-10.1027
▁write	-10.1029
▁surprise	-10.1033
▁Locat	-10.1045
▁someone	-10.1049
▁planned	-10.1059
▁fuel	-10.106
▁Latin	-10.1063
▁journey	-10.1065
▁attend	-10.1068
▁patent	-10.1069
▁determine	-10.1074
▁spread	-10.1074
▁Those	-10.1076
▁spa	-10.1077
▁golf	-10.1098
▁wealth	-10.1104
▁Summit	-10.1113
▁sand	-10.1117
▁dimension	-10.1121
▁condemn	-10.1123
▁putting	-10.1124
▁suggestion	-10.113
▁furnished	-10.114
▁Both	-10.1146
▁participants	-10.1148
▁communities	-10.1148
▁regret	-10.115
espite	-10.1164
▁satellite	-10.1172
▁ship	-10.1177
▁letter	-10.1186
▁subsequent	-10.1187
▁consists	-10.1191
▁asking	-10.1192
▁couple	-10.1206
▁controls	-10.1206
▁capable	-10.1207
ought	-10.1219
▁guaranteed	-10.1221
▁waiting	-10.1232
▁1997	-10.1234
▁goals	-10.1236
▁contemporar	-10.1243
▁steel	-10.1246
▁club	-10.1254
▁acceptable	-10.1261
▁host	-10.1261
▁glad	-10.1264
▁compliance	-10.1266
▁substantial	-10.1273
▁responsibiliti	-10.1275
▁Rome	-10.1279
▁collective	-10.1281
▁smaller	-10.1282
▁Its	-10.1283
▁targets	-10.1284
▁slight	-10.1287
ities	-10.1293
▁representative	-10.1296
▁wait	-10.1309
6	-10.131
▁association	-10.1311
▁Co	-10.1315
▁Federal	-10.132
▁seeking	-10.1331
▁Agency	-10.1337
▁Villa	-10.135
▁manufacturing	-10.136
ized	-10.136
▁retain	-10.1364
▁votes	-10.1365
▁35	-10.1376
▁Sweden	-10.1383
▁Rules	-10.14
▁bringing	-10.1409
▁identity	-10.1411
ne	-10.1424
▁default	-10.1425
▁Enjoy	-10.1426
▁rail	-10.1428
▁contextual	-10.1429
P	-10.1432
▁photos	-10.1445
▁formal	-10.1447
▁contents	-10.1451
▁piece	-10.146
▁lose	-10.1465
▁plus	-10.1469
▁consensus	-10.1476
▁qualified	-10.1481
▁sell	-10.1486
▁driving	-10.1491
▁multiple	-10.1492
▁acts	-10.1511
▁win	-10.1513
▁eye	-10.1517
▁fruit	-10.1523
▁southern	-10.1526
▁Pro	-10.1528
▁se	-10.1528
▁Environment	-10.1543
▁primary	-10.1547
▁governance	-10.1548
▁rent	-10.1548
▁liability	-10.155
▁Romania	-10.1564
▁grounds	-10.1582
T	-10.1587
um	-10.1606
▁n	-10.1609
▁primarily	-10.1611
▁nation	-10.1613
▁testing	-10.1615
▁determined	-10.1628
▁previously	-10.1634
▁watch	-10.1652
▁patients	-10.1653
ta	-10.1661
▁causes	-10.1662
▁TM	-10.1664
▁burden	-10.1666
▁skin	-10.167
▁industries	-10.1679
▁fashion	-10.168
▁renewable	-10.168
▁copy	-10.1687
▁store	-10.1689
▁impression	-10.1689
▁smoking	-10.169
▁treat	-10.1691
▁existence	-10.1691
▁leads	-10.1694
7	-10.1704
▁thereby	-10.1708
▁recovery	-10.1722
ka	-10.1722
▁continent	-10.1728
▁nations	-10.1739
▁intention	-10.1748
▁examine	-10.176
▁mutual	-10.1763
▁diversity	-10.1778
▁reply	-10.1781
▁opposite	-10.1782
el	-10.1785
▁pointed	-10.1792
▁Dutch	-10.1793
▁Thanks	-10.1799
▁Home	-10.18
▁DVD	-10.1805
▁Microsoft	-10.1805
▁Enterprise	-10.1809
▁taste	-10.181
▁noise	-10.1811
▁appreciate	-10.1813
▁decades	-10.1814
▁dealt	-10.1817
▁blue	-10.182
▁named	-10.1832
▁Question	-10.1833
▁audio	-10.1856
▁bars	-10.1859
▁attacks	-10.1862
▁negotiat	-10.1863
▁Chamber	-10.1869
▁mandate	-10.1883
▁mode	-10.1894
▁brings	-10.1898
▁Minutes	-10.1898
▁Re	-10.1907
▁approval	-10.1911
▁technological	-10.1919
▁THE	-10.1924
▁delivered	-10.1931
▁requested	-10.1935
▁father	-10.1939
▁keeping	-10.1947
▁discharge	-10.1958
▁Check	-10.1967
▁Software	-10.1969
▁manufacturers	-10.1979
▁net	-10.1984
▁obligation	-10.1999
▁presentation	-10.2
O	-10.2001
▁Roman	-10.2005
▁Find	-10.2009
▁treated	-10.2018
▁constructive	-10.202
▁Air	-10.2021
▁marked	-10.2023
▁flow	-10.2035
▁rock	-10.2037
▁stone	-10.2038
▁urban	-10.2039
▁constant	-10.204
▁Breakfast	-10.2041
▁Un	-10.2052
▁edge	-10.2059
▁except	-10.2061
▁enhance	-10.207
▁Two	-10.2075
▁Where	-10.2076
▁resolve	-10.2078
▁schools	-10.2078
▁ones	-10.2078
▁mid	-10.2088
land	-10.2092
K	-10.2094
▁onto	-10.2095
▁cycle	-10.2099
▁sold	-10.2116
▁bedroom	-10.2134
▁eight	-10.2136
▁Before	-10.2139
▁talks	-10.2152
▁spaces	-10.2154
▁expertise	-10.2158
et	-10.2171
▁leadership	-10.2171
▁compensation	-10.2177
▁mechanisms	-10.2179
▁destination	-10.2182
▁acknowledge	-10.2185
▁Market	-10.2205
▁achievement	-10.2212
▁repeat	-10.2213
▁Al	-10.2218
▁forest	-10.2228
▁prefer	-10.2229
▁residence	-10.2231
▁FR	-10.2232
▁Company	-10.2241
▁represented	-10.2243
▁browser	-10.2243
▁situations	-10.2243
▁Follow	-10.2247
▁speakers	-10.2248
▁Take	-10.2257
▁Over	-10.227
▁versions	-10.2275
▁extension	-10.2281
▁convenient	-10.2281
▁announc	-10.2299
▁improvements	-10.2306
▁dishes	-10.231
▁Very	-10.2311
▁heavy	-10.2313
▁fraud	-10.2315
▁valuable	-10.2317
▁soft	-10.2317
▁assume	-10.2319
▁expensive	-10.2319
▁sanctions	-10.232
▁cold	-10.2327
▁van	-10.2331
v	-10.2333
▁truth	-10.2338
▁kinds	-10.2339
▁moved	-10.2341
▁error	-10.2346
▁books	-10.2349
▁suffering	-10.2365
▁furniture	-10.2367
▁significantly	-10.2369
▁Note	-10.237
▁connect	-10.2371
▁trees	-10.2373
▁delegation	-10.2376
at	-10.2379
▁Programme	-10.2383
▁drugs	-10.24
▁secret	-10.2408
▁45	-10.2411
▁leisure	-10.2412
▁rejected	-10.2413
▁1996	-10.2418
▁charming	-10.242
▁1990	-10.2422
▁flat	-10.2423
▁recommended	-10.2423
▁boat	-10.2444
▁insist	-10.2445
▁privacy	-10.2445
▁arms	-10.2448
▁award	-10.2451
▁counter	-10.2454
ner	-10.2458
▁rare	-10.2463
▁engineering	-10.2463
▁produc	-10.2469
▁expectations	-10.2469
▁Energy	-10.2474
ie	-10.2484
▁Paper	-10.2488
▁fail	-10.249
▁disaster	-10.2492
▁investments	-10.2492
▁explore	-10.2492
net	-10.2498
▁wonder	-10.2502
▁proud	-10.2513
▁operators	-10.2525
▁collect	-10.2525
▁danger	-10.2528
▁older	-10.2528
▁suit	-10.2535
▁endorse	-10.2543
▁contrast	-10.2549
▁substances	-10.255
▁Use	-10.2552
▁Best	-10.2561
▁definite	-10.2562
▁figure	-10.2565
ably	-10.2566
▁See	-10.2571
▁edit	-10.2573
▁refugees	-10.2582
▁units	-10.2586
▁respective	-10.2595
men	-10.2597
▁rental	-10.2609
▁entertainment	-10.2609
▁applicable	-10.261
▁Rule	-10.2629
▁latter	-10.2633
▁band	-10.264
▁runs	-10.2655
▁whil	-10.2655
▁whatever	-10.2661
▁recognised	-10.2662
▁affairs	-10.2662
▁match	-10.2663
am	-10.2665
▁den	-10.2668
▁involving	-10.267
▁vast	-10.2675
▁impressive	-10.2682
▁helping	-10.2683
▁entered	-10.269
▁automatic	-10.2695
▁Munich	-10.27
▁felt	-10.2707
▁museum	-10.271
▁volume	-10.271
▁creative	-10.2713
▁examples	-10.2714
▁Under	-10.2716
8	-10.2725
▁exists	-10.2732
▁streets	-10.2739
▁chain	-10.2743
▁controll	-10.2746
▁Institute	-10.2749
▁objects	-10.2749
▁announce	-10.2751
▁handling	-10.276
▁facilitate	-10.2761
▁taxes	-10.2762
▁exclusively	-10.2772
▁sexual	-10.2773
▁colour	-10.2773
▁president	-10.2784
▁politicians	-10.2787
▁mobility	-10.2791
ton	-10.2798
temporary	-10.2802
▁wall	-10.2803
▁Google	-10.2805
▁personally	-10.2807
▁east	-10.2813
da	-10.2814
▁dinner	-10.2816
▁requests	-10.2816
▁description	-10.2822
▁naturally	-10.2823
▁arrangements	-10.2824
▁Private	-10.2825
▁advantages	-10.2831
▁tackle	-10.2831
▁sum	-10.2831
▁dining	-10.2836
▁conditioning	-10.284
▁occasion	-10.2845
▁articles	-10.2864
▁Charter	-10.2864
▁ethnic	-10.2869
▁teacher	-10.288
▁outdoor	-10.2888
▁happening	-10.2888
▁hostels	-10.289
w	-10.2894
▁Swedish	-10.2899
nd	-10.29
la	-10.2901
▁bedrooms	-10.2927
▁emerge	-10.2928
▁happens	-10.2934
▁finding	-10.2946
▁faced	-10.2947
▁confirmed	-10.2952
▁#	-10.2954
▁Control	-10.2956
N	-10.2957
▁Foundation	-10.2961
▁involvement	-10.2966
▁Welcome	-10.2968
▁discovered	-10.2969
▁universal	-10.2976
▁massive	-10.2979
▁blood	-10.2991
▁output	-10.2996
▁Lord	-10.2999
▁sets	-10.3006
▁fantastic	-10.3008
▁arise	-10.3008
ization	-10.3009
▁proof	-10.3009
ive	-10.3011
▁barrier	-10.3017
▁hit	-10.3017
▁websites	-10.3028
▁configuration	-10.3035
▁Car	-10.3037
▁pursue	-10.304
L	-10.3041
▁tests	-10.3042
▁Afghanistan	-10.3043
▁passengers	-10.3044
▁diseases	-10.3044
▁Safety	-10.3046
▁obtained	-10.3047
▁password	-10.3052
▁remote	-10.3052
▁realise	-10.3065
▁Ladi	-10.3065
▁fighting	-10.3074
▁treaty	-10.3077
▁spring	-10.3077
▁roll	-10.3078
▁weather	-10.3082
▁Global	-10.3084
▁liberalisation	-10.3093
▁preparation	-10.3094
▁Costa	-10.3096
▁attach	-10.3098
▁earth	-10.3098
▁hair	-10.3099
▁drink	-10.3104
▁CO	-10.3106
▁Like	-10.3116
▁describe	-10.3124
▁requirement	-10.3131
▁quota	-10.3136
▁thorough	-10.314
▁Data	-10.3152
▁wind	-10.3153
▁removed	-10.3154
▁Strategy	-10.3156
▁Procedure	-10.317
▁tours	-10.3172
▁strategies	-10.3181
▁leaving	-10.3186
▁experiences	-10.3186
F	-10.3193
▁accounts	-10.3195
▁Instead	-10.3198
▁Britain	-10.3202
ma	-10.3205
▁pick	-10.322
▁stations	-10.322
▁equally	-10.3233
▁organise	-10.3236
co	-10.3242
▁Spa	-10.3245
▁prove	-10.3246
▁River	-10.3258
▁Fi	-10.3267
▁replace	-10.3267
▁ticket	-10.3268
▁Old	-10.327
▁John	-10.3282
▁Nice	-10.3282
▁lift	-10.3286
▁Frankfurt	-10.3291
▁eventual	-10.3305
▁mark	-10.3319
▁Croatia	-10.3325
▁submit	-10.3329
▁covers	-10.3335
▁healthy	-10.3335
▁restrictions	-10.3344
▁NATO	-10.3348
▁clause	-10.3351
▁eyes	-10.3356
▁da	-10.3369
▁classic	-10.337
▁meat	-10.3375
▁representation	-10.3376
▁Ministers	-10.3377
▁precise	-10.3377
▁operational	-10.34
▁White	-10.3402
▁offices	-10.3403
▁abroad	-10.3413
▁cutting	-10.3422
▁Polish	-10.3423
▁150	-10.343
▁Time	-10.3434
▁excessive	-10.3439
▁grow	-10.3439
▁Well	-10.3442
▁Japanese	-10.3446
▁label	-10.3459
▁Their	-10.3461
▁Bulgaria	-10.3464
▁Special	-10.3467
▁Street	-10.347
▁characteristics	-10.3474
▁Roma	-10.348
▁maintained	-10.3482
ge	-10.3483
▁standing	-10.3491
▁Saint	-10.3499
li	-10.3499
▁pattern	-10.35
▁suffer	-10.3501
▁helped	-10.3505
me	-10.3513
▁MEPs	-10.3513
▁doesn	-10.3515
▁Financial	-10.3521
▁GDP	-10.3521
▁define	-10.3523
▁decisive	-10.3526
▁attract	-10.3538
▁seat	-10.3539
▁Day	-10.355
▁contributions	-10.3552
▁sauna	-10.3558
ty	-10.3558
▁organizations	-10.3565
▁copyright	-10.3569
▁Book	-10.3574
▁topic	-10.3576
▁explanation	-10.3577
▁solid	-10.3579
▁transportation	-10.3592
▁son	-10.3593
what	-10.36
▁exit	-10.3602
▁Get	-10.3602
▁metal	-10.361
▁hardware	-10.3616
▁remaining	-10.3617
▁oppos	-10.3626
▁album	-10.3633
▁neighbour	-10.3639
▁drawing	-10.3642
▁farm	-10.3647
▁mini	-10.3648
▁Alliance	-10.3653
▁fee	-10.3658
j	-10.3665
▁gap	-10.3666
▁moral	-10.3666
▁Wi	-10.3682
▁Luxembourg	-10.3682
▁gradual	-10.3689
▁quarter	-10.369
▁career	-10.3691
▁officials	-10.3704
▁regulatory	-10.3705
▁regularly	-10.3709
▁afternoon	-10.3711
▁gender	-10.3711
▁32	-10.3713
▁centres	-10.3717
▁block	-10.3723
▁renovated	-10.3725
▁holding	-10.3732
▁convert	-10.3743
▁deposit	-10.3745
▁threaten	-10.3746
▁bottom	-10.3747
▁vacation	-10.3748
▁intellectual	-10.375
▁engage	-10.3752
▁contracts	-10.3753
▁pro	-10.376
▁gone	-10.3761
▁expert	-10.3763
▁organized	-10.3765
▁entrance	-10.3771
▁customs	-10.3771
▁02	-10.3772
ro	-10.3774
▁Go	-10.3779
▁returned	-10.3784
▁await	-10.3785
▁familiar	-10.3786
▁parents	-10.3789
▁properties	-10.3795
▁owner	-10.3798
rd	-10.3807
▁charges	-10.381
▁waters	-10.3811
▁grateful	-10.3812
▁planet	-10.3813
▁heat	-10.3813
▁minority	-10.3816
ous	-10.3818
▁Friday	-10.3819
▁absolute	-10.3821
▁te	-10.3822
▁profile	-10.3824
▁http	-10.3825
▁collaboration	-10.3826
▁migration	-10.3828
▁communications	-10.383
▁surroundings	-10.3831
▁balcony	-10.3834
▁SMEs	-10.384
▁generate	-10.3841
▁radical	-10.3843
▁carbon	-10.3847
▁directives	-10.3848
▁parliaments	-10.3848
▁honour	-10.3849
▁interpretation	-10.3849
▁severe	-10.3851
▁worse	-10.3853
▁driver	-10.3859
▁transition	-10.3859
▁northern	-10.3865
▁supposed	-10.387
▁occur	-10.3881
▁Canada	-10.3885
▁emergency	-10.3899
▁valley	-10.3906
▁friend	-10.3911
▁artist	-10.3912
▁ought	-10.3914
▁frequently	-10.3916
▁cable	-10.3926
▁Cyprus	-10.3929
▁faster	-10.3929
▁discount	-10.3931
▁walls	-10.3934
▁intensive	-10.3936
R	-10.3953
▁Square	-10.3968
▁west	-10.397
▁messages	-10.3971
▁meant	-10.3975
▁castle	-10.3977
▁2020	-10.3978
▁declaration	-10.3981
▁Q	-10.3982
▁Hungarian	-10.399
▁conflicts	-10.3993
▁delighted	-10.3996
▁divided	-10.3998
hether	-10.4
▁knows	-10.4004
▁Israeli	-10.4004
▁welfare	-10.4007
aught	-10.4011
▁interior	-10.4018
▁eastern	-10.4021
▁decorated	-10.4029
▁hall	-10.4032
▁privilege	-10.4033
▁orders	-10.4036
▁updated	-10.4037
▁weak	-10.4042
▁terrorist	-10.4044
▁Beside	-10.4048
▁demanding	-10.4048
▁exploit	-10.4049
▁percent	-10.4057
▁spot	-10.4062
▁finished	-10.4064
▁electricity	-10.4066
▁lay	-10.4068
▁compatible	-10.4068
▁Non	-10.4069
▁arrive	-10.4074
▁pollution	-10.4077
▁library	-10.4077
▁proceed	-10.4087
▁heritage	-10.4089
▁constitution	-10.409
▁Arab	-10.4092
▁passenger	-10.4094
▁effectiveness	-10.4097
▁helps	-10.4098
▁inter	-10.41
ian	-10.4103
▁relaxation	-10.4108
▁visible	-10.4115
▁bound	-10.412
▁statistics	-10.4124
▁rapporteurs	-10.4126
▁Monetar	-10.4129
▁1995	-10.4137
▁millions	-10.4138
ten	-10.4142
▁provider	-10.4146
▁increases	-10.4148
▁corner	-10.415
▁inhabitants	-10.4158
▁manual	-10.4162
í	-10.4167
▁techniques	-10.4171
▁protest	-10.4171
▁drug	-10.4178
▁subsidies	-10.4197
▁Black	-10.4202
▁Station	-10.4207
▁careful	-10.4207
▁sugar	-10.4208
▁master	-10.4211
▁possib	-10.4212
▁listing	-10.422
▁pension	-10.4226
▁oppose	-10.4227
ance	-10.423
▁Good	-10.4232
▁cash	-10.4232
▁refuse	-10.4243
▁apart	-10.4244
▁referendum	-10.4245
▁feed	-10.4245
▁ISO	-10.4249
▁assure	-10.4253
▁trafficking	-10.4259
▁stored	-10.4265
▁Portuguese	-10.4265
▁Soviet	-10.4275
▁Yes	-10.4279
▁consist	-10.4283
▁bilateral	-10.4288
▁settlement	-10.4301
rs	-10.4304
▁competent	-10.4306
▁Palace	-10.4308
▁appointed	-10.431
▁transform	-10.4312
▁understood	-10.4321
ur	-10.4322
▁hostel	-10.4328
▁exciting	-10.4328
▁documentation	-10.4335
▁stylish	-10.4354
▁foundation	-10.4357
▁settings	-10.4363
▁Will	-10.4369
▁constitute	-10.4371
time	-10.4377
▁expansion	-10.438
▁phrase	-10.4381
▁resolutions	-10.4382
▁400	-10.4388
▁drivers	-10.439
▁resistance	-10.4395
▁islands	-10.4395
▁demonstrated	-10.4397
▁citizen	-10.4399
▁Baltic	-10.44
▁personnel	-10.4405
▁heating	-10.4417
▁printing	-10.4419
▁Vice	-10.442
▁investors	-10.4424
▁switch	-10.4426
▁channel	-10.4434
▁corruption	-10.4439
▁Pact	-10.444
▁Church	-10.4441
▁depth	-10.4444
▁answers	-10.4444
▁widely	-10.4457
▁follows	-10.446
▁proved	-10.4461
▁Media	-10.4462
▁connections	-10.4469
▁wines	-10.4471
▁channels	-10.4473
▁PL	-10.4476
▁comparison	-10.4477
▁department	-10.4478
▁spoken	-10.448
▁accompanied	-10.4481
▁observation	-10.4488
▁raw	-10.4489
▁doctor	-10.4499
▁speaker	-10.4499
▁creates	-10.4501
mo	-10.4503
▁battle	-10.4507
▁manufacturer	-10.4511
▁owners	-10.4515
▁Korea	-10.4524
▁dream	-10.4528
▁blog	-10.4529
▁cooperate	-10.453
▁flights	-10.4533
▁fulfil	-10.4535
▁showing	-10.4536
▁legitimate	-10.4537
▁meaningful	-10.4537
▁Protection	-10.4537
▁youth	-10.4538
▁lounge	-10.4548
▁destroy	-10.4559
erhaps	-10.4563
▁observe	-10.4567
▁Schengen	-10.4581
▁constitutional	-10.4584
▁explicit	-10.4584
▁concluded	-10.4585
▁ongoing	-10.4587
▁western	-10.4592
ca	-10.4595
▁hearing	-10.4596
▁tourists	-10.4596
▁Applause	-10.4597
▁lovely	-10.4604
▁chemical	-10.4607
▁visited	-10.4608
▁minorities	-10.4611
▁occurr	-10.4613
▁Prague	-10.4615
▁fitness	-10.4618
▁Copenhagen	-10.4621
▁tickets	-10.4622
▁seeing	-10.4625
▁judicial	-10.4634
▁shift	-10.4636
▁overcome	-10.4638
▁Action	-10.4646
▁elect	-10.4651
▁prepar	-10.4652
▁scheme	-10.4653
▁Act	-10.4655
▁milk	-10.4655
▁appearance	-10.4658
▁oral	-10.4658
▁Brazil	-10.4665
▁deals	-10.4667
▁era	-10.4673
▁educational	-10.4674
▁cosy	-10.4685
▁zu	-10.4685
▁quote	-10.4688
ci	-10.4695
ever	-10.4698
▁departure	-10.4702
▁behaviour	-10.4705
▁awarded	-10.4708
▁signs	-10.4713
▁determination	-10.4715
▁recorded	-10.4728
▁renown	-10.4731
▁mother	-10.4733
▁spectacular	-10.4737
▁consent	-10.4737
▁snow	-10.4737
▁throw	-10.4738
▁desired	-10.4745
▁exceed	-10.4747
▁mm	-10.4747
▁Hungary	-10.4747
▁immigrants	-10.4753
ek	-10.4754
▁suites	-10.476
▁facility	-10.4761
▁replaced	-10.4763
▁gold	-10.4767
▁wear	-10.4767
▁motor	-10.477
▁coordinate	-10.478
▁Belgium	-10.4785
▁Description	-10.479
over	-10.4791
▁Belarus	-10.4792
▁subsidiarit	-10.4798
▁oriented	-10.4799
▁containing	-10.48
▁Customer	-10.4812
▁dates	-10.4815
▁visiting	-10.4815
▁destruction	-10.4817
▁Design	-10.4821
▁imagine	-10.4827
▁straight	-10.4835
▁component	-10.4837
▁03	-10.4847
▁occasions	-10.4856
▁para	-10.4866
▁credibility	-10.487
▁propos	-10.4876
▁corresponding	-10.4877
▁sentence	-10.4879
▁magnificent	-10.4903
▁artistic	-10.4907
▁Law	-10.4908
▁plent	-10.4911
▁usual	-10.4917
▁windows	-10.4928
wise	-10.4938
▁woman	-10.4942
▁exception	-10.4949
▁correctly	-10.4951
▁satisfied	-10.4952
ni	-10.4956
▁inflation	-10.4957
▁boost	-10.4965
▁Structural	-10.4965
▁realistic	-10.4967
▁v	-10.497
▁h	-10.4971
▁contacts	-10.4972
▁declared	-10.4975
▁saving	-10.4979
▁globalisation	-10.4979
▁commission	-10.498
▁transactions	-10.4982
▁Santa	-10.4984
▁division	-10.4993
▁centuries	-10.4998
▁gardens	-10.4999
▁newly	-10.5009
▁crimes	-10.5011
▁belong	-10.5012
á	-10.5016
▁communicate	-10.5028
org	-10.5033
tel	-10.5033
▁routes	-10.5036
▁plenar	-10.5044
Y	-10.5053
▁taxation	-10.5054
▁uniform	-10.5058
▁Bush	-10.506
▁Funds	-10.5062
▁witness	-10.5066
▁strike	-10.5067
▁Within	-10.5072
▁sending	-10.5074
▁domain	-10.5083
▁substance	-10.5084
▁struggle	-10.5085
▁unanimous	-10.5088
▁finish	-10.5091
▁committees	-10.5094
▁Madrid	-10.5096
▁Who	-10.5097
den	-10.5098
cy	-10.5103
▁sharing	-10.5105
▁yes	-10.5107
9	-10.511
▁extraordinary	-10.5118
▁Given	-10.5127
▁dependent	-10.5133
theless	-10.5134
▁narrow	-10.5135
▁proportion	-10.5136
▁pieces	-10.5143
▁consult	-10.5143
▁suppliers	-10.5145
▁debates	-10.5147
▁com	-10.5151
▁par	-10.5153
▁encouraging	-10.5154
▁inclusion	-10.5155
▁forum	-10.5155
▁respected	-10.5156
▁Thursday	-10.5157
▁ll	-10.5161
▁Mar	-10.5164
▁preserve	-10.5168
▁im	-10.5177
▁assets	-10.5184
▁distributed	-10.5184
▁pilot	-10.5186
▁proven	-10.5189
▁Town	-10.5196
▁revision	-10.5217
▁incorporate	-10.5217
▁firms	-10.5222
▁sit	-10.5222
▁Northern	-10.5229
▁Real	-10.5238
▁analyse	-10.5239
▁weekend	-10.5245
▁generated	-10.5254
▁Hav	-10.5258
▁Report	-10.5263
I	-10.5265
▁concentrate	-10.5271
▁Mexico	-10.528
▁resolved	-10.5285
▁packaging	-10.5291
▁providers	-10.5303
▁starts	-10.5314
▁locations	-10.532
▁warning	-10.5321
▁tobacco	-10.5322
▁sphere	-10.5329
▁minor	-10.5334
▁theme	-10.5336
▁army	-10.5339
▁ice	-10.5339
▁trend	-10.5343
▁Don	-10.5348
▁films	-10.535
▁duties	-10.5353
▁actively	-10.5357
▁musical	-10.536
ter	-10.5362
▁Festival	-10.5365
▁university	-10.5375
▁Die	-10.5377
▁Bay	-10.5378
▁Monday	-10.5378
▁für	-10.5382
▁Transport	-10.5383
▁Through	-10.5384
▁proposes	-10.5386
▁Code	-10.5389
▁adults	-10.5394
▁spoke	-10.5396
▁housing	-10.5398
▁everyday	-10.5399
▁supplier	-10.5402
▁ACP	-10.5404
▁Without	-10.5405
mm	-10.5407
▁died	-10.5414
▁voluntary	-10.5414
▁wrot	-10.5417
▁diverse	-10.5422
▁miles	-10.5427
▁maritime	-10.5429
▁luxurious	-10.5435
▁employed	-10.5437
▁Technology	-10.5438
▁functional	-10.5438
▁emerging	-10.5441
▁bridge	-10.5457
▁vulnerable	-10.5461
while	-10.5464
▁chapter	-10.5466
▁Royal	-10.547
▁Mac	-10.5475
▁fourth	-10.548
▁Page	-10.5482
▁absence	-10.5492
▁trial	-10.5492
▁courts	-10.5492
▁Hall	-10.5494
▁compare	-10.5496
▁Site	-10.5496
▁executive	-10.5498
▁Island	-10.5499
▁Consumer	-10.5501
▁Pakistan	-10.5502
▁reported	-10.5504
EADS	-10.5508
▁supplies	-10.5515
▁Among	-10.5515
▁towns	-10.5522
▁input	-10.5522
▁gets	-10.5523
▁Framework	-10.5524
▁tea	-10.5527
▁survey	-10.5533
▁eliminate	-10.5534
elected	-10.5536
▁Beach	-10.5536
▁Legal	-10.5542
▁los	-10.5546
▁Women	-10.5547
▁professionals	-10.5548
▁winning	-10.5549
▁deficit	-10.555
▁updates	-10.5564
▁repair	-10.5571
▁chair	-10.5576
▁formed	-10.5578
▁England	-10.5587
▁mit	-10.5589
▁shipping	-10.5591
▁Earth	-10.5594
▁patient	-10.5594
▁VAT	-10.5597
▁module	-10.5597
▁upper	-10.5602
▁dead	-10.5602
H	-10.5606
▁Sunday	-10.5606
▁elsewhere	-10.5608
ir	-10.5618
▁Assembly	-10.5622
▁satisfaction	-10.5625
▁custom	-10.5627
ant	-10.5627
▁ye	-10.5629
▁shadow	-10.5631
▁PHP	-10.5642
▁countryside	-10.5652
▁recall	-10.5661
▁lobby	-10.5665
▁scene	-10.5668
X	-10.5675
▁philosophy	-10.5677
▁index	-10.5677
▁Desk	-10.569
▁lessons	-10.5697
▁Atlantic	-10.5703
▁partly	-10.5713
▁arrived	-10.5714
▁gained	-10.5716
▁specified	-10.5717
▁Year	-10.5722
▁confirmation	-10.5726
▁receiving	-10.5733
▁2011	-10.5743
▁parliament	-10.5744
▁capture	-10.575
▁tend	-10.575
▁School	-10.5756
▁farming	-10.5763
▁drop	-10.5765
▁reaction	-10.5767
▁Agriculture	-10.5774
▁topics	-10.5776
▁appeared	-10.5777
▁execution	-10.5777
▁ships	-10.5788
▁shares	-10.5791
▁traditions	-10.5793
▁distinguish	-10.5795
▁disabled	-10.5797
▁religion	-10.5802
▁eat	-10.5807
▁log	-10.5809
▁invited	-10.5828
▁....	-10.5828
▁King	-10.5834
▁delete	-10.5838
▁interpret	-10.5839
▁concepts	-10.5841
▁symbol	-10.5842
▁presents	-10.5844
▁resource	-10.5856
▁argue	-10.5865
▁Hamburg	-10.5869
▁difficulty	-10.5871
▁Congress	-10.5877
▁theory	-10.5882
▁tree	-10.5884
▁overview	-10.5887
▁skiing	-10.5892
▁IP	-10.5897
▁permitted	-10.5898
▁female	-10.5901
▁Hotels	-10.5902
▁dark	-10.5905
▁Plan	-10.5906
▁drinks	-10.5909
▁specialist	-10.5915
▁ecological	-10.5916
▁unlike	-10.5919
▁layer	-10.594
▁roads	-10.5942
▁theatre	-10.5947
▁Peter	-10.5967
▁publication	-10.5967
age	-10.5968
▁acting	-10.597
▁football	-10.5976
▁delicious	-10.5979
▁enabling	-10.5988
▁handle	-10.5992
▁portfolio	-10.6
▁exclusion	-10.6003
▁harmonisation	-10.6004
▁colours	-10.6006
▁Guests	-10.6008
▁--	-10.6016
▁destroyed	-10.6017
▁cancer	-10.6029
ised	-10.603
▁directory	-10.6031
▁tennis	-10.6036
▁comprise	-10.6039
▁savings	-10.6054
▁reservations	-10.6054
▁forests	-10.6055
▁mix	-10.6058
▁significance	-10.6059
▁1994	-10.6061
▁enterprise	-10.6062
▁Paul	-10.6063
ti	-10.6066
▁Federation	-10.6067
▁PDF	-10.6069
▁Socialist	-10.6069
▁unforgettable	-10.6076
ese	-10.6079
▁Power	-10.6084
▁twenty	-10.6085
▁banking	-10.6094
▁ignore	-10.6095
▁OF	-10.6096
▁approve	-10.6103
▁contribut	-10.6107
▁Tip	-10.6107
▁recognize	-10.6109
▁festival	-10.611
▁afford	-10.6116
▁disk	-10.6118
▁liberal	-10.6119
▁heading	-10.6121
▁Food	-10.6121
▁electric	-10.613
▁Strasbourg	-10.6137
▁Inn	-10.6142
▁Van	-10.6146
▁PT	-10.6146
▁villages	-10.615
▁engineer	-10.6159
▁exports	-10.616
▁director	-10.6161
▁principal	-10.6163
▁Finland	-10.6164
▁faith	-10.6166
ling	-10.617
identified	-10.6177
▁organic	-10.6177
▁Auditors	-10.6179
▁supervision	-10.618
▁rising	-10.6181
▁cool	-10.6183
▁lots	-10.6186
▁prime	-10.6186
▁prosperity	-10.6198
tic	-10.6199
▁forthcoming	-10.6207
▁killed	-10.6208
▁parallel	-10.6211
▁manager	-10.6226
▁fleet	-10.6233
▁doors	-10.6233
▁instructions	-10.6235
ung	-10.6239
▁complicated	-10.6239
▁react	-10.6248
▁boast	-10.6249
▁calm	-10.6251
▁Barroso	-10.6253
▁integrate	-10.6258
▁frame	-10.6258
▁labelling	-10.627
▁Facilities	-10.6275
▁clarify	-10.6275
▁societies	-10.6275
▁ports	-10.6276
▁didn	-10.628
▁Situat	-10.6292
▁segment	-10.6296
▁compact	-10.6298
▁Nos	-10.63
▁Deutsche	-10.6305
▁Asian	-10.6306
▁ordinary	-10.6309
▁cleaning	-10.6312
▁romantic	-10.6313
▁everybody	-10.6321
▁proceedings	-10.6332
▁enhanc	-10.6346
▁lunch	-10.6349
▁folder	-10.635
▁gallery	-10.6359
▁evident	-10.6365
▁suffered	-10.6369
om	-10.6376
▁rely	-10.6378
▁undoubted	-10.6384
▁wider	-10.6384
▁Network	-10.6387
▁programming	-10.6388
▁appointment	-10.6406
W	-10.6409
▁Golf	-10.6414
▁Michael	-10.6415
▁Secretary	-10.6415
▁parameters	-10.6419
▁opt	-10.642
▁selling	-10.6421
▁bike	-10.6431
▁none	-10.6432
▁Online	-10.6432
▁Additional	-10.6434
▁rank	-10.6434
▁USB	-10.6437
▁Tour	-10.6438
▁Serbia	-10.6439
▁imports	-10.6439
▁Organisation	-10.644
▁wild	-10.6443
▁coordinat	-10.6444
▁lived	-10.645
▁sensor	-10.6453
▁transmission	-10.6455
▁investigation	-10.6459
▁ECU	-10.6461
▁allocat	-10.6462
▁cast	-10.6464
▁Liberal	-10.6465
▁trips	-10.6466
▁tested	-10.6468
▁Islamic	-10.647
▁Should	-10.6472
▁recognized	-10.6478
▁covering	-10.6481
▁movie	-10.6482
▁modules	-10.6493
▁directed	-10.6501
▁teams	-10.6503
▁boot	-10.6505
▁wellness	-10.6506
▁sustainability	-10.6508
▁remarks	-10.6513
▁accident	-10.6519
▁hospitality	-10.653
▁ranging	-10.6531
▁underline	-10.6534
functionality	-10.6538
▁characters	-10.6557
▁nights	-10.656
▁leaves	-10.6565
▁accurate	-10.6567
▁apparent	-10.6571
▁Via	-10.6571
▁Egypt	-10.6573
▁es	-10.6576
▁welcoming	-10.6583
▁nine	-10.6586
▁trans	-10.6588
▁studio	-10.6588
ak	-10.659
▁micro	-10.6591
▁expand	-10.6595
▁Nor	-10.6597
▁superior	-10.6602
▁Start	-10.6612
▁vessels	-10.6613
▁obstacles	-10.6614
▁Does	-10.6615
▁protocol	-10.662
▁Personal	-10.6621
▁wireless	-10.6625
▁MP	-10.6627
▁plays	-10.6629
▁restore	-10.6629
▁clubs	-10.6632
▁massage	-10.6633
▁Regional	-10.6633
▁recover	-10.6636
▁75	-10.6638
▁dry	-10.6643
▁exploitation	-10.6646
▁manag	-10.6646
▁ride	-10.6647
▁acceptance	-10.6651
▁desk	-10.6657
▁cells	-10.6659
▁considerably	-10.6663
▁classes	-10.6666
▁fans	-10.6669
▁amazing	-10.6679
▁Saturday	-10.6682
▁script	-10.6685
▁Player	-10.6685
▁Culture	-10.669
▁missing	-10.6699
▁productivity	-10.6699
▁collected	-10.6704
▁equivalent	-10.6712
▁fees	-10.6714
▁universities	-10.6721
▁Music	-10.6722
▁disadvantage	-10.6734
▁differ	-10.674
▁dignity	-10.6741
▁cell	-10.6751
▁Valley	-10.6756
▁sight	-10.6756
ine	-10.6757
▁restructuring	-10.6757
▁subjects	-10.676
▁withdraw	-10.6764
▁plastic	-10.6765
▁catch	-10.6765
▁audience	-10.6767
▁birth	-10.6773
▁sheet	-10.6775
▁skill	-10.6776
ley	-10.6786
▁regulate	-10.6786
▁penalty	-10.6793
▁Express	-10.681
▁justifi	-10.6813
▁Val	-10.6816
▁sex	-10.6817
▁errors	-10.6819
▁excluded	-10.6824
▁Christmas	-10.6826
▁portal	-10.6834
▁song	-10.6835
▁sleep	-10.6837
▁Set	-10.6839
▁En	-10.685
▁Geneva	-10.6858
▁Venice	-10.6862
▁united	-10.6868
▁reconstruction	-10.6868
▁museums	-10.6873
▁alcohol	-10.6887
▁reflected	-10.6896
▁root	-10.6898
▁indication	-10.6903
▁consulting	-10.6906
▁disasters	-10.6908
▁lists	-10.6908
▁cuts	-10.6908
▁sincere	-10.6909
▁Man	-10.6909
▁advocate	-10.691
▁Indian	-10.6912
ified	-10.6913
▁ministers	-10.6915
▁thermal	-10.6921
▁COM	-10.6923
▁travelling	-10.6927
▁PPE	-10.6931
▁CAP	-10.6932
▁edition	-10.6936
▁transferred	-10.6936
▁soil	-10.6938
▁tables	-10.694
▁satisfy	-10.6947
▁bright	-10.6951
▁violations	-10.6955
▁Front	-10.696
▁Balkans	-10.6971
▁timetable	-10.6972
▁complement	-10.6979
▁stocks	-10.6984
▁supplied	-10.6987
▁reliability	-10.699
▁turning	-10.6996
▁lasting	-10.6997
▁Casino	-10.6999
▁48	-10.7008
▁panel	-10.7013
▁1980	-10.7022
▁songs	-10.7022
▁undertaken	-10.7028
▁Castle	-10.7031
▁driven	-10.7034
▁fishermen	-10.7034
▁escape	-10.7035
▁restored	-10.704
▁amenities	-10.7043
▁smooth	-10.7043
▁load	-10.705
▁courage	-10.7054
▁periods	-10.706
▁Tourism	-10.7061
▁Australia	-10.7062
▁concentration	-10.7062
▁restrict	-10.7068
▁height	-10.7076
▁Agenda	-10.7077
▁pursu	-10.7084
▁lie	-10.7089
▁ensures	-10.7091
io	-10.7092
▁translate	-10.7097
▁worst	-10.7097
▁sections	-10.7099
▁province	-10.7101
▁filter	-10.7101
▁stick	-10.7101
▁Support	-10.7102
▁ECB	-10.7105
▁sounds	-10.7109
▁concert	-10.7111
▁sovereignty	-10.7111
▁inevitabl	-10.7124
▁showed	-10.7125
▁revolution	-10.7126
20	-10.7126
▁reputation	-10.7128
▁Next	-10.7141
▁User	-10.715
▁una	-10.7151
ke	-10.7151
▁movements	-10.7158
▁Belgian	-10.7172
▁caus	-10.7173
▁losses	-10.7192
▁undermine	-10.7192
▁Executive	-10.7212
▁assembly	-10.7212
▁generations	-10.7225
▁underground	-10.7226
▁charm	-10.7235
▁beside	-10.725
▁column	-10.7251
▁panoramic	-10.7253
▁decade	-10.7255
be	-10.7258
▁Director	-10.7259
▁anywhere	-10.726
▁picturesque	-10.7261
▁2013	-10.7279
▁camp	-10.7288
▁Life	-10.7294
▁necessari	-10.7294
▁hiking	-10.7298
▁addresse	-10.7303
▁oblig	-10.7304
za	-10.731
▁Martin	-10.7314
▁unfair	-10.7315
▁Education	-10.7317
▁amend	-10.7322
▁raising	-10.7322
▁olive	-10.7326
▁student	-10.7326
km	-10.7329
▁horse	-10.7331
▁super	-10.7333
▁examination	-10.734
▁internationally	-10.7345
▁Americans	-10.7348
▁Consequent	-10.7353
gun	-10.7356
▁k	-10.7362
▁anniversary	-10.7367
mann	-10.7378
▁strengthened	-10.7382
▁learned	-10.7386
▁iron	-10.7387
▁referr	-10.7387
▁catalogue	-10.7391
▁Georgia	-10.7394
▁honest	-10.7401
▁percentage	-10.7409
▁Denmark	-10.7422
▁sensible	-10.7424
▁teaching	-10.7427
▁commit	-10.7429
▁optimal	-10.743
▁98	-10.7431
pretty	-10.7432
▁usage	-10.7452
▁prize	-10.7457
▁partition	-10.7458
▁deeply	-10.7463
ri	-10.7464
▁stuff	-10.7464
▁factory	-10.7464
▁pillar	-10.7469
▁targeted	-10.747
▁minister	-10.748
▁trends	-10.7486
▁04	-10.7508
▁debat	-10.751
▁Manager	-10.7513
▁participat	-10.7513
▁NGOs	-10.7513
▁pull	-10.7517
▁territorial	-10.7524
▁metro	-10.7525
▁Heat	-10.7531
▁Li	-10.7535
▁evaluate	-10.7538
▁appropriations	-10.7538
▁till	-10.7539
▁Add	-10.7542
▁sights	-10.7545
▁decline	-10.7545
▁roof	-10.7546
▁trouble	-10.7547
▁les	-10.7553
▁facts	-10.7555
▁Family	-10.7559
▁1992	-10.7561
▁judge	-10.7562
▁federal	-10.7565
▁varied	-10.7565
▁incident	-10.7566
▁magazine	-10.7569
▁Server	-10.7574
▁everywhere	-10.7574
▁Systems	-10.7578
▁promise	-10.7581
▁Islands	-10.7591
▁na	-10.7592
▁Protocol	-10.7594
▁discipline	-10.7595
▁videos	-10.7596
▁normally	-10.7602
▁examin	-10.7604
▁crew	-10.7606
▁stars	-10.7607
▁Ombudsman	-10.7615
▁Pan	-10.7617
▁Look	-10.7619
▁recording	-10.7622
▁Her	-10.7622
▁geographical	-10.7623
▁Card	-10.7624
▁computers	-10.7643
▁phenomenon	-10.7643
▁medicine	-10.7647
▁mistake	-10.7647
▁mouse	-10.765
▁employ	-10.7658
▁visual	-10.7665
▁homes	-10.7666
▁reinforce	-10.7671
▁ex	-10.7677
▁stunning	-10.7678
▁aside	-10.7682
▁Award	-10.7683
▁Resort	-10.7688
▁conventional	-10.769
do	-10.7692
ja	-10.7695
▁operator	-10.7695
▁paint	-10.7702
▁Exchange	-10.7704
▁Live	-10.7709
▁arising	-10.7711
▁insert	-10.7717
▁dance	-10.7717
▁kilometres	-10.7722
▁promised	-10.7724
▁stages	-10.7731
▁alter	-10.7734
▁acquired	-10.7736
▁individually	-10.7738
▁Stabilit	-10.7738
▁overlooking	-10.7741
▁producer	-10.7741
▁diplomatic	-10.7748
▁kernel	-10.7754
▁twice	-10.7758
▁trace	-10.7761
▁peoples	-10.7763
▁Trek	-10.7766
▁36	-10.7767
▁intelligent	-10.7768
▁grown	-10.7769
▁Rotary	-10.7772
▁Further	-10.7773
▁efficiently	-10.7778
▁reserved	-10.778
▁tracks	-10.7782
▁freely	-10.7786
▁meal	-10.7792
▁ES	-10.7792
ina	-10.7794
▁permit	-10.7798
▁Main	-10.78
▁liable	-10.7805
▁fairly	-10.7807
▁III	-10.7809
▁coherent	-10.7812
The	-10.7819
▁Team	-10.7828
▁native	-10.7841
▁schedule	-10.7842
▁Full	-10.7849
▁View	-10.785
▁Using	-10.7864
▁formats	-10.7872
▁taxpayer	-10.7873
▁serving	-10.7881
▁circle	-10.7884
▁prospects	-10.7886
▁convenience	-10.7891
▁Gold	-10.7893
▁profits	-10.7907
▁experiment	-10.7911
▁fax	-10.7914
▁Would	-10.7925
▁aviation	-10.7928
▁feet	-10.7931
▁calendar	-10.7931
▁belief	-10.7932
▁scientists	-10.7938
▁sophisticated	-10.7939
▁euros	-10.794
▁specialists	-10.7941
▁threats	-10.7942
▁Industry	-10.7946
▁engines	-10.7951
▁Fundamental	-10.7957
▁bonus	-10.796
▁ve	-10.7964
▁min	-10.7965
▁undertake	-10.7967
▁weaken	-10.7969
▁Port	-10.7971
▁JavaScript	-10.7972
▁miss	-10.7972
son	-10.7972
▁superb	-10.7985
▁armed	-10.7991
ck	-10.7995
▁cultures	-10.8007
▁Garden	-10.8008
▁Civil	-10.8011
▁Olympic	-10.8013
▁Java	-10.802
U	-10.8023
ier	-10.8024
il	-10.8028
▁250	-10.8029
▁modify	-10.8031
▁solar	-10.8033
▁mount	-10.8033
▁Constitutional	-10.8034
▁troops	-10.8035
▁declare	-10.8038
▁ended	-10.8043
▁floors	-10.8047
▁assurance	-10.805
▁classical	-10.8052
▁arrest	-10.8053
▁revenue	-10.8053
▁upgrade	-10.8059
▁Project	-10.8072
▁prisoners	-10.8074
▁villa	-10.8074
▁info	-10.8075
▁Sa	-10.8076
▁casino	-10.8077
▁Y	-10.8079
▁800	-10.8081
▁seats	-10.8082
▁treatments	-10.8084
▁highlights	-10.8086
▁compulsor	-10.8094
ish	-10.8102
▁ease	-10.8103
▁hidde	-10.8103
▁Representative	-10.8105
▁widespread	-10.8108
ha	-10.811
▁dollar	-10.811
▁convention	-10.8113
▁dispute	-10.8117
▁Treaties	-10.812
▁sudden	-10.8123
▁utmos	-10.8127
▁shuttle	-10.8131
▁damages	-10.8131
▁occupation	-10.8132
▁fan	-10.8136
▁Based	-10.8136
▁preserv	-10.8138
▁harmful	-10.814
▁Have	-10.8143
▁restricted	-10.8144
▁Cooperation	-10.8149
▁Danish	-10.8157
▁convergence	-10.8161
▁checks	-10.8174
▁stake	-10.8178
▁simplify	-10.8179
▁Dublin	-10.8179
▁survive	-10.8187
▁rough	-10.8188
▁candidates	-10.8191
▁il	-10.8192
▁regulat	-10.82
▁wooden	-10.82
▁spite	-10.8203
▁occupie	-10.8209
▁prison	-10.822
▁accidents	-10.8235
▁1993	-10.824
▁environmentally	-10.8244
▁king	-10.8246
▁34	-10.8252
▁specialized	-10.8254
▁toward	-10.8254
▁confront	-10.8265
▁33	-10.8269
▁electrical	-10.8282
▁defeat	-10.8289
▁AND	-10.8289
▁grammatical	-10.8289
▁permission	-10.8289
▁reward	-10.8289
▁Notes	-10.8291
▁NI	-10.8291
em	-10.8292
▁agents	-10.8296
▁abolish	-10.8304
▁Prodi	-10.8305
▁w	-10.8307
▁associations	-10.8308
▁Box	-10.8311
▁stat	-10.8325
▁ver	-10.8329
▁adds	-10.8336
▁graphics	-10.8338
▁capabilitie	-10.8338
▁Jean	-10.8342
▁conditioned	-10.8351
▁Common	-10.8351
▁accommodate	-10.8357
▁indoor	-10.8365
▁Smoking	-10.8376
im	-10.8381
▁designs	-10.8383
▁meals	-10.8384
▁Apart	-10.8391
▁dialog	-10.8393
▁bearing	-10.8396
▁Obama	-10.8403
▁passing	-10.841
▁Terms	-10.8411
▁stories	-10.8419
▁u	-10.842
▁expense	-10.8421
▁Cup	-10.8426
▁modification	-10.8427
▁adding	-10.8439
▁novel	-10.8443
▁marks	-10.8444
▁ratification	-10.8445
10	-10.8455
▁incorporat	-10.8461
▁records	-10.8466
▁airlines	-10.8467
▁servers	-10.8468
▁infringement	-10.8469
▁Download	-10.8482
▁taxi	-10.8486
▁chairman	-10.8492
▁labor	-10.8506
▁colors	-10.8506
▁medieval	-10.8507
▁blocks	-10.8507
▁hills	-10.851
▁compete	-10.8513
▁Subject	-10.8518
▁Forum	-10.8524
q	-10.8535
▁airports	-10.8537
▁sharp	-10.8537
▁empty	-10.854
▁bann	-10.854
▁harm	-10.8541
▁negotiation	-10.8544
▁advise	-10.8544
▁Ltd	-10.8546
▁developers	-10.8555
▁600	-10.8563
one	-10.8563
▁bathrooms	-10.8565
ER	-10.8566
dicated	-10.8567
▁breach	-10.8567
▁George	-10.8574
ad	-10.8576
▁navigation	-10.8579
ko	-10.8582
▁adventure	-10.8582
up	-10.8583
▁informal	-10.8589
▁Maria	-10.8599
▁studied	-10.8608
▁Cuba	-10.861
▁abstain	-10.8612
▁gift	-10.8613
▁composition	-10.8622
▁Meeting	-10.8625
▁negotiate	-10.8635
▁37	-10.8636
▁adult	-10.8636
▁chief	-10.8638
▁120	-10.8639
▁decrease	-10.8639
▁ruling	-10.8639
▁Quality	-10.8648
▁enforcement	-10.8652
▁mouth	-10.8656
▁logical	-10.8659
▁Kyoto	-10.8659
▁desktop	-10.8659
▁TO	-10.8662
▁07	-10.8663
▁inadequate	-10.8663
▁auf	-10.8664
▁extending	-10.8664
▁Three	-10.8671
▁splendid	-10.8679
▁specify	-10.8679
▁David	-10.8682
▁soul	-10.8683
▁accompany	-10.8686
ING	-10.8689
▁multilateral	-10.8694
▁scheduled	-10.8695
▁gross	-10.8696
▁Video	-10.8701
satisfactory	-10.8705
▁violation	-10.8705
▁acquisition	-10.8706
▁productive	-10.8709
▁unusual	-10.871
▁implications	-10.8719
▁crises	-10.8722
▁Robert	-10.8724
▁tournament	-10.8738
▁correspond	-10.8738
▁Jewish	-10.8742
▁NL	-10.8744
▁flows	-10.8748
▁heavi	-10.8748
▁spare	-10.8749
▁meets	-10.875
ate	-10.8752
▁certification	-10.8758
▁characteristic	-10.877
▁EL	-10.8771
▁promises	-10.8773
▁Make	-10.8774
▁approaches	-10.8778
▁whereby	-10.8783
▁progressive	-10.8785
▁amended	-10.8786
▁su	-10.8787
▁Me	-10.8788
▁IMF	-10.879
▁array	-10.8793
▁ingredients	-10.8795
un	-10.8801
▁Sun	-10.8807
▁ordered	-10.8812
▁repeated	-10.8817
▁newsletter	-10.8818
▁Games	-10.8826
▁urgency	-10.8829
▁notes	-10.883
▁adjust	-10.8833
▁conciliation	-10.8838
▁das	-10.8838
▁scenario	-10.8841
▁Internal	-10.8842
▁bought	-10.8843
▁06	-10.8844
▁schemes	-10.8845
▁Skype	-10.8845
▁plug	-10.8849
▁cancel	-10.8852
▁Area	-10.8862
▁Wednesday	-10.8865
▁engag	-10.8867
▁Children	-10.887
▁Up	-10.8871
▁Post	-10.8873
▁technique	-10.8875
▁frequency	-10.8881
▁branch	-10.8885
▁Employment	-10.8885
victory	-10.8889
▁thumbnail	-10.8891
▁poorest	-10.8898
▁stores	-10.8905
▁conferences	-10.8905
▁Fisheries	-10.8906
▁remarkable	-10.8906
▁mental	-10.8911
▁Clear	-10.8913
ler	-10.8915
▁Water	-10.8923
▁generous	-10.8926
▁USD	-10.893
▁constitutes	-10.8933
▁shortly	-10.8938
▁fifth	-10.8942
▁Hong	-10.8943
▁observer	-10.8943
▁completion	-10.8946
▁certified	-10.8949
▁wage	-10.8949
▁medicines	-10.8957
▁pace	-10.8961
▁95	-10.8962
▁mixed	-10.8964
▁maybe	-10.8965
▁Ver	-10.8965
▁ownership	-10.8975
id	-10.8979
▁necessit	-10.898
▁ID	-10.8983
▁Slovakia	-10.8994
▁marine	-10.8996
▁Authority	-10.9007
▁mechanical	-10.9012
ze	-10.9014
▁neighbours	-10.9015
▁distinction	-10.9033
▁clock	-10.9035
▁fascinating	-10.9039
▁layout	-10.905
▁surprising	-10.9052
▁Florence	-10.9056
▁Current	-10.906
▁admit	-10.906
▁headquarter	-10.9064
▁pour	-10.9073
▁ethical	-10.9078
▁riding	-10.9078
▁codecision	-10.908
▁broken	-10.9086
▁choices	-10.909
▁preferred	-10.9097
au	-10.9107
▁cent	-10.9113
▁favourable	-10.9118
▁hence	-10.9119
▁allocation	-10.9123
mi	-10.9125
▁Section	-10.913
▁Read	-10.9131
▁unnecessar	-10.9133
▁autumn	-10.9134
▁Plaza	-10.9134
▁Muslim	-10.914
▁tight	-10.9152
▁deserves	-10.9154
▁sorry	-10.9158
▁steam	-10.9159
more	-10.9162
▁exposed	-10.9164
▁Select	-10.9174
▁circuit	-10.9175
▁cancellation	-10.9177
▁legitimacy	-10.9183
▁Product	-10.9186
led	-10.9186
▁coastal	-10.9187
▁violent	-10.9187
▁hire	-10.919
▁overlook	-10.9191
▁passion	-10.92
▁Kong	-10.9209
▁publish	-10.9212
▁97	-10.9213
▁abandon	-10.9216
▁1000	-10.9216
▁tragic	-10.9216
▁38	-10.922
▁sample	-10.922
▁42	-10.9223
▁foremost	-10.9225
▁08	-10.9225
▁Together	-10.9229
▁threshold	-10.9229
▁ignor	-10.9235
▁logic	-10.9236
▁Standard	-10.9237
▁institute	-10.9237
▁incentives	-10.9238
▁relationships	-10.9238
▁boats	-10.9239
▁foundations	-10.9244
der	-10.9247
▁frequent	-10.9249
▁Department	-10.9254
▁residential	-10.9254
▁Small	-10.9262
▁Single	-10.9267
▁wing	-10.9269
▁neighbourhood	-10.9271
▁string	-10.9275
▁prompt	-10.9278
▁textile	-10.928
▁journalists	-10.9282
▁economically	-10.9284
▁blame	-10.9285
▁repeatedly	-10.9286
▁Similar	-10.9287
▁wife	-10.929
▁architect	-10.9291
▁External	-10.9292
▁arranged	-10.9301
▁MySQL	-10.9304
▁Bosnia	-10.9315
▁auto	-10.9318
▁roots	-10.9321
▁busy	-10.9325
▁observ	-10.9325
▁revis	-10.9327
▁suspect	-10.9329
▁Chairman	-10.933
▁assign	-10.933
▁falls	-10.9333
▁09	-10.9334
▁Academy	-10.9338
▁dramatic	-10.9341
▁Ministry	-10.9342
▁Holiday	-10.9347
ship	-10.9349
go	-10.9352
▁Morocco	-10.9355
ó	-10.9355
▁underlying	-10.936
▁jurisdiction	-10.9361
▁bottle	-10.9363
▁Ma	-10.9365
▁collapse	-10.9365
▁Fair	-10.9366
▁55	-10.9374
▁Alps	-10.9378
ig	-10.9382
▁tower	-10.9384
▁budgets	-10.9384
▁IN	-10.9397
▁measurement	-10.94
▁inspection	-10.9403
▁1991	-10.9406
nt	-10.9408
▁foster	-10.941
▁travellers	-10.9417
▁diving	-10.9418
▁arrange	-10.9421
▁Flash	-10.9421
▁Moscow	-10.9422
▁intervene	-10.9426
▁smart	-10.9441
▁asset	-10.9442
▁ratio	-10.9448
▁slopes	-10.9448
▁vocational	-10.9452
▁1970	-10.9452
▁spectrum	-10.9453
▁wheel	-10.9454
▁Heads	-10.9455
▁managers	-10.9464
terinstitutional	-10.9465
▁featur	-10.9474
▁expanded	-10.9475
▁Commissioners	-10.9476
ba	-10.9478
ber	-10.948
▁snack	-10.9482
▁las	-10.9482
J	-10.9483
▁OS	-10.9485
tergovernmental	-10.9486
▁removal	-10.9487
▁trained	-10.9488
lo	-10.9489
▁fly	-10.949
▁Airbus	-10.949
▁05	-10.9493
▁transaction	-10.9516
▁insufficient	-10.952
ting	-10.9523
▁zero	-10.9525
▁Travel	-10.9529
▁traged	-10.9531
▁artificial	-10.9533
▁actors	-10.9537
▁motorway	-10.9537
▁wave	-10.9537
▁Poker	-10.9539
▁96	-10.9539
▁clarity	-10.9542
▁willingness	-10.9546
▁continual	-10.9548
▁considerations	-10.9555
▁expenses	-10.9556
▁Los	-10.9558
▁accessories	-10.9559
▁Apartments	-10.9561
▁GNU	-10.9567
▁Part	-10.957
ana	-10.957
▁hill	-10.9572
▁celebrate	-10.9575
▁devoted	-10.9575
▁forecast	-10.9576
▁rubber	-10.9576
▁listening	-10.9578
▁sovereign	-10.958
▁Taiwan	-10.9585
▁false	-10.9589
▁bigger	-10.959
▁references	-10.9592
▁terrible	-10.9593
▁heads	-10.9596
▁girls	-10.9597
lecommunications	-10.9606
▁baby	-10.9611
▁Space	-10.9612
▁certificate	-10.9616
▁fell	-10.9618
▁episode	-10.9619
▁1989	-10.962
ial	-10.9632
▁blind	-10.9632
▁contractual	-10.9632
▁sunny	-10.9633
▁complaints	-10.9634
▁deadline	-10.9634
▁favorite	-10.9637
▁enjoying	-10.9639
▁justify	-10.964
▁consequent	-10.9641
▁orientation	-10.9641
▁excursions	-10.9649
▁vary	-10.9649
▁Ca	-10.9655
▁ill	-10.9656
▁prospect	-10.9658
▁Se	-10.9671
▁Vietnam	-10.9671
▁simultaneously	-10.9672
va	-10.9672
▁bio	-10.9673
▁forgotten	-10.9674
▁financed	-10.9681
ists	-10.9681
▁cm	-10.9684
line	-10.9689
▁cheese	-10.9693
▁composed	-10.9694
▁Suite	-10.9697
▁intentions	-10.9701
▁lively	-10.9703
▁cookies	-10.9707
he	-10.9707
▁ceiling	-10.9713
▁49	-10.9719
▁purchased	-10.972
▁accuracy	-10.9721
▁rain	-10.9724
▁Place	-10.9725
▁Inc	-10.973
,	-10.9741
▁sake	-10.9744
▁RO	-10.9744
▁tackl	-10.9744
▁plain	-10.9756
▁talent	-10.9757
▁Ben	-10.9759
▁Pre	-10.976
▁announcement	-10.9766
▁65	-10.9772
▁willing	-10.9777
ov	-10.9777
▁afraid	-10.9789
▁arrangement	-10.9794
▁Auto	-10.9805
▁residents	-10.9815
▁logo	-10.982
ez	-10.982
▁Bad	-10.9832
▁whatsoever	-10.9834
▁archive	-10.9835
▁ein	-10.984
▁Prize	-10.9842
▁therapy	-10.9843
▁transitional	-10.9845
▁accordingly	-10.9853
▁Visit	-10.9855
▁Out	-10.9855
▁relief	-10.9865
▁margin	-10.9865
▁por	-10.9868
▁mine	-10.9869
▁pharmaceutical	-10.987
▁governmental	-10.987
▁USS	-10.9874
▁replacement	-10.9875
▁stretch	-10.9875
▁emphasize	-10.9876
▁buses	-10.9876
▁Super	-10.9884
▁greenhouse	-10.9887
▁beer	-10.9896
▁pain	-10.9898
▁exhibit	-10.9899
▁2.0	-10.99
▁quantity	-10.9905
▁nobody	-10.9905
▁variable	-10.991
▁Staff	-10.9916
▁electoral	-10.9918
▁destinations	-10.9919
▁semi	-10.9926
▁deserve	-10.9927
▁Du	-10.9929
▁Studio	-10.9932
▁withdrawal	-10.9933
▁beef	-10.9935
tal	-10.9935
▁duration	-10.9936
▁Marina	-10.9942
▁integrity	-10.9949
▁tough	-10.9954
▁poker	-10.9959
▁Gaza	-10.9967
▁Search	-10.9968
▁deny	-10.9975
▁Blue	-10.9978
by	-10.9978
▁Charles	-10.998
▁formula	-10.9984
▁Pacific	-10.9985
▁Greens	-10.9986
▁Access	-10.9986
▁carrie	-10.9986
▁interactive	-10.999
▁Inter	-10.9992
▁estimate	-10.9996
▁illustrate	-10.9998
▁stopped	-10.9999
▁Las	-11.0001
▁mirror	-11.0001
▁Gentoo	-11.0003
▁painting	-11.0006
▁losing	-11.0007
▁stimulate	-11.0007
▁Storage	-11.0007
▁James	-11.0009
▁transit	-11.001
▁Opera	-11.0012
▁healthcare	-11.0017
▁Communist	-11.0018
▁torture	-11.0019
que	-11.0026
ON	-11.0032
▁Finnis	-11.0032
▁profound	-11.0034
▁yield	-11.0038
▁letters	-11.004
▁Lo	-11.0041
▁interview	-11.0041
▁constructed	-11.0045
▁retail	-11.0045
▁bureaucrac	-11.0048
▁investigate	-11.0048
▁renewed	-11.0054
▁Location	-11.0064
▁identification	-11.0066
▁split	-11.0066
▁freight	-11.007
▁booked	-11.0072
▁Partnership	-11.0075
▁conversion	-11.0079
everal	-11.0081
▁spiritual	-11.0084
▁insight	-11.0085
▁senior	-11.0089
▁hesitate	-11.0089
▁automotive	-11.0093
▁OR	-11.0094
▁Gran	-11.0095
▁sailing	-11.0096
▁precision	-11.0102
▁authors	-11.0107
▁pools	-11.0111
▁Mobile	-11.0114
▁sky	-11.0117
body	-11.0118
▁knew	-11.0121
▁crystal	-11.0121
▁si	-11.0122
gen	-11.0123
▁Experience	-11.013
▁behavior	-11.0133
▁commerce	-11.0136
▁Sol	-11.0136
▁Budapest	-11.0139
▁academic	-11.0139
▁beneficial	-11.0139
▁99	-11.0142
▁architectural	-11.0143
▁newspaper	-11.0143
▁objection	-11.0145
▁belongs	-11.0148
▁bug	-11.0149
▁translat	-11.0151
▁postal	-11.0155
▁ratifi	-11.0158
▁soldiers	-11.0159
▁believes	-11.0163
ol	-11.0165
▁inner	-11.0169
▁publishing	-11.0172
▁reflection	-11.0174
▁trigger	-11.0176
▁Youth	-11.0178
▁chat	-11.0183
▁noon	-11.0184
▁Milan	-11.0185
▁ball	-11.0194
▁Society	-11.0195
▁conviction	-11.0213
▁1.5	-11.0213
▁granting	-11.0214
▁Process	-11.0214
▁refus	-11.0217
▁precious	-11.0221
ga	-11.0223
▁earn	-11.0226
▁buying	-11.0228
▁monuments	-11.0232
▁civilian	-11.0233
▁ideally	-11.0234
▁wise	-11.0238
▁Washington	-11.0239
▁sessions	-11.024
▁twin	-11.0241
▁acquire	-11.0253
▁territories	-11.0253
▁cancelled	-11.0255
▁salt	-11.0256
▁prestigious	-11.0262
▁researchers	-11.0267
▁machinery	-11.0269
▁Sport	-11.027
▁defin	-11.0273
▁bay	-11.0279
▁Ko	-11.0282
▁virus	-11.0284
▁surveillance	-11.0286
▁adjustment	-11.0293
▁paths	-11.03
▁Growth	-11.0304
▁premium	-11.031
▁39	-11.0312
▁reiterate	-11.0313
ise	-11.0313
▁dimensions	-11.0317
▁winner	-11.0321
▁score	-11.0324
viable	-11.0331
▁entail	-11.0332
▁moments	-11.0333
▁Sie	-11.0334
▁Joint	-11.034
▁organize	-11.0342
▁Land	-11.0344
▁staying	-11.0346
▁delays	-11.0347
▁faces	-11.0348
▁Cologne	-11.0351
▁affordable	-11.0353
▁loans	-11.0353
▁suspended	-11.0354
▁shock	-11.0364
▁44	-11.0367
▁silence	-11.037
▁Left	-11.0379
▁pensions	-11.038
▁multinational	-11.0388
▁Salzburg	-11.0388
▁favourite	-11.0389
▁configure	-11.0392
▁Maastricht	-11.0393
▁Recent	-11.0393
▁r	-11.0401
▁Road	-11.0402
▁officially	-11.0414
▁deploy	-11.0415
▁Zurich	-11.0421
▁exposure	-11.0421
▁recession	-11.0421
▁realize	-11.0421
▁doubts	-11.0424
▁Hostelsclub	-11.0425
▁purchas	-11.0428
ik	-11.0429
▁founder	-11.0431
▁exhibitions	-11.0434
▁alarm	-11.0438
▁strive	-11.044
▁presidential	-11.044
berg	-11.0444
▁Show	-11.0445
▁Digital	-11.0454
▁Wall	-11.0458
ac	-11.0458
▁conservation	-11.0458
▁harbour	-11.0459
▁notion	-11.0461
▁pressing	-11.0461
▁employers	-11.0463
▁Empire	-11.0468
▁installations	-11.0469
▁corporation	-11.0472
▁hop	-11.0478
▁Ka	-11.0478
▁chose	-11.0482
▁Top	-11.0486
▁z	-11.0487
▁Website	-11.0502
▁worrying	-11.0504
bar	-11.051
▁reporting	-11.0516
▁logistics	-11.0519
▁airline	-11.0519
▁deliberate	-11.0524
▁attribute	-11.0526
ado	-11.0527
▁preparations	-11.0528
▁Modern	-11.0528
▁hospital	-11.0529
▁relaxed	-11.0529
▁grand	-11.0531
▁certainty	-11.0532
▁silver	-11.0534
▁acid	-11.0534
▁predict	-11.0537
▁Pack	-11.0539
▁confident	-11.0543
▁dual	-11.0545
▁Mo	-11.0547
▁Christ	-11.0552
▁injur	-11.0555
▁Hour	-11.0555
▁unknown	-11.0558
▁ha	-11.0561
▁palace	-11.0562
▁Until	-11.0564
▁Rural	-11.0567
▁Sony	-11.0575
ada	-11.0576
▁mandator	-11.0577
credible	-11.0579
▁flying	-11.0581
▁concerts	-11.0586
▁parks	-11.0592
▁transfers	-11.0593
▁Thomas	-11.06
▁Southern	-11.0601
▁BSE	-11.0605
▁feedback	-11.0605
ory	-11.0606
▁uncertainty	-11.0615
▁indicators	-11.0619
▁Contact	-11.0623
▁experienc	-11.0628
▁authentic	-11.0628
▁brands	-11.0632
▁revealed	-11.0633
▁citizenship	-11.0634
▁Europol	-11.0636
▁daughter	-11.0643
▁literature	-11.0653
▁lo	-11.0659
▁Islam	-11.0661
▁photographs	-11.0663
▁puts	-11.0665
▁applicant	-11.0671
▁supervisor	-11.0672
▁64	-11.0674
mar	-11.0675
▁copie	-11.0675
▁merit	-11.0675
▁invoice	-11.0676
▁creature	-11.0681
▁deem	-11.0703
▁systematic	-11.0705
▁cease	-11.0715
▁rating	-11.0729
▁coal	-11.073
▁Which	-11.0735
▁denie	-11.0736
▁alike	-11.0738
▁signing	-11.074
▁signals	-11.0747
▁speeche	-11.0749
▁forth	-11.0752
▁strange	-11.0753
▁optional	-11.0754
▁sur	-11.0757
▁dog	-11.0762
▁Investment	-11.0764
sen	-11.0766
▁Quark	-11.0769
rew	-11.077
hotel	-11.0778
lin	-11.0782
▁publications	-11.0787
▁stance	-11.0788
▁judgment	-11.0799
▁Monte	-11.0799
▁angle	-11.08
▁victim	-11.0804
▁Deposit	-11.0806
▁praise	-11.0817
▁Adobe	-11.0827
▁Bureau	-11.0835
▁op	-11.0837
▁dictatorship	-11.0842
▁sequence	-11.0846
▁detect	-11.0848
▁Di	-11.0853
▁moderate	-11.0858
▁measuring	-11.0861
▁pop	-11.0866
▁prevented	-11.0866
▁essence	-11.0871
▁keen	-11.0872
▁closing	-11.0876
▁leather	-11.0876
▁Conditions	-11.0877
▁Mark	-11.0878
▁Freedom	-11.0881
▁Series	-11.0884
▁Les	-11.0887
▁Burma	-11.0888
▁clothing	-11.0891
▁mistakes	-11.0899
▁Putin	-11.0906
ski	-11.091
▁challeng	-11.0914
▁procurement	-11.0915
▁visitor	-11.0918
▁Master	-11.092
▁flash	-11.0922
▁placing	-11.0929
▁surplus	-11.093
▁hole	-11.0933
▁43	-11.0933
▁flag	-11.0934
▁magic	-11.0935
▁farms	-11.0937
▁Per	-11.0942
long	-11.0945
▁ring	-11.0958
▁proximity	-11.096
▁Golden	-11.096
▁Lithuania	-11.096
▁churches	-11.0967
▁laser	-11.0972
▁premises	-11.0972
▁cooking	-11.0976
ya	-11.0976
▁arbitrar	-11.0981
▁drinking	-11.0982
▁honor	-11.0983
▁supplementar	-11.0984
▁initiated	-11.0986
▁endeavour	-11.0988
▁ends	-11.099
▁blow	-11.0993
▁catering	-11.0994
▁Slovenia	-11.0995
▁formation	-11.0995
board	-11.1001
▁Ski	-11.1002
▁lovers	-11.1002
▁horizontal	-11.101
▁chamber	-11.1014
▁AIDS	-11.1014
▁qualifications	-11.1015
▁movies	-11.102
▁toilet	-11.1028
▁receipt	-11.1029
▁chemicals	-11.103
▁Anti	-11.1037
▁tone	-11.104
▁statistical	-11.1042
▁fails	-11.1044
▁Yugoslavia	-11.1045
▁hopes	-11.1045
▁prominent	-11.1049
ki	-11.1052
stantly	-11.1055
ize	-11.1056
▁terminal	-11.1059
▁garage	-11.1064
▁conventions	-11.1067
▁elderly	-11.1074
▁releases	-11.1075
▁occurs	-11.1077
▁resist	-11.1084
▁Test	-11.109
▁Four	-11.109
▁claimed	-11.1095
▁trains	-11.1097
▁tropical	-11.1099
▁integral	-11.11
▁Light	-11.1101
▁approx	-11.1109
▁Canon	-11.111
▁charter	-11.1114
▁Malta	-11.1118
▁inclusive	-11.1119
▁seconds	-11.1122
▁editor	-11.1122
▁intelligence	-11.1124
ut	-11.1125
▁beings	-11.1126
▁intense	-11.1132
▁adaptation	-11.1139
▁eine	-11.1142
▁biodiversit	-11.1145
▁imbalance	-11.1145
tre	-11.1149
▁fitted	-11.115
▁disappear	-11.1151
▁Order	-11.1151
ite	-11.1154
▁creativity	-11.1155
▁Choose	-11.1158
▁imposing	-11.1159
▁piano	-11.1162
▁shot	-11.1169
ari	-11.1173
▁downloaded	-11.1174
▁Tuesday	-11.1175
▁robust	-11.1175
▁patents	-11.1176
▁kill	-11.118
▁paradise	-11.118
▁Syria	-11.1184
▁workshop	-11.1187
▁demographic	-11.119
▁boundar	-11.1192
▁designer	-11.1194
▁inspir	-11.1197
▁assured	-11.1199
▁Obvious	-11.1205
▁Everything	-11.1205
▁ambition	-11.1208
▁est	-11.1209
▁rescue	-11.121
ster	-11.1214
▁humanity	-11.1218
ent	-11.1219
▁Science	-11.122
▁burn	-11.1221
▁decoration	-11.1221
▁excess	-11.1225
▁Iranian	-11.1234
▁Apple	-11.1239
▁heated	-11.1243
▁decent	-11.1243
▁wake	-11.125
▁Con	-11.1262
▁bread	-11.127
▁icon	-11.1272
▁specialities	-11.1274
▁sweet	-11.1274
▁2012	-11.1274
▁sofa	-11.1276
▁tolerance	-11.1276
▁College	-11.1277
▁transformation	-11.1277
▁notification	-11.1284
▁Democratic	-11.1288
sch	-11.1293
▁Scotland	-11.1297
▁swift	-11.1297
▁opens	-11.1298
▁drives	-11.13
▁warmly	-11.1306
▁licence	-11.1311
▁partial	-11.1311
▁bill	-11.1315
▁blend	-11.1328
▁je	-11.1329
▁emission	-11.1332
▁Press	-11.1336
▁exemption	-11.134
▁crossing	-11.1345
ix	-11.1353
▁rigorous	-11.1353
▁unilateral	-11.1358
▁Argentina	-11.1358
▁handled	-11.1362
▁subscribe	-11.1362
▁Stockholm	-11.1364
ach	-11.1365
▁preliminar	-11.1369
▁authorisation	-11.1371
▁deficits	-11.1373
▁photographer	-11.1379
▁Shop	-11.1384
▁unemployed	-11.1384
▁choos	-11.1389
▁peak	-11.139
▁convey	-11.1397
unity	-11.1402
▁workshops	-11.1403
▁Come	-11.1405
▁tribute	-11.1405
▁Ro	-11.1414
iness	-11.1415
▁respectively	-11.142
▁phones	-11.1424
▁treaties	-11.1425
▁graphic	-11.1428
▁Mean	-11.1432
▁evolution	-11.1441
▁makers	-11.1441
▁stops	-11.1443
0	-11.1443
▁Nordic	-11.1443
▁specifications	-11.1447
▁coverage	-11.1449
▁innovations	-11.1449
▁biological	-11.145
▁worry	-11.1453
▁Hostel	-11.1459
▁Casa	-11.146
▁expanding	-11.1461
▁warrant	-11.1462
▁desirable	-11.1462
▁failing	-11.1467
che	-11.147
▁hopeful	-11.147
▁Far	-11.1471
▁BMW	-11.1478
▁centers	-11.1482
▁posts	-11.1487
▁controversial	-11.1506
je	-11.1511
▁disputes	-11.1513
▁stroll	-11.1514
▁handed	-11.1516
▁signature	-11.1516
▁Right	-11.1527
▁contest	-11.1528
▁male	-11.1529
▁comparable	-11.1531
▁cache	-11.1531
▁terrorists	-11.1533
▁Kirk	-11.1535
▁Guide	-11.1543
▁killing	-11.1546
▁Content	-11.1556
▁che	-11.1559
▁visits	-11.1562
▁Image	-11.1569
▁harmony	-11.1572
car	-11.1573
ä	-11.1575
▁structured	-11.158
▁Elevator	-11.1582
▁Radio	-11.1591
▁Bo	-11.1591
▁dem	-11.1592
▁Defence	-11.1593
▁Allow	-11.1594
▁answered	-11.1599
▁Er	-11.16
▁optical	-11.1603
▁deaths	-11.1607
▁divide	-11.1607
▁entrie	-11.1608
▁Cathedral	-11.1609
▁dating	-11.1611
▁fate	-11.1612
▁respects	-11.1613
▁lifestyle	-11.162
▁evil	-11.162
▁rear	-11.1626
▁hide	-11.1639
▁zones	-11.164
▁breathtaking	-11.164
▁row	-11.1648
▁distortion	-11.1649
▁arts	-11.1649
▁1960	-11.1652
▁recipient	-11.1656
▁Il	-11.1659
▁scenery	-11.1668
▁Iraqi	-11.1677
▁marquis	-11.1678
▁voters	-11.1678
▁settled	-11.1682
▁arm	-11.1682
▁Puerto	-11.1683
▁Jan	-11.1685
▁deriv	-11.1685
▁crops	-11.1686
▁stayed	-11.1688
▁turns	-11.1698
▁pan	-11.1701
▁findings	-11.1707
▁chocolate	-11.1711
▁parameter	-11.1715
▁contradiction	-11.1722
▁appreciated	-11.1723
▁incorrect	-11.1726
▁wording	-11.1728
▁confusion	-11.1731
▁Organization	-11.1731
▁bureaucratic	-11.1732
▁downtown	-11.1732
▁pursuan	-11.1733
▁MS	-11.1738
▁setup	-11.1743
▁disappointed	-11.1749
▁supplement	-11.1755
▁tips	-11.1758
▁photography	-11.1762
ard	-11.1769
▁Cross	-11.1771
▁ultra	-11.1774
▁encounter	-11.1774
▁agent	-11.1776
▁Along	-11.1779
▁passport	-11.178
▁diet	-11.178
▁neglect	-11.1784
▁extract	-11.1788
▁executed	-11.1795
▁lighting	-11.1801
▁belonging	-11.1803
▁slot	-11.1804
▁Play	-11.1806
▁Technical	-11.1812
▁brain	-11.1813
▁battery	-11.1814
▁exclude	-11.1818
▁Lebanon	-11.1823
▁displays	-11.1824
▁perspectives	-11.1828
▁substantially	-11.183
ini	-11.1832
ium	-11.1832
▁delicate	-11.1833
▁automation	-11.1838
▁Discover	-11.1839
▁controlling	-11.1839
▁Labour	-11.1844
▁chairs	-11.1847
▁inspire	-11.185
▁admitted	-11.1851
▁tailored	-11.1852
▁Luggage	-11.1854
and	-11.1857
▁finest	-11.1862
ola	-11.1862
▁colonial	-11.1864
stra	-11.1865
▁login	-11.1865
▁lesson	-11.1866
▁Tor	-11.1867
▁dollars	-11.188
▁Rio	-11.1881
▁Citizens	-11.1881
▁SAP	-11.1882
▁variation	-11.1893
lt	-11.1893
▁isolated	-11.1896
▁advisor	-11.1898
▁genetic	-11.1898
▁Easy	-11.1903
▁outline	-11.1907
▁degrees	-11.1907
▁700	-11.1917
▁Apartment	-11.192
▁giant	-11.192
▁platforms	-11.192
▁Program	-11.1922
▁measured	-11.1927
▁exert	-11.1928
▁Everyone	-11.1937
▁Socialists	-11.1937
▁highway	-11.1944
▁HTML	-11.195
▁Beijing	-11.1952
▁simplification	-11.1953
wa	-11.1955
▁lets	-11.1957
▁undertakings	-11.1959
▁Hans	-11.1963
▁Macedonia	-11.1964
▁rejection	-11.1971
▁birds	-11.1973
▁regrettable	-11.1973
▁invitation	-11.1979
▁prohibited	-11.1989
▁Edition	-11.1992
▁fulfilled	-11.1992
▁clarification	-11.1996
▁pm	-11.1997
▁brutal	-11.2002
pm	-11.2005
▁dumping	-11.201
▁sporting	-11.2014
▁pact	-11.2014
▁neutral	-11.2015
▁lakes	-11.2028
tor	-11.2032
▁yellow	-11.2035
▁balanc	-11.2035
con	-11.2037
▁translator	-11.2041
▁160	-11.2042
▁Gulf	-11.2044
▁incredible	-11.2045
▁incentive	-11.2045
▁fault	-11.2045
▁multimedia	-11.2046
▁indirect	-11.2051
▁Ni	-11.2052
ted	-11.2052
▁ge	-11.2056
▁reverse	-11.2058
▁Hence	-11.2058
▁defense	-11.2062
vis	-11.2067
▁League	-11.2073
▁racism	-11.2073
▁linguistic	-11.2074
▁Training	-11.2075
▁Sometime	-11.2075
▁avoided	-11.2078
▁Palestine	-11.2079
▁spell	-11.2083
▁fifteen	-11.2084
▁Head	-11.2087
▁declarations	-11.209
▁shortcomings	-11.2096
▁unions	-11.2098
▁outset	-11.2098
▁paintings	-11.2099
ny	-11.211
▁85	-11.2112
▁jump	-11.2113
▁drafting	-11.2113
▁ne	-11.2119
▁petition	-11.2121
▁branches	-11.2121
▁auction	-11.2127
▁iPhone	-11.2129
▁disagree	-11.2133
ino	-11.2133
▁History	-11.2135
▁inquiry	-11.2135
▁instant	-11.2135
▁gym	-11.2138
▁eliminat	-11.2141
▁watching	-11.2146
▁keys	-11.2155
▁Declaration	-11.2162
▁complexity	-11.2163
▁Hamas	-11.2165
▁closure	-11.2168
▁conjunction	-11.2168
▁autonomy	-11.2169
▁Peace	-11.217
▁characterized	-11.2171
▁punish	-11.2177
▁Am	-11.2181
▁automated	-11.2183
▁modest	-11.2184
▁lens	-11.2185
▁Professional	-11.2186
▁California	-11.2191
▁offence	-11.2202
▁enlarg	-11.2203
▁Bus	-11.2204
▁Film	-11.2206
▁papers	-11.2206
▁prerequisite	-11.2207
▁absorb	-11.2208
▁pose	-11.2209
▁subsidiary	-11.2212
▁kids	-11.2217
▁Albania	-11.2219
▁fallen	-11.2222
▁alleged	-11.2223
▁equity	-11.2224
izing	-11.2226
▁marriage	-11.2229
▁Captain	-11.2229
Z	-11.2232
▁monitored	-11.2237
op	-11.2237
▁guidance	-11.2241
▁41	-11.2248
▁transatlantic	-11.2252
stood	-11.2254
▁Da	-11.2257
▁Force	-11.226
▁Zimbabwe	-11.2267
▁warming	-11.2268
▁plate	-11.2272
netheless	-11.2273
▁adverse	-11.2274
▁identical	-11.228
▁Sudan	-11.2282
▁Si	-11.2288
▁wages	-11.2289
▁gather	-11.2289
▁interaction	-11.229
▁restoration	-11.2292
▁officer	-11.2292
▁survival	-11.2303
▁Nonetheless	-11.2305
▁Industrial	-11.2308
▁rational	-11.231
mer	-11.231
▁brochure	-11.2314
▁Norway	-11.2314
▁socio	-11.2316
▁realized	-11.2318
▁subscription	-11.2326
▁admire	-11.2331
▁Tyrol	-11.2331
▁explains	-11.2331
▁stream	-11.2335
▁downloading	-11.2344
▁penalties	-11.2348
▁undertaking	-11.2353
▁Supervisor	-11.2359
pa	-11.2361
ham	-11.2362
▁News	-11.2364
▁pine	-11.2366
▁dust	-11.2371
▁flowers	-11.2374
▁tape	-11.2375
▁abandoned	-11.2378
▁Big	-11.2379
▁sacrifice	-11.2381
▁2.5	-11.2388
▁defects	-11.2398
▁partnerships	-11.2399
▁List	-11.2399
tra	-11.2403
30	-11.2406
ntergovernmental	-11.2407
▁excuse	-11.2411
▁liquid	-11.2412
▁Engineer	-11.2412
▁46	-11.2414
▁celebrated	-11.2418
▁tension	-11.2419
▁Close	-11.2422
▁Pi	-11.2428
▁finances	-11.243
▁EN	-11.2431
▁pride	-11.2434
▁seminars	-11.2435
urozone	-11.2438
▁homepage	-11.244
▁editing	-11.2444
▁filling	-11.2447
▁opera	-11.2447
▁enforce	-11.2448
▁elite	-11.2449
▁lock	-11.2451
▁striking	-11.2451
▁golden	-11.2451
▁consistenc	-11.2455
▁Turn	-11.2464
▁wir	-11.2464
▁weapon	-11.2465
▁maps	-11.2467
▁venture	-11.2467
▁separately	-11.2467
▁Playa	-11.2474
.1	-11.2476
uk	-11.2477
▁tremendous	-11.248
▁vegetables	-11.2486
▁Naturally	-11.2488
▁construct	-11.2489
▁Iron	-11.2496
▁estimat	-11.2498
ron	-11.2498
▁47	-11.2498
▁Tibet	-11.2506
▁Work	-11.2511
▁adjusted	-11.2513
▁Net	-11.2521
▁brother	-11.2521
▁circulation	-11.2523
▁CEO	-11.2533
▁favor	-11.2548
ren	-11.2548
▁congratulation	-11.2549
▁infection	-11.2549
▁trails	-11.255
ries	-11.2552
▁Call	-11.2553
▁grass	-11.2554
▁Ocean	-11.2555
▁Indonesia	-11.2556
▁boxes	-11.2556
▁minimal	-11.2559
▁calculated	-11.2568
ul	-11.2569
▁camps	-11.2571
▁craft	-11.2575
ano	-11.2578
▁CS	-11.2582
▁Above	-11.2584
▁requir	-11.2586
▁ca	-11.2587
▁spots	-11.2594
▁reproduction	-11.2596
▁searching	-11.2598
▁rose	-11.2599
▁bet	-11.2603
▁quantities	-11.2607
▁departments	-11.2612
▁Catholic	-11.2613
▁mining	-11.2613
▁culinar	-11.2613
▁Thailand	-11.2613
▁Region	-11.2618
▁nicht	-11.2619
▁upcom	-11.2622
▁sustain	-11.2623
▁shareholders	-11.2625
▁Rock	-11.2625
▁exceptions	-11.2637
ors	-11.2638
▁Max	-11.2644
▁exploring	-11.2648
out	-11.2648
▁directions	-11.2652
▁alliance	-11.2657
▁ending	-11.2664
▁Mail	-11.2666
▁drafted	-11.2672
▁Coast	-11.2678
▁Der	-11.2678
the	-11.2679
▁interim	-11.2682
▁Reform	-11.2683
▁recycling	-11.2684
▁murder	-11.2687
▁bag	-11.2689
▁Client	-11.2691
▁preferences	-11.2692
▁refund	-11.2693
▁seminar	-11.2693
▁thin	-11.2694
▁Friendly	-11.2694
fer	-11.2698
▁sheets	-11.2705
▁sad	-11.2706
ED	-11.2709
port	-11.271
▁Long	-11.2711
▁Stuttgart	-11.2713
▁cargo	-11.2715
▁conveniently	-11.2715
▁tech	-11.2717
▁Danube	-11.2718
▁enemy	-11.2718
▁hat	-11.272
▁fix	-11.2721
12	-11.2722
▁assumed	-11.2725
▁vertical	-11.273
▁lacking	-11.2731
▁occasional	-11.2735
▁About	-11.2736
▁harmonis	-11.2743
▁keeps	-11.2743
▁HD	-11.2745
▁della	-11.2746
▁tab	-11.2748
▁XP	-11.275
▁dive	-11.275
▁Spring	-11.2751
ang	-11.2753
▁demonstration	-11.276
▁Game	-11.2763
▁Chi	-11.2763
▁enthusiasm	-11.2766
▁sustained	-11.2766
▁dozen	-11.2767
▁Na	-11.2767
▁founding	-11.2771
▁telling	-11.2778
▁optimum	-11.2778
res	-11.278
era	-11.2781
▁reinforc	-11.2782
▁defending	-11.2784
▁optimize	-11.2785
▁endless	-11.279
▁DS	-11.2796
▁vicinity	-11.2796
▁ocean	-11.28
▁overwhelming	-11.2801
▁End	-11.2804
▁continuation	-11.2807
▁concentrated	-11.2808
▁bare	-11.281
▁theoretical	-11.2813
▁Chief	-11.2813
▁License	-11.2819
▁concession	-11.2819
▁unlimited	-11.2819
▁unstable	-11.2819
▁participated	-11.282
▁carrier	-11.2823
▁Alpine	-11.2827
ification	-11.2829
▁SV	-11.2838
▁District	-11.2843
▁workplace	-11.285
▁isolation	-11.2855
▁booth	-11.2858
▁checking	-11.2858
▁fuels	-11.2863
▁Mon	-11.2871
▁Su	-11.2876
▁Pa	-11.2877
▁conscious	-11.2878
▁norm	-11.288
▁Again	-11.2881
▁Natural	-11.2888
▁distribute	-11.289
▁acquis	-11.2891
▁owe	-11.2892
▁cope	-11.2893
▁transmitt	-11.2896
▁Residence	-11.2897
▁refined	-11.2899
▁themes	-11.2903
▁pixel	-11.2903
▁EMU	-11.2904
▁Plus	-11.2905
▁FOR	-11.2907
▁twelve	-11.2909
▁Joseph	-11.2909
▁warranty	-11.2909
▁Ideal	-11.2911
▁girl	-11.2919
▁Richard	-11.2921
▁Libya	-11.2922
▁Rental	-11.2928
▁clothes	-11.2936
▁afterward	-11.2938
▁dominate	-11.2939
▁justification	-11.2939
▁passes	-11.2942
▁desert	-11.2942
▁grave	-11.2944
▁earthquake	-11.2945
▁exchanges	-11.2946
▁café	-11.2948
▁Anonymous	-11.2951
▁LateRooms	-11.2951
▁discovery	-11.2955
▁Te	-11.2964
▁Ten	-11.2969
▁tangible	-11.297
▁Ho	-11.2972
▁sponsor	-11.2975
▁WC	-11.2978
▁IV	-11.2984
▁indicat	-11.2986
▁mailing	-11.299
▁Romanian	-11.2993
▁Vista	-11.2995
▁modes	-11.2996
▁Tower	-11.2997
▁remov	-11.2997
▁officers	-11.2999
▁Could	-11.3
▁translations	-11.3005
▁determin	-11.3005
▁sensitivit	-11.3006
▁advertisement	-11.3006
▁52	-11.3006
▁pays	-11.3014
▁um	-11.3016
▁distinct	-11.3016
▁abolition	-11.3018
▁cinema	-11.3022
▁landscapes	-11.3022
▁newspapers	-11.3024
▁Professor	-11.3024
▁wars	-11.3024
▁receives	-11.3025
▁fears	-11.303
▁Line	-11.3036
▁dial	-11.3037
▁frank	-11.3038
▁Ba	-11.304
▁trademarks	-11.3044
▁Double	-11.3048
▁fi	-11.3051
ful	-11.3051
▁evaluat	-11.3053
▁Bridge	-11.3053
▁unprecedented	-11.3054
▁temple	-11.3061
▁FI	-11.3062
▁employee	-11.3065
▁coalition	-11.3067
▁attain	-11.3067
▁joy	-11.3072
▁absurd	-11.3073
▁thoughts	-11.3074
▁Account	-11.3074
▁alive	-11.3074
▁consolidation	-11.3079
▁Jo	-11.3085
▁sightseeing	-11.3085
▁stem	-11.3095
▁dominant	-11.3098
▁migrants	-11.3099
▁HU	-11.31
▁trademark	-11.3101
bo	-11.3103
stock	-11.3107
▁pump	-11.3108
▁steep	-11.3109
▁Bed	-11.3113
▁keyboard	-11.3114
▁crash	-11.3114
▁ambience	-11.3116
▁Ad	-11.3118
▁UNESCO	-11.3122
▁competitors	-11.3122
▁arrested	-11.3128
di	-11.3135
▁Sky	-11.3136
▁preventive	-11.3144
▁smoke	-11.3147
owing	-11.3149
▁clearer	-11.315
▁Communication	-11.3151
▁suspension	-11.3152
▁CHF	-11.3153
▁consum	-11.3154
▁venue	-11.3158
▁Change	-11.3159
▁distort	-11.3161
▁inspiration	-11.3164
▁Millennium	-11.3165
▁engagement	-11.3173
▁specialis	-11.3176
▁excellence	-11.3189
▁capaciti	-11.319
64	-11.3193
▁graduate	-11.3193
▁emotional	-11.3205
▁guides	-11.321
implies	-11.3211
▁aggressive	-11.3214
▁Tel	-11.3218
▁Fourth	-11.3218
▁arriv	-11.3219
▁capability	-11.3221
▁hosts	-11.3221
min	-11.3223
▁plane	-11.3224
▁verify	-11.3228
▁gathered	-11.3229
▁socialist	-11.3231
▁missions	-11.3234
▁Tunisia	-11.3234
▁earned	-11.3238
▁Ch	-11.3241
▁breaking	-11.3241
nowadays	-11.3245
▁evolve	-11.3251
▁laboratory	-11.3251
▁Working	-11.3252
▁stringent	-11.3252
▁treasure	-11.3253
▁eco	-11.3254
ex	-11.3258
▁grants	-11.326
▁Holy	-11.3271
▁commend	-11.3279
▁Adriatic	-11.3284
▁Photo	-11.3287
▁admission	-11.3295
▁vice	-11.3296
▁noticed	-11.3296
▁flood	-11.3308
▁Moldova	-11.3309
▁fabric	-11.3313
ice	-11.3315
▁authoris	-11.3316
▁Nature	-11.3318
▁embedded	-11.332
▁cycling	-11.332
▁Korean	-11.3321
▁une	-11.3321
▁Regard	-11.3322
▁assumption	-11.3333
▁Rath	-11.3336
▁indigenous	-11.3339
▁antique	-11.334
▁codes	-11.3344
▁stakeholders	-11.3347
▁teach	-11.3348
▁boom	-11.3351
▁Country	-11.3352
▁Nord	-11.3352
▁Nero	-11.3355
▁Basic	-11.3356
▁globalization	-11.3357
ju	-11.3362
▁associate	-11.3362
▁radiation	-11.3364
▁ideological	-11.3365
▁motions	-11.3365
▁Excellent	-11.3365
▁Partner	-11.3367
beit	-11.3367
▁winners	-11.3368
eth	-11.3369
▁Caribbean	-11.337
▁motivated	-11.3373
ng	-11.3373
sk	-11.3376
▁silent	-11.3377
▁ratify	-11.3377
▁married	-11.3378
▁audit	-11.3379
▁partially	-11.338
▁Po	-11.3381
▁camping	-11.3382
▁Near	-11.3384
▁confidential	-11.3385
▁agrees	-11.3386
▁Library	-11.3389
40	-11.3393
▁rivers	-11.3393
▁Village	-11.34
▁resorts	-11.34
▁width	-11.34
▁Men	-11.3405
▁ambitions	-11.3405
▁separation	-11.3409
▁labels	-11.341
▁presentations	-11.3413
▁cure	-11.3416
ated	-11.3432
▁literal	-11.3439
▁volunteer	-11.344
▁appreciation	-11.344
▁finishing	-11.3449
▁51	-11.3468
▁dress	-11.3471
▁permits	-11.3478
▁struck	-11.3478
▁investigations	-11.3479
▁missed	-11.3479
▁trail	-11.348
▁imperative	-11.3484
▁pack	-11.3484
▁estimates	-11.3485
▁musicians	-11.349
▁automobile	-11.3491
▁kilometers	-11.3494
▁vessel	-11.3495
▁communist	-11.3498
ker	-11.3499
▁countless	-11.3499
ara	-11.3506
▁climbing	-11.3507
▁Trans	-11.3514
▁passage	-11.3515
▁autonomous	-11.3516
▁symbolic	-11.3518
▁Louis	-11.3518
ssigned	-11.3524
▁eating	-11.3525
▁eligible	-11.3526
▁grade	-11.3528
▁reconciliation	-11.3529
▁Hi	-11.3529
▁genetically	-11.353
▁designers	-11.3535
▁vineyards	-11.3535
▁congratulat	-11.3535
▁solving	-11.3535
▁dossier	-11.3535
▁Win	-11.3538
▁younger	-11.3539
▁oder	-11.3539
▁plugin	-11.3542
▁loading	-11.355
▁railways	-11.3552
▁Alexander	-11.3555
▁Ukrainian	-11.3555
▁mineral	-11.3555
▁securiti	-11.3555
▁districts	-11.3559
zo	-11.356
▁summary	-11.3561
▁gear	-11.3562
▁54	-11.3565
are	-11.357
ji	-11.3575
▁prevail	-11.358
▁persuade	-11.3593
▁Arts	-11.3593
▁damaging	-11.36
▁hectares	-11.36
▁tiny	-11.3601
▁demanded	-11.3601
po	-11.3603
▁Lab	-11.3604
▁utility	-11.3609
▁wedding	-11.3618
ho	-11.3618
▁fa	-11.3619
▁luggage	-11.3619
▁Jesus	-11.3626
▁derogation	-11.3626
▁Later	-11.3629
▁Annual	-11.3632
▁universe	-11.3632
▁allowance	-11.3634
▁offset	-11.3634
▁Has	-11.3634
▁featured	-11.3636
▁Cold	-11.3637
▁profiles	-11.3638
vo	-11.364
▁Gallery	-11.3647
▁Jews	-11.3654
▁chef	-11.3655
▁supermarket	-11.3658
▁random	-11.3658
▁juice	-11.3663
▁administer	-11.3664
▁vot	-11.3671
▁tip	-11.3672
▁qualitie	-11.3674
▁tram	-11.3674
▁uphold	-11.3675
▁discretion	-11.3676
ero	-11.3676
▁mild	-11.3682
▁fat	-11.3684
▁Estonia	-11.3685
▁licens	-11.3686
▁scandal	-11.369
istic	-11.3693
how	-11.3694
▁loud	-11.3698
▁Language	-11.3699
ica	-11.3707
haus	-11.3709
▁ties	-11.3709
cha	-11.3713
▁Lu	-11.3715
▁Jerusalem	-11.3716
▁focuse	-11.3717
▁cooling	-11.372
▁Piazza	-11.3722
▁Heritage	-11.3723
▁Karl	-11.3725
▁boards	-11.3725
▁Suites	-11.3733
▁enrich	-11.3738
▁terror	-11.3741
▁knowing	-11.3749
cher	-11.3754
▁broadcast	-11.3755
▁college	-11.3755
▁intimate	-11.3755
ure	-11.3756
▁controller	-11.3759
▁Metro	-11.3765
▁routine	-11.3771
▁democrat	-11.3773
▁Exhibition	-11.3775
▁Warcraft	-11.3775
ware	-11.3776
▁dangers	-11.378
▁activate	-11.378
ars	-11.378
▁hairdryer	-11.3782
▁altitude	-11.3782
▁coherence	-11.3782
▁interference	-11.3788
▁Summer	-11.3789
▁bases	-11.3792
▁household	-11.3795
▁printer	-11.3796
▁fires	-11.38
▁borne	-11.3801
▁scenes	-11.3803
▁secur	-11.3804
▁safely	-11.3808
▁investigat	-11.3813
▁Innovation	-11.3814
▁constraints	-11.3817
gaming	-11.3817
▁Cultural	-11.3821
▁ranking	-11.3822
▁actor	-11.3823
▁gains	-11.3826
▁seaside	-11.3827
▁cooperative	-11.3828
▁responses	-11.3834
▁embark	-11.3834
▁Between	-11.3834
35	-11.3839
▁secured	-11.3845
▁forums	-11.3845
▁Back	-11.3846
stein	-11.3846
worthy	-11.3847
▁Statute	-11.3847
▁Products	-11.3849
▁PSE	-11.385
▁indispensable	-11.3851
▁refurbished	-11.3851
▁continental	-11.3854
▁1950	-11.386
▁intent	-11.3864
▁Mountain	-11.3865
▁execute	-11.3869
▁delayed	-11.3871
▁impetus	-11.388
▁macro	-11.3881
▁racing	-11.3881
▁compatibility	-11.3884
house	-11.3884
AL	-11.3885
▁Bulgarian	-11.3887
▁punishment	-11.3888
▁cluster	-11.3889
▁revenues	-11.3893
▁helicopter	-11.3894
▁Newspaper	-11.39
▁Objective	-11.39
▁characteris	-11.3901
▁auch	-11.3902
▁Much	-11.3905
risen	-11.3915
▁washing	-11.3917
▁activated	-11.3917
▁Fax	-11.3921
▁shoes	-11.3923
▁cream	-11.3925
▁harmonise	-11.3931
▁Vi	-11.3932
▁currencies	-11.3934
▁retirement	-11.3934
▁Simply	-11.3935
▁compensate	-11.394
▁au	-11.3943
▁hazardous	-11.3947
▁Corporate	-11.3947
▁Marco	-11.3948
▁criticise	-11.3951
▁husband	-11.3954
▁conservative	-11.3955
▁GPS	-11.3955
▁Multi	-11.3956
▁Mont	-11.396
▁entities	-11.396
▁resistant	-11.3961
▁upload	-11.3962
▁lawyers	-11.3962
▁Climate	-11.3967
▁workforce	-11.3968
hu	-11.3975
▁Wellness	-11.3979
▁allocate	-11.3981
▁vacuum	-11.3982
▁bonds	-11.3983
▁gathering	-11.3987
▁Unlike	-11.3987
▁Local	-11.3988
▁limitations	-11.399
▁reveal	-11.399
▁customiz	-11.3993
▁calculation	-11.3993
▁panels	-11.3997
▁za	-11.4
▁elegance	-11.4001
▁Young	-11.4003
chen	-11.4006
▁databases	-11.4012
▁libraries	-11.4015
▁shooting	-11.4017
▁awards	-11.4021
▁tube	-11.4021
ato	-11.4022
▁Allah	-11.4027
ok	-11.4031
▁rid	-11.4031
fleet	-11.4031
▁Basel	-11.4045
▁bicycle	-11.4048
▁Dresden	-11.4054
▁entity	-11.4055
▁seekers	-11.4058
▁Wireless	-11.4061
▁kg	-11.4063
▁Direct	-11.4064
▁attraction	-11.4064
▁laying	-11.4066
▁guitar	-11.4068
▁promising	-11.4068
▁globe	-11.4068
▁shore	-11.407
▁wound	-11.4075
▁tasteful	-11.4079
▁disregard	-11.4081
▁Building	-11.4084
▁embrace	-11.4088
▁writer	-11.409
▁mis	-11.4091
▁bears	-11.4091
▁authorized	-11.4093
▁Original	-11.4093
vi	-11.4099
▁gases	-11.4099
▁Terrace	-11.4102
▁precaution	-11.4102
▁Porto	-11.4116
▁Ku	-11.4128
▁critique	-11.4129
▁dreams	-11.413
▁patch	-11.4132
24	-11.4134
▁Capital	-11.4134
▁Chechnya	-11.4135
▁cathedral	-11.4135
▁Disabl	-11.4142
▁Privacy	-11.4142
▁Administration	-11.4142
▁detection	-11.4143
▁Pe	-11.4144
nnes	-11.4145
▁Gay	-11.4146
▁Criminal	-11.4149
▁procedural	-11.4149
▁adhere	-11.4149
ea	-11.4151
equality	-11.4152
▁Being	-11.4153
▁classification	-11.4157
▁thirty	-11.4163
▁Airline	-11.4163
jo	-11.4167
▁styles	-11.4171
▁Riviera	-11.4176
▁opponents	-11.4178
▁carte	-11.418
▁Nikon	-11.4184
▁Sir	-11.4186
▁Short	-11.419
▁Conservative	-11.419
▁Depend	-11.4195
▁rebuild	-11.4196
▁HIV	-11.4197
▁climb	-11.4198
▁walks	-11.4199
sized	-11.42
▁Ti	-11.4205
▁neo	-11.4205
▁hunger	-11.4205
60	-11.4205
▁minds	-11.4209
▁Doha	-11.421
▁dogs	-11.4212
▁resolv	-11.4213
▁blocked	-11.4215
▁aspiration	-11.422
▁gra	-11.422
▁herself	-11.4224
▁resumed	-11.4231
▁hike	-11.4235
▁repression	-11.4245
▁Forest	-11.4247
▁Round	-11.4252
▁profession	-11.4255
▁Army	-11.4257
▁dominat	-11.4258
▁pledge	-11.4258
▁criterion	-11.4258
▁capitalism	-11.4261
▁distant	-11.4261
▁Tibetan	-11.4261
▁accus	-11.4263
zi	-11.4264
▁tranquil	-11.4267
▁systematical	-11.4267
▁bid	-11.4269
▁wire	-11.4271
▁advised	-11.4275
▁mixture	-11.4276
▁overnight	-11.428
▁behold	-11.4284
▁File	-11.4285
▁villas	-11.4285
▁53	-11.4286
▁exquisite	-11.4287
▁convincing	-11.4293
▁painful	-11.4296
estry	-11.4297
▁Palma	-11.4297
▁panorama	-11.4307
▁filters	-11.4307
▁depart	-11.4308
▁OK	-11.4309
▁KDE	-11.4316
▁mood	-11.4317
▁tailor	-11.4317
▁Helsinki	-11.4321
▁topical	-11.4321
▁remedy	-11.4321
▁clinical	-11.4321
▁restrictive	-11.4321
tion	-11.4327
▁predecessor	-11.4328
▁complain	-11.4331
▁ferry	-11.4335
▁innocent	-11.4336
▁graphical	-11.4338
11	-11.4339
▁Saddam	-11.4348
▁backing	-11.4349
▁Age	-11.4349
▁legendar	-11.4355
burg	-11.4356
▁Child	-11.4366
▁complaint	-11.4367
▁shirt	-11.4367
▁statute	-11.4367
ev	-11.4367
▁dans	-11.4369
▁marking	-11.437
▁Finance	-11.4372
▁shade	-11.4374
▁counterpart	-11.4376
▁Das	-11.4383
▁scrutin	-11.4383
▁desperate	-11.4383
▁Samsung	-11.439
▁waves	-11.439
▁Michel	-11.4392
▁coastline	-11.4392
▁fruits	-11.4393
▁cellar	-11.4396
▁detention	-11.4398
▁IGC	-11.4403
▁clip	-11.4403
▁pedestrian	-11.4403
▁drastic	-11.4404
▁reviewed	-11.4407
▁dependence	-11.4407
▁healing	-11.4408
▁VIP	-11.4408
▁collections	-11.4409
▁Explorer	-11.4414
▁comforts	-11.4417
▁dei	-11.4419
▁Mallorca	-11.4425
▁Large	-11.4426
▁catalog	-11.4432
▁Mount	-11.4432
▁envisaged	-11.4434
▁query	-11.4434
▁Help	-11.4434
ria	-11.4434
▁council	-11.4438
▁AC	-11.444
▁Rhine	-11.4446
▁Corporation	-11.4446
▁PRO	-11.446
Q	-11.4461
▁het	-11.4461
▁argu	-11.4463
▁Ce	-11.4464
▁habit	-11.4466
▁LCD	-11.4467
▁Especial	-11.4468
▁entrepreneurs	-11.4468
▁thick	-11.4468
▁qui	-11.447
▁Muslims	-11.4471
▁56	-11.4474
▁halt	-11.4479
▁feels	-11.448
▁Edinburgh	-11.4481
▁psychological	-11.4481
▁Solidarit	-11.4481
▁Walk	-11.4484
▁Theatre	-11.4488
▁bold	-11.4489
▁organ	-11.449
hi	-11.4494
▁successor	-11.4495
▁Singapore	-11.4495
▁iPod	-11.4502
▁breeding	-11.4507
▁distributors	-11.4509
▁enjoyable	-11.4509
▁judges	-11.4516
▁ceremony	-11.4516
▁Point	-11.4517
▁brilliant	-11.4523
▁complimentar	-11.4527
▁donors	-11.4537
▁disastrous	-11.4538
ska	-11.4546
▁William	-11.4548
▁horses	-11.4548
▁proliferation	-11.4554
▁serial	-11.4566
▁luck	-11.4568
▁beginner	-11.4569
▁lend	-11.4572
▁remark	-11.4573
▁Hill	-11.4575
▁sich	-11.4575
▁dear	-11.4575
▁environments	-11.4583
▁indirectly	-11.4587
50	-11.4594
▁Leipzig	-11.4594
▁symbols	-11.4596
▁noble	-11.4601
▁disc	-11.4603
▁matches	-11.4609
▁solo	-11.4611
▁loaded	-11.4613
▁diameter	-11.4616
▁cotton	-11.4616
▁differently	-11.4617
▁ma	-11.4618
▁refugee	-11.4623
▁distinctive	-11.4623
form	-11.463
▁conscience	-11.463
▁tries	-11.4632
▁preservation	-11.4632
▁belt	-11.4637
▁consolidate	-11.4646
▁poster	-11.4647
▁coach	-11.4649
▁decid	-11.4649
▁birthday	-11.4652
▁integrat	-11.4658
▁precondition	-11.4659
▁threatening	-11.466
▁gate	-11.4664
▁Writt	-11.4666
fi	-11.4667
▁tender	-11.4669
▁scanner	-11.4669
LE	-11.4671
ade	-11.4672
▁Petitions	-11.4672
▁carriers	-11.4677
▁settle	-11.4678
▁hosting	-11.4681
▁imp	-11.4685
▁interfaces	-11.4685
▁protective	-11.4686
▁preference	-11.4691
▁loan	-11.4692
▁Christians	-11.4694
▁abilities	-11.4694
▁heaven	-11.4694
▁Valencia	-11.4697
▁allies	-11.4698
▁Albanian	-11.4701
▁Mountains	-11.4703
▁refusal	-11.4704
▁towels	-11.4706
▁cap	-11.4708
▁stepp	-11.4708
▁unanimity	-11.4709
▁Chile	-11.4709
▁quest	-11.4709
▁aluminium	-11.471
▁coins	-11.472
▁thereof	-11.472
▁Pass	-11.4722
▁Europa	-11.4722
▁Prince	-11.4727
▁forming	-11.4728
▁virtue	-11.473
▁Latvia	-11.4733
chi	-11.4734
▁packed	-11.474
▁facilitat	-11.474
▁NOT	-11.4743
▁EEC	-11.4746
ble	-11.4748
▁civilisation	-11.4749
▁monopoly	-11.4752
▁stays	-11.4753
▁backed	-11.4757
▁Whils	-11.4759
▁grey	-11.4764
▁lights	-11.4765
▁foods	-11.477
▁variant	-11.477
▁instability	-11.4774
per	-11.4775
▁adjustments	-11.4777
ella	-11.478
ft	-11.4788
▁limitation	-11.48
▁buyer	-11.4803
hof	-11.4813
▁audiovisual	-11.4815
▁globally	-11.4816
▁alpine	-11.4817
▁Nigeria	-11.482
▁confine	-11.4822
▁tariff	-11.4823
▁Division	-11.4825
▁Class	-11.4826
▁undermin	-11.4838
▁Annex	-11.484
▁nationals	-11.4846
▁Sierra	-11.4847
▁IS	-11.4847
ken	-11.4849
after	-11.4852
▁consolidated	-11.4852
▁energies	-11.4854
▁immense	-11.486
▁bags	-11.4864
▁assignment	-11.4871
▁gallerie	-11.4876
▁deck	-11.4877
▁Ha	-11.4881
▁perception	-11.4882
▁pot	-11.4887
▁tonight	-11.4889
▁Siemens	-11.489
▁58	-11.49
we	-11.4901
▁photograph	-11.4901
▁injection	-11.4902
▁multilingual	-11.4905
▁classified	-11.4908
wood	-11.4911
round	-11.4911
ement	-11.4912
▁surgery	-11.4914
▁Bio	-11.4918
▁pair	-11.4924
▁attentive	-11.4927
▁Key	-11.4927
▁Congo	-11.4928
▁samples	-11.4929
▁worker	-11.4933
▁Frank	-11.4934
▁invasion	-11.4934
▁sympathy	-11.4934
▁Dry	-11.4935
▁HP	-11.4936
▁strain	-11.4939
86	-11.4939
▁Relax	-11.4942
▁Galileo	-11.4942
▁Ge	-11.4943
▁350	-11.4945
▁Firefox	-11.4957
▁submission	-11.4964
ger	-11.4968
▁ageing	-11.497
▁civilians	-11.4977
▁ON	-11.4978
▁Update	-11.4979
▁pillars	-11.4982
.2	-11.4985
ette	-11.4985
▁Arena	-11.4991
▁marble	-11.4994
▁Bill	-11.4995
▁Future	-11.4995
▁130	-11.4996
▁Thai	-11.4997
▁Political	-11.5
▁irrespective	-11.5001
▁menus	-11.5001
▁cater	-11.5002
▁Bonn	-11.5004
ot	-11.5007
▁Slovak	-11.5007
▁cattle	-11.5008
▁72	-11.5009
▁stones	-11.5011
▁affiliate	-11.5011
▁bands	-11.5014
▁enthusiastic	-11.5015
▁democracies	-11.5016
▁exotic	-11.5016
▁Ms	-11.5018
▁68	-11.5019
▁CE	-11.5022
▁XML	-11.5023
▁Nothing	-11.5031
▁realm	-11.5035
▁issu	-11.5036
▁Berg	-11.5039
▁hunting	-11.5041
▁Save	-11.5042
her	-11.5042
▁furnishings	-11.5045
▁é	-11.5045
▁Afghan	-11.5045
ec	-11.5049
▁holes	-11.5052
▁j	-11.5053
▁obstacle	-11.5054
▁Tak	-11.5055
ö	-11.5057
▁portion	-11.5058
▁plates	-11.5059
▁harsh	-11.506
▁profitable	-11.5063
▁Reserve	-11.5063
▁unite	-11.507
▁loop	-11.5071
▁certificates	-11.5074
▁Canadian	-11.5075
▁Nokia	-11.5075
▁orchestra	-11.5076
▁reader	-11.5078
▁congress	-11.5082
▁immunity	-11.5083
▁medicinal	-11.5083
▁Version	-11.5083
▁th	-11.5083
▁layers	-11.5085
▁grain	-11.5086
▁Mi	-11.5087
▁ran	-11.5089
▁Nobel	-11.5091
▁advances	-11.5092
▁110	-11.5093
▁reactions	-11.5095
▁180	-11.5097
▁configur	-11.5097
▁simulation	-11.5098
▁beat	-11.5099
oc	-11.5105
▁Neither	-11.5105
▁prejudice	-11.5108
▁accord	-11.5109
cat	-11.511
▁quarters	-11.5111
mending	-11.5113
▁renewal	-11.5114
▁Ticket	-11.513
▁modernisation	-11.513
▁cabin	-11.5131
▁Stock	-11.5133
▁container	-11.5133
▁Blair	-11.5135
ical	-11.5138
▁ages	-11.5139
▁SQL	-11.5142
▁Montenegro	-11.5143
▁voltage	-11.5143
▁avec	-11.5143
▁sheep	-11.5144
▁inappropriate	-11.5146
pe	-11.5157
▁guilty	-11.5158
▁inviting	-11.5158
▁tunnel	-11.5158
▁suspend	-11.5159
▁Winter	-11.5162
▁initiate	-11.5163
▁Watch	-11.5163
▁jazz	-11.5165
▁1988	-11.5166
▁kit	-11.517
▁Return	-11.5173
▁criminals	-11.5173
▁Saudi	-11.5174
▁developer	-11.5176
▁RSS	-11.5178
▁guard	-11.5179
▁Wikitravel	-11.518
▁memories	-11.518
▁MB	-11.5182
▁supporters	-11.5184
▁flora	-11.5191
▁и	-11.5193
field	-11.5193
▁Deep	-11.5195
▁fossil	-11.5195
▁Fire	-11.5196
▁brake	-11.52
together	-11.5202
▁worried	-11.5211
▁Ber	-11.5218
▁Chancellor	-11.5218
▁wisdom	-11.5218
▁Anyone	-11.5219
▁woods	-11.5233
▁Croatian	-11.5234
▁pursuit	-11.5235
ology	-11.5236
▁anyway	-11.5237
▁legislator	-11.5249
▁utter	-11.5251
▁Sant	-11.5252
▁Daniel	-11.5254
▁processor	-11.5254
▁Mu	-11.5254
▁electronics	-11.5255
▁parent	-11.5256
▁prohibit	-11.5256
▁Credit	-11.5256
▁burning	-11.5264
▁smallest	-11.5265
▁harvest	-11.5265
▁Mak	-11.5271
▁Cohesion	-11.5271
▁dairy	-11.5271
ven	-11.5273
▁organiz	-11.5274
▁deadlines	-11.5277
▁recital	-11.5279
▁safer	-11.5281
▁origins	-11.529
ón	-11.5293
▁pesticide	-11.5294
Upon	-11.5297
▁Environmental	-11.5298
▁SP	-11.5301
▁inherent	-11.5302
park	-11.5305
▁Drive	-11.5306
▁Mary	-11.5307
▁Want	-11.5307
▁completing	-11.5309
▁Democrac	-11.5311
▁finds	-11.5312
▁fastest	-11.5314
▁werden	-11.5318
▁Revolution	-11.5321
▁socially	-11.5326
AM	-11.5328
ph	-11.5335
▁holder	-11.5335
▁Mini	-11.5336
box	-11.5339
tes	-11.5341
ou	-11.5344
ena	-11.5345
▁disabilities	-11.5355
▁vibrant	-11.5355
▁Classic	-11.5357
▁pipeline	-11.5362
les	-11.5363
▁baggage	-11.5371
▁symptom	-11.5372
▁ruins	-11.5378
▁modular	-11.5379
▁pretext	-11.5379
▁Iceland	-11.5379
▁demonstrations	-11.538
▁mill	-11.5384
▁rush	-11.5385
▁minibar	-11.5387
▁nightlife	-11.5394
▁terraces	-11.5396
▁orange	-11.5397
▁Ar	-11.5398
▁BC	-11.5398
▁render	-11.5401
▁Zealand	-11.5402
▁possess	-11.5403
▁Algeria	-11.5404
▁revise	-11.5406
ford	-11.5406
▁voices	-11.5406
bi	-11.5409
▁reign	-11.541
▁breath	-11.5416
▁decor	-11.5419
▁grid	-11.542
32	-11.5421
▁reaffirm	-11.5425
ative	-11.5425
▁deployment	-11.5426
▁Computer	-11.5426
▁Fa	-11.5429
▁broadcasting	-11.5431
▁Cala	-11.5431
▁perceive	-11.5437
▁postpone	-11.5438
▁ideolog	-11.5438
▁Production	-11.5443
▁buffer	-11.5443
▁curve	-11.5448
▁persecution	-11.5448
▁adjacent	-11.5456
15	-11.5456
▁Sound	-11.5456
▁Equal	-11.5462
▁flower	-11.5464
▁persist	-11.5471
▁variables	-11.5477
▁dioxide	-11.5479
▁annually	-11.5481
▁peripheral	-11.5481
▁Ne	-11.5482
▁vigorous	-11.5487
▁dryer	-11.5494
▁compil	-11.5495
▁merge	-11.5497
▁tent	-11.5502
▁ou	-11.5504
▁chip	-11.551
▁tendency	-11.551
▁donor	-11.5511
▁dramatically	-11.5512
▁Sales	-11.5513
ile	-11.5517
▁Klingon	-11.5518
ermost	-11.5521
▁Railway	-11.5527
▁vis	-11.5527
ah	-11.5528
▁thread	-11.553
ES	-11.553
▁een	-11.5533
▁OLAF	-11.5534
▁Alternative	-11.5534
▁slaughter	-11.5535
▁Colombia	-11.5535
▁counts	-11.5538
▁illness	-11.5538
▁readers	-11.5539
▁AD	-11.5544
▁linking	-11.5545
▁cat	-11.5546
▁chances	-11.5553
▁fridge	-11.5557
▁palm	-11.5559
▁grip	-11.5565
▁german	-11.5568
▁echo	-11.5571
fa	-11.5575
▁Ref	-11.5575
▁DC	-11.5581
▁chart	-11.5581
▁59	-11.5581
▁breaks	-11.5583
▁Haiti	-11.5587
▁Enter	-11.5596
▁imagination	-11.5596
▁capitalist	-11.5604
▁ads	-11.5606
▁delegations	-11.5611
▁Medical	-11.5612
▁tank	-11.5618
▁transnational	-11.5622
▁divisions	-11.5627
▁analyze	-11.5627
▁gambling	-11.5628
▁Warsaw	-11.5628
▁correction	-11.563
▁Brand	-11.5633
▁textiles	-11.5636
▁fold	-11.5641
▁generat	-11.5641
▁alert	-11.5642
▁behave	-11.5644
tz	-11.5644
▁haven	-11.5645
ru	-11.5646
▁gaining	-11.5647
ata	-11.5648
▁bathing	-11.5651
▁popularity	-11.5651
▁motivation	-11.5652
▁violate	-11.5654
▁aboard	-11.5655
tu	-11.5655
▁Try	-11.5659
▁proves	-11.5661
.6	-11.5665
▁courtyard	-11.567
▁Learn	-11.5672
ene	-11.5672
of	-11.5672
▁refreshing	-11.5679
▁exempt	-11.568
▁Marketing	-11.5681
▁devote	-11.5682
▁assemble	-11.5682
▁gourmet	-11.5683
▁hub	-11.5685
▁über	-11.5691
▁tasty	-11.5691
▁Timor	-11.5692
▁shorter	-11.5694
▁Times	-11.5696
▁spam	-11.5698
▁Nazi	-11.5711
▁manifest	-11.5714
▁bulk	-11.5714
▁oblige	-11.5715
▁pi	-11.5715
▁compet	-11.5718
90	-11.5719
▁trader	-11.572
▁Dolomites	-11.5722
▁pricing	-11.5723
▁Canary	-11.5723
▁wash	-11.5724
IT	-11.5724
▁festivals	-11.5729
▁tracking	-11.573
▁oasis	-11.5731
▁Francisco	-11.5731
▁hinder	-11.5731
gar	-11.5734
▁pas	-11.5737
▁gentle	-11.5738
▁console	-11.5739
▁yacht	-11.5742
▁rigid	-11.5742
▁bomb	-11.5744
▁temporari	-11.5755
▁fibre	-11.5755
▁timing	-11.5755
▁economical	-11.5756
ab	-11.5758
▁SK	-11.5758
▁spreading	-11.576
▁affair	-11.576
▁Smith	-11.576
▁Still	-11.5762
if	-11.5762
▁Whatever	-11.5762
▁particle	-11.5763
▁legacy	-11.5764
▁Camp	-11.5766
▁Relations	-11.5769
▁triple	-11.5779
▁fulfilling	-11.5781
▁Solana	-11.5782
▁Micro	-11.5784
▁Keep	-11.5787
▁retreat	-11.5789
▁precedent	-11.5789
▁substitute	-11.5794
▁unifi	-11.5794
▁Official	-11.5795
▁fabulous	-11.5795
▁tensions	-11.5796
▁municipality	-11.5804
▁plot	-11.5805
▁Solutions	-11.5809
▁annex	-11.5814
▁fortunate	-11.5819
▁playground	-11.5819
▁Prof	-11.5825
▁Level	-11.5828
ert	-11.5828
▁pet	-11.5829
▁Sub	-11.583
▁trials	-11.5836
▁meter	-11.5843
▁statutor	-11.5843
▁folk	-11.5849
▁flaw	-11.5851
▁landing	-11.5851
▁speculation	-11.5851
▁purchaser	-11.5853
▁Bel	-11.5856
▁biofuel	-11.5859
▁harmonious	-11.5859
▁Es	-11.5861
gi	-11.5862
▁batteries	-11.5868
▁AS	-11.5871
▁vegetable	-11.5874
▁Hague	-11.5875
▁Picard	-11.5876
▁surfaces	-11.5879
▁couples	-11.5884
▁Tuscany	-11.5885
▁tongue	-11.5885
▁Garda	-11.5892
art	-11.5893
▁shoulder	-11.5897
▁pragmatic	-11.59
ida	-11.5905
▁outlet	-11.5907
▁Holland	-11.5908
▁relocation	-11.5909
▁Source	-11.591
▁demo	-11.5912
▁wholehearted	-11.5916
▁vague	-11.5917
▁oven	-11.5917
▁zoom	-11.5918
▁bird	-11.592
69	-11.5923
▁mi	-11.5924
▁enemies	-11.5924
▁terrain	-11.5924
▁visibility	-11.5927
▁Herzegovina	-11.5932
▁genocide	-11.5932
▁missile	-11.5932
▁organs	-11.5936
▁dis	-11.594
▁continuit	-11.594
▁bugs	-11.5941
▁1986	-11.5941
▁lifts	-11.5944
▁Word	-11.5945
▁Sri	-11.5945
▁loose	-11.5945
▁inland	-11.5947
▁gesture	-11.5949
▁sleeping	-11.5953
▁derivative	-11.5957
▁Ja	-11.5958
▁instructor	-11.5958
▁EP	-11.5962
▁toxic	-11.5963
▁encountered	-11.5965
ions	-11.5968
nes	-11.597
▁conform	-11.5971
▁recruit	-11.5972
▁Speed	-11.5975
▁ce	-11.5975
olo	-11.5978
▁fulfill	-11.5981
▁municipal	-11.5986
ring	-11.5988
▁retention	-11.5989
▁Sports	-11.5992
▁installer	-11.5993
▁Info	-11.5997
▁NEW	-11.5999
▁storm	-11.5999
▁Roth	-11.6
▁secular	-11.6
way	-11.6003
▁problematic	-11.6008
▁drag	-11.6012
▁thou	-11.6014
▁sind	-11.6016
▁92	-11.6016
▁URL	-11.6019
▁baths	-11.602
▁Ashton	-11.6022
▁buttons	-11.6029
▁timber	-11.603
▁Athens	-11.603
▁destin	-11.6032
▁Monti	-11.6034
▁exhaust	-11.6035
▁Pen	-11.6038
▁multitude	-11.6039
▁notify	-11.6045
▁compliment	-11.6052
▁Ra	-11.6054
▁Hot	-11.6055
▁pupil	-11.6055
▁fortress	-11.6057
▁foodstuffs	-11.6059
▁57	-11.6063
▁SE	-11.6066
▁algorithm	-11.6071
▁boutique	-11.6073
▁floods	-11.6078
▁solarium	-11.608
▁coating	-11.6082
cu	-11.6084
▁Course	-11.609
▁defect	-11.6092
▁commands	-11.6093
▁incomes	-11.6094
▁hybrid	-11.6096
▁simplifi	-11.6096
ising	-11.61
16	-11.6106
▁revolutionar	-11.6108
▁OECD	-11.6113
▁originat	-11.6117
▁GM	-11.612
▁Users	-11.6121
▁Pla	-11.6126
▁dispose	-11.6132
▁sail	-11.6133
▁costly	-11.6134
▁varying	-11.6135
▁disclose	-11.6137
▁fragile	-11.6138
▁screening	-11.6138
▁dependenc	-11.6138
▁shame	-11.6141
▁Decision	-11.6149
▁activists	-11.615
pi	-11.615
LY	-11.6153
▁promenade	-11.6154
70	-11.6157
▁withdrawn	-11.6158
▁inspections	-11.6159
▁posting	-11.6159
▁intensit	-11.6162
▁IBM	-11.6162
▁Bern	-11.6162
25	-11.6162
▁lodge	-11.6163
▁Father	-11.6163
▁stainless	-11.6163
▁regulator	-11.6163
▁complementar	-11.6167
▁sa	-11.6169
▁formulate	-11.6169
▁FREE	-11.6171
▁1930	-11.6175
▁banana	-11.6175
▁Love	-11.6186
NET	-11.6188
▁blocking	-11.6189
▁cup	-11.6193
▁Spirit	-11.6194
▁conceal	-11.6195
▁embargo	-11.6196
▁Though	-11.6198
▁viruses	-11.62
▁volumes	-11.62
▁viewing	-11.6204
▁entrust	-11.6204
▁backup	-11.6206
▁Initiative	-11.6213
▁1987	-11.6213
▁arena	-11.6214
▁shut	-11.6216
▁template	-11.6217
pparently	-11.6217
▁settlements	-11.6221
▁portrait	-11.6221
▁Laundr	-11.6223
▁Son	-11.6225
▁Queen	-11.6226
▁tons	-11.6227
▁Advanced	-11.6227
▁benchmark	-11.6229
▁teeth	-11.6231
▁NO	-11.6231
▁droppe	-11.6236
▁swim	-11.6238
val	-11.6243
▁possession	-11.6243
▁recreation	-11.6244
han	-11.6253
▁painter	-11.6253
▁als	-11.6255
let	-11.6259
▁optimiz	-11.6262
▁comfortabl	-11.6263
▁EIB	-11.6263
▁cultivation	-11.6264
▁pin	-11.6264
▁accessibility	-11.6266
▁interpreter	-11.6267
▁turnover	-11.6268
▁singer	-11.627
▁140	-11.6271
▁OSCE	-11.6271
▁injury	-11.6275
▁celebration	-11.6276
▁accommodations	-11.6278
ivity	-11.6279
33	-11.6279
▁diplomacy	-11.628
▁preced	-11.6288
▁basin	-11.6289
▁bond	-11.6294
▁Schulz	-11.6295
▁corrupt	-11.6296
▁seasonal	-11.6296
▁Quick	-11.6297
▁feasibl	-11.6297
ras	-11.6301
ula	-11.6302
▁wholly	-11.6306
▁minded	-11.6307
▁Did	-11.6309
▁Resolution	-11.6314
▁illustration	-11.6315
▁pen	-11.6317
▁Link	-11.6317
▁dealer	-11.632
▁Send	-11.6328
▁Patten	-11.6331
▁1985	-11.6331
▁Bi	-11.6333
▁scarce	-11.6334
▁broadly	-11.6338
▁Ta	-11.6338
▁extremist	-11.6341
▁Bavaria	-11.6343
▁Cap	-11.6343
▁holders	-11.6344
▁Düsseldorf	-11.6347
▁umbrella	-11.6347
▁prolong	-11.6348
▁Universal	-11.6348
▁successes	-11.6352
▁Anna	-11.6352
▁Hitler	-11.6364
▁diagnosis	-11.6364
▁delightful	-11.6366
▁smell	-11.6372
▁measurements	-11.6378
▁Cleaning	-11.638
▁bargain	-11.6381
▁stimulus	-11.6381
▁persistent	-11.6381
▁1945	-11.6382
▁seize	-11.6386
▁max	-11.6387
▁weaknesses	-11.6388
▁magazines	-11.639
▁YOU	-11.6391
▁Olymp	-11.6392
▁Tar	-11.6396
▁alarming	-11.6397
▁assert	-11.6397
▁launching	-11.6398
▁mines	-11.6399
▁preparator	-11.64
▁Intel	-11.6402
▁powered	-11.6404
▁SDL	-11.6405
▁complie	-11.6405
▁placement	-11.6413
▁disappeared	-11.6413
▁horizon	-11.6415
▁Review	-11.6416
▁acute	-11.6416
▁Ford	-11.6416
▁finger	-11.6419
ita	-11.642
▁Wine	-11.6424
▁weakness	-11.6424
▁brown	-11.6426
▁hosted	-11.6428
▁protectionism	-11.6431
▁qualification	-11.6431
▁liberty	-11.6434
OR	-11.6434
▁mo	-11.6434
▁Gar	-11.6436
▁enlarge	-11.6437
▁anticipated	-11.644
▁Sw	-11.6441
▁eleven	-11.6441
▁Quite	-11.6441
▁donation	-11.6442
▁intuitive	-11.645
▁detected	-11.645
▁lifting	-11.6451
▁compile	-11.6452
US	-11.6455
▁earmark	-11.6458
▁kingdom	-11.6458
▁accomplished	-11.646
▁headed	-11.6462
▁experimental	-11.6462
▁shortage	-11.6463
▁outlin	-11.6467
▁eager	-11.6467
▁passive	-11.6469
▁po	-11.6474
▁suspicion	-11.6475
▁LT	-11.6483
▁scripts	-11.6487
▁hydraulic	-11.6493
▁negligence	-11.6493
▁Fortunate	-11.6493
iz	-11.6494
▁roles	-11.6497
▁impressed	-11.6498
▁macroeconomic	-11.6501
▁regain	-11.6501
▁diesel	-11.6506
▁anymore	-11.6511
cho	-11.6515
▁Buyer	-11.6516
▁Sal	-11.6517
▁elaborate	-11.652
▁Ab	-11.6521
▁varieties	-11.6527
▁tissue	-11.6527
▁CDs	-11.6528
▁misuse	-11.6528
▁breast	-11.6533
▁commodity	-11.6536
▁Color	-11.6536
▁elimination	-11.6537
see	-11.6542
▁Technologies	-11.6543
▁directors	-11.6544
▁Lounge	-11.655
▁Kurdish	-11.6553
▁catastrophe	-11.6553
▁magnetic	-11.6555
▁Mal	-11.6561
▁Tampere	-11.6562
▁overseas	-11.6562
ai	-11.6562
▁lending	-11.6563
▁GMOs	-11.6567
▁Renaissance	-11.657
▁inequaliti	-11.657
▁density	-11.657
▁Below	-11.6571
▁metals	-11.6574
▁Consider	-11.6578
▁beam	-11.6578
work	-11.6579
▁Börse	-11.6579
▁illusion	-11.6579
▁vegetation	-11.6579
▁Voyager	-11.6579
▁queries	-11.658
▁rhetoric	-11.6584
▁practise	-11.6585
▁confidentialit	-11.6585
ei	-11.6595
▁champion	-11.6597
▁laundry	-11.6598
▁fare	-11.6602
▁replacing	-11.6605
▁verification	-11.6605
▁optimization	-11.6606
ku	-11.6607
▁Serbian	-11.661
▁3.5	-11.661
▁truck	-11.6615
▁aus	-11.6615
▁ALDE	-11.6615
▁scann	-11.6619
▁Tarifa	-11.6622
▁diminish	-11.6626
▁Gothic	-11.6631
▁neighborhood	-11.6631
▁outbreak	-11.6633
▁magical	-11.6636
▁races	-11.6639
▁Tokyo	-11.664
▁noisy	-11.664
▁AM	-11.6641
▁uns	-11.6643
▁Price	-11.6643
▁tanks	-11.6645
▁downloads	-11.6646
▁MEP	-11.6648
22	-11.6656
▁Hussein	-11.6657
▁analog	-11.666
▁resident	-11.6661
▁journalist	-11.6661
▁relevance	-11.6666
▁trendy	-11.6671
nik	-11.6671
▁forever	-11.6672
▁rice	-11.6673
▁updating	-11.6675
▁mature	-11.6675
▁milestone	-11.6675
lia	-11.6675
▁cave	-11.6676
▁Cuban	-11.6677
▁sat	-11.668
▁Night	-11.6682
platz	-11.6683
▁Century	-11.6684
▁appoint	-11.6684
▁motto	-11.6684
▁ray	-11.6684
▁wasn	-11.6687
▁moon	-11.6688
▁Instruments	-11.6692
▁relie	-11.6699
▁wheels	-11.6701
▁propaganda	-11.6701
▁Tom	-11.6702
▁Har	-11.6702
▁bone	-11.6703
▁designate	-11.6714
▁marina	-11.6714
▁poorer	-11.672
▁deliveries	-11.6724
▁eggs	-11.6725
▁retailer	-11.6725
▁protein	-11.6726
▁Competition	-11.6728
▁Madeira	-11.6728
▁aesthetic	-11.6729
▁PR	-11.6732
ido	-11.6732
▁titles	-11.6734
▁Shanghai	-11.6736
▁monastery	-11.6736
du	-11.674
▁sister	-11.6745
▁fireplace	-11.6749
▁ample	-11.6757
▁consultants	-11.6757
án	-11.676
▁forbidden	-11.6763
tis	-11.6767
▁Band	-11.6777
▁crop	-11.6778
▁Hu	-11.678
▁mortgage	-11.678
▁guiding	-11.6781
▁reveals	-11.6782
.7	-11.6782
▁ROM	-11.6783
nia	-11.6783
▁Istanbul	-11.6784
▁generator	-11.6784
▁studios	-11.6785
▁incredib	-11.6789
▁Verheugen	-11.6789
▁repercussions	-11.6789
▁incurred	-11.6789
▁broadband	-11.679
▁Sam	-11.679
▁2015	-11.6794
▁preview	-11.6799
▁calculate	-11.6801
▁interfere	-11.6804
▁definitive	-11.6804
▁couldn	-11.6806
▁66	-11.6807
▁fluid	-11.6808
bus	-11.6808
▁Text	-11.6808
▁nach	-11.6812
▁sixth	-11.6815
▁Gift	-11.6816
▁coin	-11.6816
▁tonne	-11.6817
▁march	-11.6827
▁pitch	-11.683
▁rhythm	-11.6833
▁rehabilitation	-11.6834
▁generic	-11.6834
▁debut	-11.6844
▁Bu	-11.6845
▁Guinea	-11.6847
▁scan	-11.6851
▁recognis	-11.6851
▁valve	-11.6853
▁defines	-11.6857
▁shell	-11.6857
▁cocktail	-11.6857
wide	-11.6859
▁evenings	-11.6862
▁Par	-11.6866
▁static	-11.687
▁tuna	-11.6873
▁enchanting	-11.6874
▁tr	-11.6874
▁hygiene	-11.6878
▁Almost	-11.6879
▁900	-11.688
▁demonstrat	-11.6882
where	-11.6884
.3	-11.6884
ap	-11.6886
▁reassure	-11.6887
▁coup	-11.6889
▁recreational	-11.689
▁rocks	-11.6893
GB	-11.6894
13	-11.6905
▁Egyptian	-11.6912
▁Certainly	-11.6913
▁dismantl	-11.6915
▁writers	-11.6915
▁warn	-11.6916
▁reproduce	-11.6921
▁Photocopy	-11.6923
▁peninsula	-11.6923
▁qualitative	-11.6923
▁powder	-11.6923
iv	-11.6928
19	-11.6934
▁Fischler	-11.6941
▁exceeding	-11.6942
bit	-11.6947
▁colourful	-11.6948
▁administrator	-11.6948
▁refrain	-11.695
▁slogan	-11.695
▁hospitals	-11.6956
▁varie	-11.6959
▁bass	-11.6964
▁Tourist	-11.6967
▁broaden	-11.6967
▁grasp	-11.6968
▁Doctor	-11.6969
▁Wikic	-11.697
▁geared	-11.697
▁exclud	-11.697
▁nbsp	-11.6972
back	-11.6976
▁strip	-11.6976
▁genre	-11.6979
▁Bre	-11.698
▁FAQ	-11.699
▁slide	-11.6995
▁english	-11.6995
▁conception	-11.6996
▁parish	-11.6996
▁promotional	-11.6997
▁signatures	-11.7001
▁thy	-11.7001
▁aged	-11.7001
▁incomplete	-11.7004
▁Tu	-11.7007
▁midst	-11.7007
▁SA	-11.7011
▁specification	-11.7014
▁delight	-11.7015
▁Sure	-11.7017
▁Five	-11.7021
▁Cypriot	-11.7022
▁empire	-11.7022
ud	-11.7023
▁lifetime	-11.7023
▁workflow	-11.7024
▁archives	-11.7027
▁expire	-11.7028
▁organisms	-11.7032
lu	-11.7033
▁emergence	-11.7033
▁tv	-11.7034
▁boy	-11.7038
▁hearts	-11.7039
▁Balkan	-11.7039
▁restriction	-11.7042
▁matching	-11.7046
▁biotechnology	-11.705
▁premature	-11.705
▁Ibiza	-11.705
zen	-11.705
▁versatile	-11.7059
▁quantitative	-11.7068
▁63	-11.7071
▁instruction	-11.7072
qui	-11.7073
▁halls	-11.7074
▁depict	-11.7075
BA	-11.7075
▁Yesterday	-11.7077
▁disappointment	-11.7077
▁Ger	-11.7077
▁Au	-11.7078
▁coordinator	-11.7078
▁promptly	-11.7079
▁momentum	-11.7082
sis	-11.7085
▁Taliban	-11.7086
▁conversation	-11.7086
▁Machine	-11.7087
▁Ban	-11.7087
▁SS	-11.7095
▁Sign	-11.7095
▁1.2	-11.7096
ü	-11.7098
isch	-11.7107
▁therapeutic	-11.7108
OS	-11.7112
▁worsen	-11.7113
▁applaud	-11.7114
▁smile	-11.7115
▁Register	-11.7123
▁Little	-11.7123
▁Championship	-11.7124
▁royal	-11.7126
▁establishments	-11.713
▁Maybe	-11.7138
cker	-11.714
▁frozen	-11.7141
▁mile	-11.7142
▁restor	-11.7143
▁linen	-11.7147
18	-11.7147
▁tune	-11.7148
▁earnings	-11.7149
▁massacre	-11.715
▁parliamentarian	-11.715
▁toys	-11.7151
▁Seville	-11.7151
▁62	-11.7152
▁acknowledg	-11.7153
▁anchor	-11.7154
▁como	-11.7154
▁Saxon	-11.7156
▁emotions	-11.7158
▁warehouse	-11.7159
▁designat	-11.716
▁Sad	-11.716
▁educated	-11.7161
▁Brazilian	-11.7161
▁Stay	-11.7162
▁credits	-11.7164
▁portable	-11.7166
ofar	-11.7166
lar	-11.7166
▁shores	-11.7166
▁Ein	-11.7173
▁predominant	-11.7179
▁accusation	-11.7179
▁Gu	-11.7179
ible	-11.718
▁imply	-11.7181
▁constituenc	-11.7186
▁sick	-11.7186
▁vulnerability	-11.7187
lan	-11.7187
▁lush	-11.7187
▁drain	-11.7187
mente	-11.7188
▁RI	-11.7189
▁Create	-11.719
▁renew	-11.719
▁outer	-11.7191
▁participant	-11.7198
▁licences	-11.7199
▁ba	-11.7199
▁cooperat	-11.7201
ique	-11.7202
▁shoot	-11.7208
▁realization	-11.7208
▁disagreement	-11.7208
▁afore	-11.7208
▁fabrics	-11.7212
▁earlie	-11.7213
▁backdrop	-11.7215
▁fatal	-11.7219
▁animation	-11.7219
▁accelerate	-11.722
▁intermediate	-11.7224
▁st	-11.7225
▁fitting	-11.7229
▁shipment	-11.7229
▁detriment	-11.7231
▁bitter	-11.7231
for	-11.7231
▁tied	-11.7236
▁Santer	-11.7237
▁springs	-11.7238
▁mounting	-11.7241
.9	-11.7241
▁phenomena	-11.7241
▁junior	-11.7243
▁copper	-11.7243
▁360	-11.7245
▁axis	-11.7245
▁Orchestra	-11.7247
ney	-11.7251
▁frames	-11.7251
will	-11.7253
▁API	-11.7254
36	-11.726
▁Audio	-11.7261
▁compress	-11.7267
▁consume	-11.727
14	-11.7274
▁refuge	-11.7276
▁verified	-11.7276
▁scenic	-11.728
ova	-11.7281
.4	-11.7284
▁networking	-11.7285
▁terminate	-11.7288
tro	-11.7291
▁renovation	-11.7292
▁sends	-11.7293
▁Silver	-11.7299
▁bin	-11.7299
▁boarding	-11.7303
▁BE	-11.7307
▁encryption	-11.7308
▁drawings	-11.7311
▁clarified	-11.7314
▁VI	-11.7318
▁analys	-11.7318
▁laptop	-11.7321
off	-11.7323
▁Za	-11.7323
▁Antonio	-11.7326
▁appalling	-11.7326
▁Police	-11.7327
▁Arctic	-11.7327
▁drama	-11.7327
▁tag	-11.7328
▁sunset	-11.7336
▁submitt	-11.7338
▁faithful	-11.7339
▁bookings	-11.7343
▁amateur	-11.7346
▁Banquet	-11.7346
▁vor	-11.7347
▁Cape	-11.7347
▁realities	-11.7349
▁breakthrough	-11.7354
▁Borg	-11.7356
asonic	-11.7362
▁71	-11.7364
▁accurately	-11.7364
▁tariffs	-11.7366
▁Brok	-11.737
▁о	-11.7373
▁Alpha	-11.7374
rt	-11.7379
▁Scientific	-11.7383
▁Installation	-11.7383
ien	-11.7386
▁Print	-11.7387
▁dare	-11.7388
van	-11.7388
▁tolerate	-11.7389
▁composer	-11.7389
▁9001	-11.7391
▁Copyright	-11.7392
▁Battle	-11.7392
ben	-11.7393
80	-11.7393
▁lit	-11.7398
▁bridges	-11.74
▁Andreas	-11.7402
▁mankind	-11.7402
▁dense	-11.7402
▁motive	-11.7403
▁starr	-11.7404
.5	-11.7409
ue	-11.7412
▁Pool	-11.7413
ich	-11.7416
log	-11.7419
▁Particular	-11.742
▁exercis	-11.7424
▁suicide	-11.743
▁conditional	-11.743
▁Neu	-11.743
mp	-11.7436
▁Naples	-11.7439
▁abundant	-11.7439
well	-11.744
cz	-11.7445
▁Built	-11.7449
▁Nowaday	-11.7449
▁Kra	-11.7449
▁contributor	-11.745
▁simpler	-11.7451
▁formulat	-11.7451
▁pity	-11.7451
▁Gi	-11.7453
▁condemnation	-11.7454
▁lawyer	-11.7456
▁Chair	-11.7457
▁Jacuzzi	-11.7458
▁1979	-11.7459
▁Pay	-11.7461
▁Malaysia	-11.7463
▁devastating	-11.7464
▁Application	-11.7464
▁transmit	-11.7466
▁monument	-11.7466
▁enforced	-11.7466
▁Type	-11.7467
▁Tri	-11.7467
▁idyllic	-11.7469
▁kitchenette	-11.7469
▁Adam	-11.7475
▁broke	-11.7476
▁Ke	-11.7477
▁comparative	-11.7478
▁cosmetic	-11.7484
▁sehr	-11.7485
▁Low	-11.7485
▁linear	-11.7486
▁Concern	-11.7487
▁Mexican	-11.7487
▁Collection	-11.7487
▁vous	-11.7488
99	-11.7491
▁containers	-11.7495
▁Rose	-11.7495
▁caution	-11.7496
▁Darfur	-11.7496
▁peaks	-11.7496
▁Br	-11.7498
▁pave	-11.7504
▁vi	-11.7514
ros	-11.7515
▁subsidiarie	-11.7515
▁raid	-11.7516
▁selective	-11.7518
ME	-11.7519
▁Mai	-11.752
▁Steel	-11.7526
disproportionate	-11.7527
▁dose	-11.7529
▁Ed	-11.7529
▁decentralis	-11.7534
▁Availabl	-11.7534
▁cornerstone	-11.7535
▁voucher	-11.7537
▁derive	-11.7541
▁contamination	-11.7544
▁Beautiful	-11.7553
▁Marine	-11.7555
▁onward	-11.7556
▁1,000	-11.7557
zer	-11.7558
▁households	-11.7559
▁fed	-11.7559
▁motorcycle	-11.7563
▁ob	-11.7567
▁enhancement	-11.7572
▁Major	-11.7573
illa	-11.7574
▁critics	-11.7577
▁transposition	-11.7582
▁resume	-11.7585
▁likewise	-11.7585
▁seed	-11.7587
▁reconcile	-11.759
▁discriminator	-11.7593
▁fragment	-11.7599
▁Bal	-11.76
zu	-11.76
▁Caucasus	-11.7601
▁explosion	-11.7601
▁friendship	-11.7602
▁misleading	-11.7602
▁gratitud	-11.7605
▁Australian	-11.7607
ging	-11.7608
ura	-11.761
▁enshrin	-11.761
▁accomodation	-11.7611
▁memorable	-11.7611
▁vaccine	-11.7611
▁confused	-11.7615
▁lands	-11.7618
▁cautious	-11.762
▁Channel	-11.762
▁uncertain	-11.7621
▁additives	-11.7622
▁Var	-11.7623
▁consciousness	-11.7624
fen	-11.7624
▁Venezuela	-11.7625
▁Jacque	-11.763
▁thumb	-11.763
▁tens	-11.7632
▁veto	-11.7637
▁Harbour	-11.764
▁liberalization	-11.7641
▁DA	-11.7643
▁li	-11.7643
list	-11.7645
▁successive	-11.7645
▁neighbor	-11.7647
és	-11.7648
feld	-11.7648
▁recruitment	-11.765
▁Stra	-11.7654
▁SL	-11.7655
▁seating	-11.766
▁cabinet	-11.7661
tec	-11.7678
▁tasting	-11.7678
▁deterioration	-11.7679
▁bi	-11.768
▁Complete	-11.7681
▁enthusiasts	-11.7681
▁salarie	-11.7682
▁LED	-11.7684
ily	-11.7684
wi	-11.7684
▁surfing	-11.7686
▁neck	-11.7687
▁imprison	-11.7687
▁incoming	-11.7688
▁Ali	-11.7689
▁authoritarian	-11.769
▁Wales	-11.7693
▁Scott	-11.7696
▁radioactive	-11.7698
▁DG	-11.7699
room	-11.7699
▁Smart	-11.7704
▁zur	-11.7717
ence	-11.7717
▁chaos	-11.7717
▁pending	-11.7718
▁Juan	-11.7718
▁tired	-11.7725
▁originate	-11.7733
▁prototype	-11.7735
▁Sarkozy	-11.7737
▁pipe	-11.7738
▁dealers	-11.7741
▁judgement	-11.7741
ello	-11.7744
▁identifie	-11.7746
▁austerit	-11.7746
▁waterfall	-11.7748
▁Hard	-11.7748
▁binary	-11.7748
▁leg	-11.775
eck	-11.7755
▁Basque	-11.7756
▁abortion	-11.7757
▁optimistic	-11.7758
▁Virtual	-11.7758
▁grill	-11.7759
▁Visitor	-11.7762
▁seal	-11.7763
▁patio	-11.7764
ag	-11.7765
▁anybody	-11.7766
▁exemplar	-11.7766
▁foreigners	-11.7767
▁prosecution	-11.7767
ow	-11.7767
heim	-11.7767
▁proprietar	-11.7768
00	-11.7774
▁dated	-11.7774
▁Wolf	-11.7776
45	-11.778
▁seller	-11.7788
▁chips	-11.7793
▁technician	-11.7795
▁Provence	-11.7795
▁violated	-11.78
▁slip	-11.7804
▁manipulation	-11.7806
mentioned	-11.7807
▁connector	-11.7815
▁1984	-11.7816
▁boys	-11.7817
▁Fifth	-11.7825
▁cozy	-11.7825
▁chronic	-11.7826
▁remit	-11.7827
▁accountable	-11.7828
▁wanting	-11.783
▁abstract	-11.7833
▁Hat	-11.7833
▁robots	-11.7833
▁Milosevic	-11.7835
▁Santiago	-11.7835
▁proactive	-11.7835
▁Upper	-11.7835
▁courageous	-11.7835
ans	-11.7841
bre	-11.7841
▁irregularit	-11.7844
▁Aircondition	-11.7844
▁shelter	-11.7844
▁ni	-11.7847
▁sq	-11.7854
▁curious	-11.7854
▁honey	-11.7856
▁campsite	-11.7856
▁Directors	-11.7858
▁legend	-11.7858
▁82	-11.786
▁3.0	-11.7861
▁envisage	-11.7863
▁dirty	-11.7867
▁Lido	-11.7869
▁Active	-11.7871
▁Ex	-11.7872
rin	-11.7872
▁Studies	-11.7875
▁Magic	-11.7876
▁em	-11.7877
▁hang	-11.788
ay	-11.7882
▁electorate	-11.7884
▁vitamin	-11.7884
▁prayer	-11.7887
MB	-11.7891
sh	-11.7893
▁PS	-11.7894
▁Patent	-11.7896
▁exhibitors	-11.7902
▁Various	-11.7904
ani	-11.7906
▁attachment	-11.7911
▁nationalism	-11.7912
▁judiciar	-11.7914
▁Avenue	-11.7914
▁Gua	-11.7914
▁kick	-11.7916
ning	-11.7917
▁Tuscan	-11.7922
▁erect	-11.7922
▁Material	-11.7924
▁GUE	-11.7925
▁mothers	-11.7925
▁recordings	-11.7927
▁basket	-11.7934
don	-11.7935
cal	-11.7936
aw	-11.7937
▁letting	-11.7937
▁draws	-11.7942
▁bikes	-11.7942
▁ecommerce	-11.7943
▁Kim	-11.7946
▁KG	-11.7949
av	-11.7953
▁cylinder	-11.7953
ius	-11.7956
▁valleys	-11.7957
▁acoustic	-11.7957
▁advocat	-11.7959
ando	-11.7961
▁Sat	-11.7961
ati	-11.7961
ern	-11.7962
▁coat	-11.7962
▁aroma	-11.7962
▁Apache	-11.7963
▁fauna	-11.7963
▁synthetic	-11.7966
▁professionalism	-11.7966
▁slave	-11.7968
▁149	-11.7969
▁Canal	-11.797
▁CAN	-11.7971
▁embryo	-11.7973
▁stimulating	-11.7973
▁conclud	-11.7976
▁mixing	-11.7981
▁Liberti	-11.7982
▁crowd	-11.7982
▁anticipate	-11.7983
▁Province	-11.7983
▁irresponsible	-11.7983
▁Excel	-11.7985
ip	-11.7985
▁postpon	-11.7986
▁Blog	-11.7987
▁dimensional	-11.7988
▁PM	-11.7991
▁discourse	-11.7993
▁Jordan	-11.8002
mos	-11.8005
▁DIN	-11.801
▁childhood	-11.8014
ick	-11.8014
▁Peru	-11.8017
▁encouragement	-11.802
▁Title	-11.802
▁Va	-11.8022
▁Lanzarote	-11.8023
▁unclear	-11.8023
▁mask	-11.8024
▁migrat	-11.8029
▁drew	-11.8032
▁influences	-11.8034
▁infected	-11.8038
▁Com	-11.804
▁Prices	-11.8041
▁Premium	-11.8043
▁expir	-11.8047
▁pocket	-11.8049
▁Slovenian	-11.8053
▁inhabit	-11.8053
ept	-11.8054
ane	-11.8055
TNG	-11.8057
▁mutually	-11.8058
ran	-11.8058
loved	-11.8061
▁Ph	-11.8062
▁disability	-11.8064
our	-11.8064
▁fur	-11.807
▁font	-11.807
MA	-11.807
▁Den	-11.8071
▁dispatch	-11.8074
▁wins	-11.8076
▁workstation	-11.8077
▁theater	-11.8081
▁upgraded	-11.8088
▁suits	-11.809
lich	-11.8091
▁shaping	-11.8094
iest	-11.8097
▁decides	-11.8098
▁450	-11.8103
▁epidemic	-11.8104
▁coloured	-11.8104
▁Temple	-11.8105
▁donations	-11.8105
▁passionate	-11.8105
▁confrontation	-11.8105
ín	-11.8105
▁1967	-11.8106
▁disappointing	-11.8106
ois	-11.8109
27	-11.811
mel	-11.811
▁merchant	-11.8111
sarge	-11.8111
▁monopolies	-11.8114
▁charging	-11.8114
▁Perfect	-11.8116
▁Never	-11.8117
▁Democrat	-11.8119
ff	-11.8119
▁suppress	-11.8123
▁José	-11.8124
▁sink	-11.8128
IA	-11.8128
▁poses	-11.8132
▁chains	-11.8135
▁subway	-11.8136
cia	-11.8142
▁zum	-11.8142
▁Palacio	-11.8144
▁brush	-11.8145
▁ear	-11.8146
▁yea	-11.815
200	-11.8164
▁Independent	-11.8165
▁asks	-11.8168
▁depriv	-11.8168
▁prizes	-11.8169
▁Gate	-11.817
▁horny	-11.8172
▁ceramic	-11.8172
ación	-11.8173
▁Dan	-11.8173
▁archaeological	-11.8175
▁literary	-11.8176
▁Payment	-11.8176
▁anonymous	-11.8177
lready	-11.8179
▁contradict	-11.8179
▁Self	-11.8179
▁obligator	-11.8182
ep	-11.8183
▁avenue	-11.8185
bach	-11.819
▁GBP	-11.8192
▁Tools	-11.8192
63	-11.8194
▁straightforward	-11.8195
▁methodology	-11.8196
▁Prix	-11.8196
▁Eco	-11.8197
▁Angeles	-11.82
▁portray	-11.8204
▁dismiss	-11.8206
▁LAN	-11.8206
▁93	-11.8209
▁gifts	-11.8212
▁Tele	-11.8215
▁comprising	-11.8216
▁influential	-11.8216
▁shapes	-11.8216
▁Jackson	-11.8216
▁burdens	-11.8224
▁shoe	-11.8225
▁stadium	-11.8226
▁refrigerator	-11.8226
▁speeds	-11.8226
▁inch	-11.8228
▁var	-11.8231
▁Victoria	-11.8232
.10	-11.8234
security	-11.8235
▁unequivocal	-11.8236
▁designing	-11.824
▁mad	-11.8242
fin	-11.8244
▁travelers	-11.8245
▁prohibition	-11.8249
▁Was	-11.8251
26	-11.8253
▁ineffective	-11.8255
▁absent	-11.8256
gel	-11.8258
▁unexpected	-11.8259
ew	-11.8263
▁Abu	-11.8265
▁leap	-11.8267
▁1978	-11.8268
▁bre	-11.8268
▁78	-11.8275
▁Statement	-11.8275
▁crack	-11.8278
▁Customs	-11.8278
▁Wild	-11.8281
ima	-11.8281
▁icons	-11.8285
▁servants	-11.8291
▁celebrations	-11.8292
▁Bavarian	-11.8293
▁Whenever	-11.8297
▁multiannual	-11.8298
bra	-11.83
▁criticis	-11.8301
▁slope	-11.8306
▁explanator	-11.8308
▁privatisation	-11.8308
▁Bur	-11.8309
▁fift	-11.831
▁smoothly	-11.8313
▁trucks	-11.8316
▁AKVIS	-11.8318
▁Venetian	-11.8318
▁comitology	-11.8318
town	-11.8324
▁Emperor	-11.8329
▁Palm	-11.833
▁ALE	-11.833
▁Carl	-11.8333
ky	-11.8334
▁singing	-11.8338
▁Currency	-11.8339
▁elevator	-11.8339
▁pumps	-11.8342
▁ok	-11.8342
▁SMS	-11.8344
tar	-11.8345
▁undergo	-11.8345
▁reproductive	-11.835
▁Km	-11.8352
end	-11.8354
▁pressures	-11.8354
erospace	-11.8357
▁capita	-11.8358
▁Limited	-11.8358
▁ruin	-11.8358
▁indicator	-11.8361
▁bombing	-11.8364
ee	-11.8365
▁header	-11.8366
▁tale	-11.8367
▁Store	-11.8369
▁Bra	-11.837
▁injustice	-11.837
▁learnt	-11.8372
▁phases	-11.8376
▁nominat	-11.8378
▁draftsman	-11.8383
93	-11.8387
08	-11.8387
▁commoditi	-11.8391
ball	-11.8392
▁vibration	-11.8392
▁applicants	-11.8393
▁cafes	-11.8394
▁Visual	-11.8396
ere	-11.8398
▁Gen	-11.84
▁connects	-11.8401
75	-11.8401
▁Supreme	-11.8401
▁Bueno	-11.8401
▁thrust	-11.8403
▁thickness	-11.8404
▁alloy	-11.8405
▁habitat	-11.8405
▁enjoyment	-11.8408
kin	-11.8411
▁vaccination	-11.8412
bb	-11.8413
▁preferabl	-11.8414
▁sectoral	-11.8415
tory	-11.8416
▁organizer	-11.8416
▁consultancy	-11.8423
▁petrol	-11.8424
▁steady	-11.8425
▁Gott	-11.8432
▁murdered	-11.8433
fe	-11.8434
▁restart	-11.8434
sta	-11.8437
▁tap	-11.844
▁Traditional	-11.8441
▁screens	-11.8442
▁Final	-11.8444
▁transferr	-11.8446
▁professor	-11.8446
▁attribut	-11.8448
▁forcing	-11.8448
▁cloud	-11.8452
ib	-11.8454
▁1975	-11.8455
▁reconstruct	-11.8456
dor	-11.8461
eu	-11.8463
▁DJ	-11.8465
▁calculations	-11.8465
▁Clean	-11.8473
nie	-11.8474
▁cry	-11.8474
▁Oslo	-11.8474
▁guess	-11.8485
ción	-11.849
▁ethics	-11.8491
▁Baden	-11.8492
▁mayor	-11.8494
▁republic	-11.8494
▁tastes	-11.8498
▁Georgian	-11.8498
▁Ask	-11.85
▁footing	-11.8504
ID	-11.8505
▁xenophobia	-11.8506
▁Chicago	-11.8506
▁Fine	-11.8507
▁adapter	-11.8508
▁Manag	-11.8511
▁Officer	-11.8513
▁realisation	-11.8514
▁reminder	-11.8514
▁Burn	-11.8515
▁employer	-11.8516
▁biking	-11.8516
▁Klaus	-11.8517
▁inventory	-11.8518
95	-11.8521
ía	-11.8525
▁balconies	-11.8527
▁spatial	-11.8531
▁intensify	-11.8538
▁Goals	-11.8539
ico	-11.8541
▁Tur	-11.8542
▁reasonabl	-11.8542
▁beverages	-11.8542
yl	-11.8545
▁Sch	-11.8545
▁Ri	-11.8554
▁controvers	-11.8558
▁Cash	-11.8558
▁moratorium	-11.8559
▁reopen	-11.8559
▁Join	-11.8566
▁Reader	-11.8568
▁lying	-11.8569
▁marvellous	-11.8569
press	-11.8573
▁seeds	-11.8573
▁cocktails	-11.8573
▁loyalt	-11.8575
▁casting	-11.8576
▁designation	-11.8577
▁browse	-11.8579
▁premier	-11.8579
▁Perspective	-11.858
▁jury	-11.858
▁CPU	-11.858
▁Barone	-11.8583
▁surf	-11.8584
▁receiver	-11.8593
▁prostitution	-11.8601
▁dancing	-11.8601
▁gay	-11.8603
▁Premier	-11.8603
▁contradictor	-11.8604
▁Franz	-11.8607
▁Edit	-11.8608
▁sin	-11.8608
▁depression	-11.8612
▁Chapter	-11.8612
▁gun	-11.8619
link	-11.8621
▁Consulting	-11.8621
▁Individual	-11.8622
▁Property	-11.8622
77	-11.8622
▁hip	-11.8623
▁ta	-11.8623
48	-11.8624
In	-11.8626
▁flags	-11.863
▁warmth	-11.863
▁county	-11.8633
▁CFSP	-11.8633
▁stipulate	-11.8634
▁Delta	-11.8635
▁dying	-11.8635
▁authorise	-11.8635
▁fiction	-11.8638
▁validit	-11.8639
▁Bali	-11.864
▁170	-11.864
ora	-11.8642
▁Euros	-11.8643
▁breakdown	-11.8644
▁ci	-11.8645
▁creatures	-11.8646
▁Pierre	-11.8646
ona	-11.8648
PM	-11.8648
oli	-11.8651
▁Arabia	-11.8652
▁Remember	-11.8654
▁precarious	-11.8654
▁facade	-11.8654
▁offensive	-11.8654
▁flavour	-11.8655
▁hi	-11.8661
▁Pope	-11.8662
AS	-11.8663
▁cleaner	-11.8666
tin	-11.8667
▁scratch	-11.8667
▁cart	-11.867
▁copied	-11.8672
▁Scottis	-11.868
▁Visa	-11.8685
▁readily	-11.8688
stadt	-11.8688
▁67	-11.8689
▁Motor	-11.8692
▁blank	-11.8695
▁Leonardo	-11.8699
▁Kon	-11.8699
▁mistaken	-11.8701
▁nomination	-11.8701
▁Sha	-11.8706
▁Henry	-11.8708
▁bis	-11.8709
▁89	-11.8712
▁stipulated	-11.8713
▁Commerce	-11.8715
▁delet	-11.8718
▁provoke	-11.8719
▁internally	-11.872
▁Mercedes	-11.8729
▁Granada	-11.873
▁historian	-11.873
▁1.1	-11.8738
▁hydro	-11.8738
▁HI	-11.8739
▁affirm	-11.8739
▁Pension	-11.8739
▁Learning	-11.874
▁fusion	-11.874
▁destructive	-11.874
▁Clinton	-11.874
▁salary	-11.8741
sky	-11.8749
▁Days	-11.875
▁authorization	-11.8753
▁Aires	-11.8755
▁ceilings	-11.8756
ell	-11.8761
▁horror	-11.8762
▁Number	-11.8762
▁outlook	-11.8763
▁Journal	-11.8763
▁pubs	-11.8763
▁Editor	-11.8764
.8	-11.8765
▁stack	-11.8767
▁tu	-11.8768
▁redundant	-11.8772
▁leverage	-11.8772
▁Cubas	-11.8777
▁shield	-11.8779
TE	-11.878
▁brothers	-11.8781
▁Companie	-11.8783
▁deregulation	-11.8784
▁Fran	-11.8785
▁Tax	-11.8786
ée	-11.8787
▁hostage	-11.8788
▁dictate	-11.8794
▁seamless	-11.8794
▁10,000	-11.8797
▁facto	-11.8801
ville	-11.8801
▁faction	-11.8802
▁abide	-11.8804
lic	-11.8804
▁Alt	-11.8807
use	-11.8812
▁switching	-11.8813
▁billions	-11.8813
▁Vo	-11.8815
las	-11.8816
▁editorial	-11.8816
▁investor	-11.8817
▁subsidy	-11.8819
▁61	-11.8821
▁grapes	-11.8823
▁Parking	-11.8823
▁conquer	-11.8824
TM	-11.8826
▁Terminal	-11.8827
▁compound	-11.8835
▁firewall	-11.8838
▁starship	-11.884
▁Mann	-11.884
har	-11.8841
▁specialise	-11.8842
▁deposits	-11.8842
▁metre	-11.8843
▁cruise	-11.8844
▁Col	-11.8845
▁volcanic	-11.8848
▁dedication	-11.8848
▁NGL	-11.8849
▁Cu	-11.885
▁duplicate	-11.8851
▁artwork	-11.8853
▁1920	-11.8854
grad	-11.8854
tan	-11.8856
▁opponent	-11.8857
misunderstanding	-11.8859
▁reconsider	-11.8859
▁REACH	-11.8859
▁Ci	-11.8864
▁populat	-11.8868
ties	-11.8869
▁Specific	-11.8869
▁appealing	-11.8871
▁Found	-11.8873
28	-11.8875
▁ME	-11.8875
▁towers	-11.888
▁polite	-11.8881
▁liquidit	-11.8883
ito	-11.8885
▁1982	-11.8886
▁templates	-11.8887
▁fruitful	-11.8887
▁Beauty	-11.8892
▁feeding	-11.8894
▁restraint	-11.8895
▁Easter	-11.8896
▁Majorca	-11.8898
ér	-11.8899
▁economists	-11.8899
▁politician	-11.8901
▁notable	-11.8902
▁vegetarian	-11.8903
▁sacred	-11.8903
▁tighten	-11.8903
▁hither	-11.8904
▁Often	-11.8907
fo	-11.8912
▁COD	-11.892
▁Albert	-11.8923
▁incompatible	-11.8923
▁exterior	-11.8925
▁glance	-11.8925
▁stopping	-11.8925
oni	-11.8926
29	-11.8928
▁Verts	-11.8928
▁hatred	-11.8936
▁88	-11.8944
▁mentioning	-11.8945
▁disorder	-11.8946
▁rooted	-11.8946
▁Benjamin	-11.8947
▁Israelis	-11.8948
▁rises	-11.8949
cm	-11.895
▁somewher	-11.8952
▁Born	-11.8954
▁beta	-11.8955
▁sunshine	-11.8958
▁actress	-11.8958
▁Run	-11.8961
▁Fix	-11.8963
▁None	-11.8963
▁rebel	-11.8964
▁lodging	-11.8969
▁Gra	-11.8974
▁TH	-11.898
▁Maison	-11.898
▁manoeuvre	-11.8982
▁1968	-11.8984
▁Planet	-11.8985
▁Vision	-11.899
sin	-11.8991
▁Deutschland	-11.8991
▁welding	-11.8991
▁Eurostat	-11.8991
▁1976	-11.8992
▁sciences	-11.8992
▁ST	-11.8993
▁cookie	-11.8994
72	-11.8995
▁Name	-11.8997
▁Monitoring	-11.8999
▁incidental	-11.9001
▁Marbella	-11.9002
▁minimize	-11.9002
▁castles	-11.9002
▁exile	-11.9003
▁qualify	-11.9006
▁humans	-11.9007
▁Date	-11.9012
▁substantive	-11.9013
▁patience	-11.9013
▁herein	-11.9015
▁Cambodia	-11.9019
56	-11.9021
▁tar	-11.9021
vin	-11.9024
▁Manhattan	-11.9024
▁packing	-11.9024
▁Adjustment	-11.9024
▁gateway	-11.9025
elli	-11.9025
▁Bahn	-11.9026
▁priced	-11.9028
▁supplying	-11.9035
0,000	-11.9035
▁nose	-11.9041
gan	-11.9042
▁pensioner	-11.9045
vor	-11.9045
▁specialties	-11.9049
én	-11.9054
▁occurrence	-11.9058
ux	-11.9058
▁flame	-11.9058
▁hath	-11.9059
▁ordering	-11.9062
▁True	-11.9063
shi	-11.9065
▁lectures	-11.9065
▁attache	-11.9068
▁pound	-11.907
100	-11.907
ps	-11.9075
▁prevailing	-11.9079
▁Kinnock	-11.908
▁sentiment	-11.9081
▁dish	-11.9081
▁extraction	-11.9082
▁swing	-11.9083
▁protects	-11.9084
ale	-11.9084
▁guys	-11.9085
▁Metal	-11.9086
▁Luc	-11.9086
▁durable	-11.9092
23	-11.9092
▁Siena	-11.9092
▁protocols	-11.9095
▁Seven	-11.9096
▁steadi	-11.9097
top	-11.9098
▁Russians	-11.9105
38	-11.9111
vez	-11.9113
▁millennium	-11.9113
▁simplicity	-11.9113
▁unchanged	-11.9113
▁traveling	-11.9114
▁fleets	-11.9118
▁pulse	-11.9119
▁CA	-11.9119
▁Algarve	-11.9124
▁resolute	-11.9124
91	-11.9125
▁excursion	-11.9126
▁Imperial	-11.9129
▁invention	-11.9134
tech	-11.9136
▁marginal	-11.9137
ban	-11.9139
▁bak	-11.9142
▁bananas	-11.9142
▁jet	-11.9145
▁lucky	-11.9147
▁unwilling	-11.9147
yn	-11.9147
▁muy	-11.9148
len	-11.9148
▁bets	-11.9149
▁assortment	-11.9158
par	-11.9162
▁Panel	-11.9163
89	-11.9165
▁Lower	-11.9166
▁3000	-11.9167
▁antibiotic	-11.9169
Net	-11.917
▁Former	-11.9173
▁Fe	-11.9179
▁Mugabe	-11.918
▁spin	-11.918
▁Superior	-11.9181
▁recourse	-11.9181
▁125	-11.9184
▁rows	-11.9186
▁expedition	-11.9192
▁Kenya	-11.9198
deeper	-11.9199
▁conceiv	-11.9205
ris	-11.9206
kov	-11.921
▁sid	-11.9214
▁Awards	-11.9214
▁deliberation	-11.9215
▁farmhouse	-11.9215
▁Vor	-11.9216
▁reunification	-11.9216
▁logos	-11.9218
▁Cha	-11.9219
55	-11.9222
▁DNA	-11.9222
▁inherit	-11.9225
▁prosperous	-11.9226
▁SSL	-11.9227
▁91	-11.9229
▁weekends	-11.9231
▁Sahara	-11.9232
17	-11.9233
iti	-11.9236
▁cloning	-11.9237
▁Wood	-11.9237
▁Oil	-11.9239
▁organisational	-11.924
▁betting	-11.9241
▁Lama	-11.9246
▁disturbing	-11.925
▁Zone	-11.9251
▁odd	-11.9251
ons	-11.9256
▁nutrition	-11.9256
▁tail	-11.9256
▁1.4	-11.9259
▁Paragraph	-11.926
▁loving	-11.926
world	-11.926
▁socket	-11.9262
▁Sciences	-11.9266
▁publisher	-11.9269
▁SPA	-11.9271
▁Fuji	-11.9272
▁discriminate	-11.9272
▁assuming	-11.9274
▁Map	-11.9275
▁sadly	-11.9277
▁underway	-11.9277
▁plastics	-11.9278
▁Mode	-11.9279
▁Neighbourhood	-11.9282
▁Ober	-11.929
▁massages	-11.9292
▁nowhere	-11.9294
▁mobilise	-11.9295
▁legs	-11.9296
▁headline	-11.9297
▁Maritime	-11.9297
zy	-11.9298
65	-11.9299
ob	-11.93
▁lamps	-11.9301
ante	-11.9302
▁ka	-11.9304
▁celebrating	-11.9305
▁doctrine	-11.9311
▁egg	-11.9312
▁2.2	-11.9314
▁LA	-11.9315
ub	-11.9316
▁Cairo	-11.9317
▁recipes	-11.9317
▁Portal	-11.9321
book	-11.9325
gainst	-11.9328
▁jacuzzi	-11.9328
▁harmonization	-11.9328
▁stamp	-11.933
enberg	-11.933
▁handy	-11.9334
▁odds	-11.9338
▁miracle	-11.9339
▁Lodge	-11.934
▁Fri	-11.9341
▁83	-11.9344
▁Six	-11.9346
▁accomplish	-11.9347
▁assistant	-11.9349
ide	-11.9349
▁radar	-11.9351
▁mysterious	-11.9351
▁terminals	-11.9351
▁Junior	-11.9351
▁Share	-11.9352
▁invalid	-11.9352
▁tie	-11.9354
pro	-11.9356
▁tall	-11.9356
▁attendance	-11.936
▁Gro	-11.936
▁showers	-11.9361
▁pluralism	-11.9362
▁unwind	-11.9363
▁ratings	-11.9363
▁bei	-11.9363
37	-11.9364
▁league	-11.9365
49	-11.9367
▁RS	-11.9367
▁Fan	-11.9367
▁underestimate	-11.9371
▁WiF	-11.9374
▁copying	-11.9374
▁Split	-11.9374
▁disorders	-11.9375
▁beneficiari	-11.9375
▁Made	-11.938
▁warned	-11.9381
▁provisional	-11.9383
nen	-11.9384
▁Hollywood	-11.9385
▁Café	-11.9385
▁más	-11.9386
▁76	-11.9395
▁cow	-11.9395
personality	-11.9396
▁lady	-11.9398
▁interviews	-11.9401
▁loads	-11.9401
▁cofinanc	-11.9405
▁happines	-11.9406
▁correctness	-11.9407
▁Pu	-11.9408
▁knock	-11.9408
▁username	-11.9409
pen	-11.9409
▁cake	-11.941
▁colony	-11.9413
▁surrender	-11.942
▁Jack	-11.9421
▁monk	-11.9421
▁Early	-11.9424
▁Ages	-11.9426
▁Texa	-11.9428
▁mercury	-11.9431
▁Wolfgang	-11.9431
▁Tyrolean	-11.9431
▁Bon	-11.9434
ating	-11.9435
water	-11.9436
ré	-11.9438
▁Kor	-11.9439
02	-11.9439
▁Event	-11.9441
▁Mor	-11.9443
▁Eurex	-11.9444
▁devise	-11.9444
▁Table	-11.9445
▁personaliz	-11.9446
▁anger	-11.9447
▁desires	-11.9447
44	-11.9447
▁Aus	-11.945
66	-11.945
▁rope	-11.9451
▁dispariti	-11.9451
▁Im	-11.9452
▁flourish	-11.9453
▁Entertainment	-11.9454
▁Countries	-11.9454
▁mails	-11.9455
▁Pra	-11.9458
21	-11.9461
▁greet	-11.9462
▁physician	-11.9466
▁mal	-11.9467
nic	-11.9469
▁photographic	-11.9472
▁professions	-11.9472
▁Wald	-11.9473
▁dell	-11.9475
▁NH	-11.9476
▁Bath	-11.9477
▁Form	-11.948
ong	-11.9485
uri	-11.9485
▁ridiculous	-11.9489
▁disclosure	-11.9489
▁Cardassian	-11.949
▁mainland	-11.949
▁decree	-11.949
▁lesser	-11.9492
▁jam	-11.9493
▁describ	-11.9505
▁peer	-11.9505
▁perpetrator	-11.9506
▁ja	-11.9508
▁captain	-11.9509
ets	-11.951
▁pollut	-11.9518
▁occupational	-11.9519
▁bo	-11.9523
▁forefront	-11.9524
▁Rosa	-11.9526
▁ANY	-11.9526
▁locked	-11.9528
ici	-11.9529
47	-11.9532
▁contracting	-11.9534
▁Estate	-11.9537
▁grows	-11.9539
stone	-11.9542
▁Directorate	-11.9544
▁Plant	-11.9544
▁inspectors	-11.9545
aria	-11.9546
▁Mozart	-11.9547
▁plasma	-11.9547
▁Ultimate	-11.9547
▁midnight	-11.9547
▁compression	-11.9548
onciliation	-11.9549
▁filed	-11.9549
▁hoc	-11.9551
star	-11.9551
▁salon	-11.9554
▁brave	-11.956
▁retrieve	-11.956
▁Essen	-11.9562
▁detrimental	-11.9562
bu	-11.9564
matic	-11.9564
▁mono	-11.9564
▁Yu	-11.9564
dia	-11.957
▁shipp	-11.9572
▁cereals	-11.9573
▁Mill	-11.9574
▁informative	-11.9576
▁Han	-11.9576
▁happi	-11.9578
▁Ever	-11.9578
▁hunt	-11.9578
af	-11.9582
▁focal	-11.9582
▁Brown	-11.9582
▁drought	-11.9583
▁Communities	-11.9583
▁encrypted	-11.9585
▁floating	-11.9585
▁constituents	-11.9591
light	-11.9592
▁spiral	-11.9594
▁Hospital	-11.9594
▁Platform	-11.9594
▁Overall	-11.9594
▁enact	-11.9595
ric	-11.9595
▁guesthouse	-11.9596
88	-11.9596
▁buyers	-11.9597
▁equip	-11.9597
46	-11.96
ef	-11.9602
▁Regions	-11.9602
▁apparatus	-11.9606
▁Oxford	-11.9606
▁chicken	-11.9606
▁pe	-11.9607
▁1.3	-11.9609
▁appliances	-11.9614
▁Mare	-11.9615
displaced	-11.9617
▁racist	-11.9618
▁Frontex	-11.9618
▁stall	-11.9619
▁Gal	-11.962
▁deepen	-11.9626
▁caves	-11.9627
▁Dark	-11.9629
▁browsing	-11.9629
▁Verona	-11.963
▁hedge	-11.963
▁insulation	-11.9631
▁interoperabil	-11.9634
capable	-11.9635
IS	-11.9637
▁Canaria	-11.9637
▁athletes	-11.9639
▁unambiguous	-11.9641
▁remuneration	-11.9641
▁Camping	-11.9646
▁encompass	-11.9647
▁pub	-11.9649
▁farmer	-11.9652
▁inquiries	-11.9653
▁Lady	-11.9654
▁Way	-11.9656
CH	-11.9656
PS	-11.9657
▁ho	-11.9661
▁collaborate	-11.9663
▁gauge	-11.9663
▁0.5	-11.9667
▁expressions	-11.9668
▁corners	-11.9676
▁shorten	-11.9678
▁Norwegian	-11.9688
▁Palazzo	-11.9688
▁microwave	-11.9688
▁MPEG	-11.9689
ij	-11.969
▁costume	-11.9691
▁Prior	-11.9691
▁Soft	-11.9695
▁aggregate	-11.97
▁Outlook	-11.97
▁intact	-11.97
▁winds	-11.9705
▁Put	-11.9708
▁Dar	-11.971
▁Beyond	-11.9712
jpg	-11.9712
▁Gender	-11.9713
CO	-11.9715
▁Comment	-11.9715
▁intolerabl	-11.9716
▁beliefs	-11.9717
▁Electronic	-11.9717
▁steering	-11.9719
▁geographic	-11.9722
▁philosopher	-11.9724
▁oak	-11.9725
76	-11.9726
▁upward	-11.9727
▁AL	-11.9728
▁77	-11.9731
▁Arabic	-11.9735
▁recipe	-11.9736
▁frontiers	-11.9736
RE	-11.9739
unification	-11.9743
▁Gas	-11.9745
▁drift	-11.9747
▁laboratorie	-11.9748
▁barrel	-11.975
▁bankruptc	-11.9754
▁relay	-11.9758
▁69	-11.9758
▁128	-11.976
34	-11.9763
▁Fast	-11.9763
68	-11.9763
▁unsatisfactory	-11.9763
▁Fo	-11.9764
▁Sar	-11.9768
▁Newsletter	-11.9772
tte	-11.9773
▁periodical	-11.9773
▁lane	-11.9776
▁County	-11.9778
▁chic	-11.9778
html	-11.9779
hal	-11.9782
▁Unit	-11.9782
▁wellbeing	-11.9784
▁pretend	-11.9784
▁termination	-11.9784
▁Karel	-11.979
▁wie	-11.9794
▁seventh	-11.9795
▁hurt	-11.9796
▁rooftop	-11.9796
▁religions	-11.9801
39	-11.9805
yo	-11.9807
▁striving	-11.9807
los	-11.9808
▁Dis	-11.9808
▁Bremen	-11.9808
▁1973	-11.9808
▁tub	-11.981
▁extensions	-11.9815
▁combinations	-11.9815
▁writes	-11.9816
98	-11.9816
▁Aid	-11.9816
▁Geo	-11.9818
▁enlighten	-11.9819
▁Ambassador	-11.9819
▁Chernobyl	-11.9819
▁disarmament	-11.982
▁1981	-11.9821
▁toll	-11.9824
▁rotat	-11.9824
▁laundering	-11.9825
▁holy	-11.9827
▁cultivat	-11.9828
▁litre	-11.9828
▁1500	-11.9829
▁HTTP	-11.9831
▁alternate	-11.9832
▁interact	-11.9832
▁assault	-11.9832
▁hamper	-11.9832
ces	-11.9832
▁Theater	-11.9832
etta	-11.9832
▁domains	-11.9833
▁endanger	-11.9833
31	-11.9835
▁casual	-11.9839
▁220	-11.9839
▁Commander	-11.984
▁boutiques	-11.9841
▁Automatic	-11.9841
▁robot	-11.9842
▁Yugoslav	-11.9843
▁Azerbaijan	-11.9843
▁detain	-11.9844
té	-11.9844
▁86	-11.9848
▁stor	-11.9853
del	-11.9856
▁hanging	-11.9857
▁carpet	-11.9858
43	-11.9864
▁Performance	-11.9868
bed	-11.987
DA	-11.9872
▁Tra	-11.9872
▁Mayor	-11.9877
most	-11.9879
az	-11.9885
▁cook	-11.9886
▁Messe	-11.9888
▁mainstream	-11.989
▁vigilant	-11.9892
▁Stone	-11.9896
▁Had	-11.9897
▁Terra	-11.99
▁trap	-11.9901
TS	-11.9903
▁Rimini	-11.9904
,00	-11.9906
▁cod	-11.9912
▁relieve	-11.9912
getting	-11.9915
▁supranational	-11.9915
▁consecutive	-11.9916
▁perceiv	-11.9918
▁administrations	-11.9919
shop	-11.9923
▁clinic	-11.9925
aries	-11.9928
▁Stephen	-11.9928
SS	-11.9937
▁thematic	-11.9937
ende	-11.9938
▁Nuclear	-11.994
▁Important	-11.994
▁Normal	-11.9941
▁advisabl	-11.9941
▁Ga	-11.9945
▁94	-11.9945
ator	-11.9948
▁intervals	-11.995
▁Grande	-11.995
▁Knowledge	-11.9952
▁Vulcan	-11.9952
▁diversification	-11.9952
▁guardian	-11.9954
▁Quarter	-11.9954
▁Translation	-11.9955
▁alcoholic	-11.9955
▁yourselve	-11.9956
▁carriage	-11.9958
▁Secure	-11.9961
▁pray	-11.9962
hereby	-11.9962
▁terminolog	-11.9964
▁Creative	-11.9965
▁malaria	-11.9965
▁canal	-11.9967
withstand	-11.9968
▁CAD	-11.9974
▁realis	-11.9975
▁quo	-11.9977
▁invoke	-11.9978
▁Model	-11.9979
▁1983	-11.9979
▁tyre	-11.998
▁banquet	-11.9987
▁frontier	-11.9988
▁oils	-11.9989
▁Del	-11.9996
▁fixing	-11.9997
▁butter	-11.9997
▁interiors	-11.9998
▁Bluetooth	-12.0001
▁locate	-12.0005
▁optimism	-12.0005
BC	-12.0005
▁dynamics	-12.0009
▁Frattini	-12.0013
▁upgrading	-12.0013
▁Jazz	-12.0014
▁1974	-12.0014
▁poly	-12.0015
▁durch	-12.0022
▁approving	-12.0026
▁Rotarian	-12.0026
▁traveller	-12.0026
bility	-12.0026
▁Gardens	-12.0027
▁Cat	-12.003
▁windsurf	-12.0032
▁Wind	-12.0032
ins	-12.0034
▁einer	-12.0036
▁arose	-12.0037
▁machining	-12.0038
▁traceabilit	-12.0039
▁196	-12.0047
▁tubes	-12.0048
▁simultaneous	-12.0049
▁Hal	-12.0049
▁miser	-12.0049
▁hypocrisy	-12.005
▁Catalan	-12.005
▁worries	-12.005
▁pamper	-12.005
▁dé	-12.0052
▁hits	-12.0054
▁Republican	-12.0056
air	-12.006
▁pipes	-12.0062
▁Malaga	-12.0063
▁impos	-12.0066
▁deplore	-12.0066
▁denounce	-12.0068
ological	-12.0074
▁Mad	-12.0075
▁marketplace	-12.0076
78	-12.0078
▁ICT	-12.0079
tur	-12.008
▁Ya	-12.0082
▁Bau	-12.0083
▁token	-12.0086
▁physics	-12.0087
▁Core	-12.0087
▁mobilisation	-12.0088
▁venues	-12.0089
▁sensation	-12.0089
day	-12.0091
▁accidental	-12.0092
▁accesses	-12.0096
▁jeopardise	-12.0098
▁shake	-12.0099
▁emails	-12.0099
▁impartial	-12.0099
tico	-12.01
▁exporter	-12.0105
uches	-12.0105
▁fairs	-12.0109
▁disturb	-12.011
▁charts	-12.011
▁rape	-12.0111
▁immune	-12.0112
▁Mer	-12.0113
▁pioneer	-12.0114
▁Friedrich	-12.0115
▁1.0	-12.0116
▁brick	-12.0117
▁relatives	-12.0117
▁organizational	-12.0118
▁camione	-12.0118
▁rendered	-12.012
▁sided	-12.012
▁forty	-12.0123
▁Ki	-12.0123
ants	-12.0125
▁Solar	-12.0128
▁Formula	-12.0134
▁judgments	-12.0134
▁UV	-12.0135
▁baroque	-12.0136
▁masterpiece	-12.0136
▁buri	-12.0138
▁Ethiopia	-12.0144
midst	-12.0148
erlusconi	-12.0149
▁mall	-12.015
▁Too	-12.0151
▁Comfort	-12.0153
▁shed	-12.0154
▁instrumental	-12.0156
▁sw	-12.0156
EC	-12.0158
▁HR	-12.0159
▁optimise	-12.0161
▁1977	-12.0162
SE	-12.0164
▁cruel	-12.0167
elle	-12.017
▁sons	-12.0173
▁civilization	-12.0173
▁relaunch	-12.0174
▁clever	-12.0174
▁ministerial	-12.0174
▁nurse	-12.0177
ori	-12.0181
.0	-12.0182
▁unconditional	-12.0186
▁Watson	-12.0186
▁Living	-12.0186
▁Mother	-12.0187
▁Partners	-12.0187
▁81	-12.0195
▁poet	-12.0196
▁censor	-12.0197
▁charit	-12.0201
▁Sala	-12.0202
▁Marc	-12.0204
▁Base	-12.0204
▁Vol	-12.0206
▁homeland	-12.0209
▁ab	-12.021
▁eternal	-12.0211
▁stuck	-12.0211
▁Mission	-12.0212
▁distributor	-12.0213
▁climatic	-12.0213
og	-12.0215
▁coincide	-12.0215
IN	-12.0216
▁ears	-12.0216
▁printers	-12.0216
pl	-12.0217
▁Ze	-12.0219
my	-12.0221
▁Cost	-12.0223
▁frustration	-12.0223
▁reluctant	-12.0223
▁infant	-12.0224
▁Mass	-12.023
▁debit	-12.023
▁cloth	-12.023
79	-12.0236
▁pronounced	-12.0243
▁adventures	-12.0247
▁jungle	-12.0248
▁Accommodation	-12.0248
▁tabling	-12.0249
▁operative	-12.0249
▁prisons	-12.0251
▁fishery	-12.0252
▁Total	-12.0256
▁snowboard	-12.0259
▁manuscript	-12.0261
▁Mozilla	-12.0261
▁adidas	-12.0261
▁temptation	-12.0262
▁customize	-12.0262
▁Haus	-12.0264
▁Converter	-12.0264
▁streams	-12.0265
▁breache	-12.0267
▁irregular	-12.027
pu	-12.0271
▁storey	-12.0272
IP	-12.0273
VIEW	-12.0274
num	-12.028
SEAN	-12.0281
▁maker	-12.0283
▁gastronom	-12.0285
▁scroll	-12.0286
▁Farm	-12.0286
▁Florida	-12.0288
▁Walter	-12.0291
▁Germans	-12.0291
▁banner	-12.0291
▁Pal	-12.0296
▁Oracle	-12.0299
▁Bangkok	-12.0299
▁pertain	-12.03
▁Je	-12.0301
▁compressor	-12.0303
▁trick	-12.0305
▁Buy	-12.0308
can	-12.0309
▁cooked	-12.031
▁counterfeit	-12.0311
▁Heidelberg	-12.0311
▁essay	-12.0311
▁energetic	-12.0314
▁Laek	-12.0314
▁animated	-12.0315
ill	-12.0318
mat	-12.032
▁Buddhist	-12.0324
▁Surround	-12.0324
▁Senate	-12.0324
▁cosmetics	-12.0328
▁god	-12.033
▁cafe	-12.0333
▁championship	-12.0333
▁1.6	-12.0333
▁landmark	-12.0334
▁Titan	-12.0334
▁ECHO	-12.0337
ks	-12.0339
nce	-12.0342
▁disable	-12.0343
▁glacier	-12.0346
▁Nicola	-12.0347
▁plateau	-12.0348
▁exploration	-12.0349
▁SIS	-12.0351
▁mediation	-12.0352
uch	-12.0352
ama	-12.0354
▁unus	-12.0355
▁illnesses	-12.036
▁Stefan	-12.0361
▁acclaim	-12.0362
▁struggling	-12.0362
▁implicit	-12.0362
▁Moroccan	-12.0362
nal	-12.0365
ire	-12.0368
▁stresse	-12.0369
▁FC	-12.0369
▁Belgrade	-12.0374
▁barbecue	-12.0374
▁excitement	-12.0375
▁Numero	-12.0375
▁curb	-12.0376
hr	-12.0378
▁auditor	-12.0379
▁tiles	-12.0381
▁HOTEL	-12.0385
▁resemble	-12.0385
▁Mas	-12.0386
▁diagram	-12.0387
▁twentieth	-12.0388
▁attacker	-12.0388
▁Cannes	-12.0388
▁EGF	-12.0389
hl	-12.039
▁74	-12.0391
▁Sofia	-12.0393
▁Simon	-12.0396
▁lacks	-12.0397
▁Ethernet	-12.04
bin	-12.0401
▁Half	-12.0401
▁Equality	-12.0403
▁Aviation	-12.0413
▁utiliz	-12.0413
▁Ter	-12.0414
▁Erika	-12.0414
▁premiere	-12.0415
▁GB	-12.0419
▁statistic	-12.0419
▁repository	-12.0419
▁seas	-12.0422
▁anxious	-12.0425
▁duplication	-12.0426
▁jacket	-12.0426
▁Movement	-12.0426
▁mud	-12.0426
▁provinces	-12.0426
mark	-12.0426
▁infinite	-12.0428
▁RAM	-12.0429
▁rotation	-12.0429
▁SI	-12.0434
▁loyal	-12.0436
▁Different	-12.0438
▁oppression	-12.0439
▁2.4	-12.044
▁Shi	-12.0446
▁disappearance	-12.0452
ral	-12.0454
▁descend	-12.0461
▁Innsbruck	-12.0464
▁crazy	-12.0464
▁proceeding	-12.0464
met	-12.0466
▁fulfilment	-12.0466
▁quotation	-12.0471
▁wi	-12.0471
strasse	-12.0475
▁sculpture	-12.0475
▁lecture	-12.0476
▁worn	-12.0477
▁PXI	-12.0477
▁chapel	-12.0477
RA	-12.0478
▁disruption	-12.0478
▁Bonus	-12.0478
aker	-12.048
▁delights	-12.0484
▁Commercial	-12.0489
▁restructure	-12.049
▁Che	-12.049
▁municipalitie	-12.0491
right	-12.0493
▁deepening	-12.0494
▁envelope	-12.0496
▁skiers	-12.0496
osa	-12.05
▁Sur	-12.05
▁WHO	-12.0502
▁addiction	-12.0503
▁funny	-12.0503
▁glory	-12.0504
▁Para	-12.0504
▁dental	-12.0505
▁weigh	-12.0505
▁waiver	-12.0507
▁gr	-12.0508
▁Petersburg	-12.0508
RO	-12.0509
▁Magazine	-12.0512
▁diese	-12.0512
▁Bug	-12.0514
▁Facebook	-12.0515
▁gates	-12.0516
▁theories	-12.0517
▁73	-12.0526
▁Dubai	-12.0528
▁strings	-12.0529
▁signator	-12.053
▁Dream	-12.0531
▁ro	-12.0531
▁pets	-12.0533
▁Ball	-12.0534
▁meadows	-12.0535
▁foam	-12.0536
▁lib	-12.0538
▁stroke	-12.0539
▁geo	-12.0539
▁Generation	-12.0541
▁prosecutor	-12.0544
▁assistants	-12.0547
ela	-12.0553
▁Franco	-12.0557
▁Ost	-12.0559
ili	-12.056
ore	-12.056
▁Gre	-12.0562
▁Hand	-12.0562
▁Bor	-12.0565
▁empower	-12.0566
▁tutorial	-12.0567
▁Better	-12.0569
54	-12.0572
▁poll	-12.0574
67	-12.0575
▁Cube	-12.0576
▁vendors	-12.0576
▁Mari	-12.0577
▁rustic	-12.0577
▁mar	-12.0577
▁nationalist	-12.0577
mit	-12.0578
▁apologise	-12.0578
▁invent	-12.0579
▁Tim	-12.0579
▁cu	-12.058
▁hook	-12.0583
▁wheat	-12.0585
▁Crete	-12.0589
▁utilize	-12.0592
▁MIDI	-12.0593
▁Johannesburg	-12.0593
▁liberties	-12.0593
mont	-12.0594
▁Target	-12.0597
▁Ultra	-12.0597
▁void	-12.0597
▁underwater	-12.0598
cast	-12.06
▁Contract	-12.0604
▁bizarre	-12.0605
space	-12.0607
▁Carlos	-12.0614
▁publishers	-12.0618
▁Tenerife	-12.0618
▁albums	-12.0621
▁fame	-12.0622
▁Torre	-12.0625
▁Rail	-12.063
▁nicely	-12.063
bau	-12.0631
▁discourage	-12.0631
▁Harry	-12.0632
▁soap	-12.0633
▁Castro	-12.0634
▁notebook	-12.0638
▁Sydney	-12.0644
▁Lee	-12.0646
▁Jet	-12.0649
▁monitors	-12.065
▁pink	-12.0653
▁Virgin	-12.0653
point	-12.0655
▁Points	-12.0657
▁hydrogen	-12.0658
▁bien	-12.0659
▁magnet	-12.0659
hen	-12.0661
▁expose	-12.0661
▁leaf	-12.0663
▁84	-12.0664
▁Transfer	-12.0665
▁oversee	-12.0668
▁pa	-12.0671
▁Arrival	-12.0671
pin	-12.0672
▁incomprehensibl	-12.0675
eur	-12.0675
▁commence	-12.0678
▁CH	-12.068
▁rounds	-12.0682
▁Blizzard	-12.0684
▁Zürich	-12.0684
▁denial	-12.0685
vy	-12.0687
85	-12.0687
ige	-12.0687
film	-12.0688
▁bombs	-12.0689
▁RE	-12.0692
power	-12.0692
▁censure	-12.0693
▁Bologn	-12.0693
bel	-12.0693
▁Bull	-12.0697
▁neoliberal	-12.0697
▁obsolete	-12.0697
▁preferential	-12.0697
▁Manchester	-12.0697
▁passwords	-12.0698
▁1.	-12.0701
ture	-12.0702
▁Fu	-12.0704
▁useless	-12.0708
▁abundance	-12.071
▁uranium	-12.071
▁ICE	-12.0711
▁Urban	-12.0713
▁Bible	-12.0713
gricultural	-12.0713
▁circular	-12.0713
▁Seventh	-12.0714
▁subtle	-12.0714
ej	-12.0714
▁Package	-12.0715
▁mattress	-12.0715
master	-12.0715
▁Money	-12.0719
▁logging	-12.0719
▁journal	-12.0723
▁oxygen	-12.0723
▁Punta	-12.0723
▁Anne	-12.0723
mes	-12.0725
▁Lyon	-12.0725
▁conformit	-12.0726
▁lightweight	-12.0736
▁PVC	-12.0737
▁SEO	-12.0738
▁Quartet	-12.0741
▁paramount	-12.075
▁deficiencies	-12.075
▁Develop	-12.0751
73	-12.0753
war	-12.0755
▁tri	-12.0757
rz	-12.0759
57	-12.0759
▁implied	-12.0762
▁Barnier	-12.0763
▁fluctuation	-12.0763
▁franchise	-12.0763
▁nominal	-12.0764
▁beneath	-12.0764
▁Worker	-12.0766
▁precedence	-12.0776
copter	-12.0776
▁Snow	-12.0776
▁Construction	-12.0776
▁pond	-12.0777
▁Value	-12.0778
▁Function	-12.0779
▁Sixth	-12.078
▁majestic	-12.078
bro	-12.078
▁lamp	-12.0782
▁unrealistic	-12.0789
▁Reference	-12.0789
▁endure	-12.0789
▁intra	-12.0791
unt	-12.0791
▁leak	-12.0792
▁cement	-12.0792
▁Shuttle	-12.0792
▁Others	-12.0794
▁Baroque	-12.0802
▁supplemented	-12.0802
▁Export	-12.0802
▁positioning	-12.0805
card	-12.0805
▁compounds	-12.0805
▁nets	-12.0807
▁spark	-12.0808
▁Settings	-12.081
▁stretche	-12.081
▁ALL	-12.0811
▁composite	-12.0815
▁Initial	-12.0816
▁medal	-12.0816
▁characterise	-12.0818
▁cables	-12.0818
▁ILO	-12.0819
▁Train	-12.0819
▁Leader	-12.0824
head	-12.0825
▁EURO	-12.0828
▁inflict	-12.0829
▁distress	-12.0831
▁ich	-12.0834
▁Econom	-12.0837
▁freeze	-12.0841
▁Extra	-12.0842
▁Bolkestein	-12.0842
▁Volkswagen	-12.0842
ira	-12.0842
83	-12.0843
▁Everest	-12.0845
▁hell	-12.0847
▁Tony	-12.0848
▁Tool	-12.0851
▁batch	-12.0852
74	-12.0854
▁veterinary	-12.0855
▁lighter	-12.0856
▁Fischer	-12.0857
▁Uni	-12.0858
▁pr	-12.0858
▁routing	-12.0863
▁Ring	-12.0867
▁Certain	-12.087
▁tray	-12.0874
▁Thing	-12.0876
▁Lanka	-12.0877
▁hero	-12.0879
▁touristic	-12.088
▁pregnant	-12.0882
▁scandalous	-12.0882
▁redundancies	-12.0882
get	-12.0884
mal	-12.0884
▁grace	-12.0886
▁cosmopolitan	-12.0895
▁lyric	-12.0898
▁Ser	-12.0898
▁differs	-12.0902
▁alleviate	-12.0902
▁Continental	-12.0902
oboda	-12.0904
▁backwards	-12.0904
▁declin	-12.0907
▁Fitness	-12.0909
▁Military	-12.091
▁dictator	-12.0912
▁Stein	-12.0913
fu	-12.0915
▁Works	-12.0917
▁merger	-12.0918
▁importer	-12.092
Tech	-12.0921
▁bow	-12.0923
sten	-12.0924
▁Holding	-12.0926
▁nur	-12.0927
▁authentication	-12.0928
stabilisation	-12.0931
▁converter	-12.0934
▁totalitarian	-12.0935
▁Shopping	-12.0936
▁Heart	-12.0936
▁od	-12.0937
▁divers	-12.0938
▁diagnostic	-12.0941
eb	-12.0942
▁trekking	-12.0949
▁saint	-12.0949
▁sculptures	-12.095
mon	-12.0952
▁bundle	-12.0954
▁PCI	-12.0955
▁id	-12.0957
▁shots	-12.0958
▁motors	-12.0962
▁trillion	-12.0962
▁Messenger	-12.0962
▁Desktop	-12.0962
▁BA	-12.0964
▁airspace	-12.0964
cio	-12.0967
down	-12.0969
▁Aqua	-12.0969
▁occupying	-12.0972
▁anxiety	-12.0972
▁mortalit	-12.0973
▁invisible	-12.0976
▁entertaining	-12.0976
▁Marie	-12.0979
▁sanction	-12.0982
▁blast	-12.0983
▁consultant	-12.0986
▁Posse	-12.0987
▁Oh	-12.0987
▁modernization	-12.0988
▁Cal	-12.0988
▁unlawful	-12.0989
▁proxy	-12.0989
ose	-12.0992
▁Ray	-12.0993
▁voluntari	-12.0994
▁Friends	-12.0996
▁Nine	-12.0996
▁flu	-12.0997
horn	-12.0997
▁Bell	-12.0999
▁masters	-12.0999
▁Zu	-12.1001
▁Peninsula	-12.1003
▁mercy	-12.1003
▁GUI	-12.1003
▁Ice	-12.1003
▁seeming	-12.1004
▁eradicate	-12.1004
▁assent	-12.1005
▁79	-12.1008
▁growers	-12.101
▁Stop	-12.1012
▁Care	-12.1014
▁Trading	-12.1016
▁repressive	-12.1016
96	-12.1017
ungen	-12.1018
▁gent	-12.1019
ett	-12.102
fish	-12.1025
▁UPS	-12.1026
▁Ju	-12.1026
ika	-12.1027
▁privately	-12.1027
▁Route	-12.1029
▁Leon	-12.103
▁impulse	-12.103
▁Mercosu	-12.103
▁Steinberg	-12.103
▁SLR	-12.1031
forehand	-12.1032
▁incorporation	-12.1032
▁gastronomic	-12.1032
weg	-12.1034
▁judg	-12.1036
▁riders	-12.104
▁pig	-12.1041
▁Animal	-12.1043
▁app	-12.1044
▁overcom	-12.1048
▁pockets	-12.1049
▁Nu	-12.1049
▁mould	-12.1054
▁Advisor	-12.1057
▁Deluxe	-12.1057
▁Gibraltar	-12.1057
▁protectionist	-12.1059
▁versa	-12.1065
▁sqm	-12.1065
▁Sand	-12.1065
03	-12.1068
▁va	-12.1068
aire	-12.1069
▁1940	-12.1072
▁occupy	-12.1074
▁accelerated	-12.1076
▁revive	-12.1078
▁Marx	-12.1079
09	-12.108
▁outskirts	-12.1084
▁Photos	-12.1085
▁Johann	-12.1085
wanted	-12.1089
▁scent	-12.1094
▁Events	-12.1095
▁housed	-12.1097
▁Gothenburg	-12.1098
▁replied	-12.1098
▁scourge	-12.1098
▁Porsche	-12.1098
▁Airways	-12.1098
▁incl	-12.1098
▁spray	-12.1099
▁Fun	-12.1099
▁speedy	-12.11
▁blanket	-12.11
▁Ros	-12.1101
▁142	-12.1102
▁sponsors	-12.1106
▁Ji	-12.1109
▁pornography	-12.1111
▁redress	-12.1112
▁overflow	-12.1113
iva	-12.1113
▁modem	-12.1115
▁wool	-12.1116
uff	-12.1116
▁87	-12.1118
▁Submitt	-12.112
▁repairs	-12.1121
▁Command	-12.1122
▁imperialist	-12.1122
▁cliffs	-12.1122
▁cite	-12.1122
▁Ecof	-12.1124
▁applause	-12.1125
▁Ol	-12.1125
▁hierarchy	-12.1126
▁bedding	-12.1128
▁mirrors	-12.1131
▁Jun	-12.1133
▁Chianti	-12.1134
▁concentrat	-12.1135
▁flats	-12.1135
▁Lamanite	-12.1138
▁adhesive	-12.1138
▁spontaneous	-12.1138
▁wholesale	-12.1139
▁Medicine	-12.1139
UR	-12.1142
▁commander	-12.1144
eg	-12.1151
▁Release	-12.1152
▁Cadiz	-12.1152
▁Usual	-12.1152
▁conceptual	-12.1154
▁Know	-12.1157
▁vente	-12.1157
sko	-12.1158
▁deprive	-12.116
▁rendering	-12.116
▁Vegas	-12.116
▁Andalusia	-12.1161
▁pod	-12.1162
300	-12.1164
▁seafood	-12.1166
97	-12.1166
▁Feel	-12.1168
▁populist	-12.117
rá	-12.117
▁gene	-12.1171
pan	-12.1174
making	-12.118
▁viewpoint	-12.118
▁Ram	-12.1182
etti	-12.1184
▁eve	-12.1186
▁2.1	-12.1187
▁BAE	-12.1187
▁centralis	-12.1187
▁viewer	-12.1188
▁committ	-12.1189
▁banker	-12.119
▁inspiring	-12.1193
▁courtes	-12.1197
▁minimise	-12.1198
ör	-12.1201
▁directories	-12.1202
▁poetry	-12.1208
lon	-12.1208
▁CAM	-12.121
▁fantasy	-12.1211
▁stairs	-12.1212
▁Por	-12.1213
▁tempt	-12.1214
▁ambiance	-12.1216
▁casinos	-12.1218
gr	-12.122
▁protagonist	-12.1221
▁soccer	-12.1221
rl	-12.1221
▁poem	-12.1222
▁Sp	-12.1223
▁prints	-12.1223
▁puzzle	-12.1226
▁pu	-12.1228
▁spirits	-12.1231
▁esta	-12.1233
▁Sustainabl	-12.1234
▁activation	-12.1235
▁ascertain	-12.1235
▁racial	-12.1235
▁communism	-12.1235
▁secretariat	-12.1236
UM	-12.1237
tti	-12.1238
▁Arc	-12.124
exe	-12.1241
▁Philipp	-12.1241
▁Ob	-12.1243
▁logg	-12.1246
entrepreneurship	-12.1247
▁Valle	-12.1247
▁aggression	-12.1249
▁junction	-12.1249
br	-12.1251
▁tactics	-12.1253
posed	-12.1253
▁insult	-12.1255
▁Fill	-12.1255
sel	-12.1258
jan	-12.1259
▁tear	-12.1259
▁pasture	-12.1262
▁Either	-12.1263
▁imprisonment	-12.1263
▁Amazon	-12.1264
▁divert	-12.1264
▁vol	-12.1265
▁ink	-12.1265
▁breed	-12.1266
▁App	-12.1266
EN	-12.1269
▁friendliness	-12.1277
vested	-12.1277
▁remedie	-12.1283
▁winding	-12.1284
▁Move	-12.1286
▁Montreal	-12.129
▁Memory	-12.129
otonou	-12.129
▁philosophical	-12.1291
ther	-12.1293
▁AVI	-12.1294
▁fired	-12.1296
▁chill	-12.1301
▁belts	-12.1302
▁processors	-12.1306
42	-12.1307
▁coexistenc	-12.131
▁contaminat	-12.1312
▁Count	-12.1317
▁negotiator	-12.132
OM	-12.1323
▁Kal	-12.1324
▁breathe	-12.1325
wald	-12.1327
var	-12.1331
▁shrink	-12.1332
▁sighted	-12.1334
ava	-12.1338
▁avail	-12.1341
▁Pat	-12.1341
▁Twin	-12.1345
▁unresolved	-12.1346
▁Monaco	-12.1346
mis	-12.1347
gy	-12.1347
▁Progress	-12.1347
▁Unix	-12.1348
▁slice	-12.135
▁declined	-12.1352
▁showcase	-12.1354
▁einem	-12.1356
rie	-12.1357
▁imperial	-12.1357
▁Natura	-12.1361
▁Rica	-12.1363
bank	-12.1364
▁devis	-12.1365
▁AR	-12.1365
▁screw	-12.1366
▁EX	-12.1369
ged	-12.137
▁pregnanc	-12.1372
▁rival	-12.1373
▁travell	-12.1374
ala	-12.1374
▁Regulations	-12.138
ret	-12.1381
ste	-12.1381
▁Week	-12.1383
▁Pisa	-12.1383
▁Stalin	-12.1387
▁secrecy	-12.1388
▁Wilhelm	-12.1388
▁dubious	-12.1388
▁Brother	-12.1388
▁wildlife	-12.1388
Pro	-12.1392
▁Chris	-12.1393
▁Ag	-12.1393
▁Matt	-12.1395
▁compli	-12.1396
▁Zimmer	-12.1401
▁feeds	-12.1401
▁medication	-12.1402
▁Burmese	-12.1402
▁Poettering	-12.1402
▁Müller	-12.1402
▁bills	-12.1405
▁EA	-12.1414
▁reproduc	-12.1414
▁immigrant	-12.1416
▁outdate	-12.1417
▁Moon	-12.1424
▁ri	-12.1425
▁antenna	-12.143
▁Instrument	-12.143
▁nineteenth	-12.1431
53	-12.1431
▁assertion	-12.1434
row	-12.1435
▁supervise	-12.1438
▁rebuil	-12.144
▁polluter	-12.1444
▁atmospheric	-12.1444
▁hostile	-12.1445
▁beneficiar	-12.1446
▁scores	-12.145
▁possesses	-12.1457
▁Lucerne	-12.1458
iert	-12.1458
▁gravity	-12.1459
dra	-12.1459
▁geopolitical	-12.1459
▁bloc	-12.146
▁succession	-12.146
▁Dam	-12.1461
une	-12.1462
▁php	-12.1464
▁Seller	-12.1464
info	-12.1465
EL	-12.1465
▁Expo	-12.1466
pre	-12.1467
mmer	-12.1467
▁gro	-12.147
▁Affiliate	-12.1473
▁Photoshop	-12.1473
▁Hilton	-12.1473
▁decorative	-12.1473
▁Inside	-12.1477
▁alteration	-12.1477
▁fittings	-12.1483
mail	-12.1484
▁Merkel	-12.1487
▁Beta	-12.1488
▁Philippines	-12.1488
▁compilation	-12.1489
▁Angel	-12.1494
tag	-12.1495
▁Ramblas	-12.1496
▁musician	-12.1496
ians	-12.1498
▁10.00	-12.1499
▁nervous	-12.1501
▁squares	-12.1502
lam	-12.1503
▁CNS	-12.1504
CE	-12.1507
▁Tre	-12.1508
▁Serbs	-12.1508
58	-12.151
▁Alma	-12.1513
ST	-12.1514
▁Blu	-12.1514
▁practitioner	-12.1515
▁unfold	-12.1516
▁muscle	-12.1517
▁pos	-12.1517
rio	-12.1517
▁formulation	-12.1519
▁Má	-12.152
zar	-12.1523
▁Traveller	-12.1524
▁handles	-12.1526
▁SC	-12.1527
aki	-12.1529
▁Seattle	-12.153
▁ballot	-12.153
▁1972	-12.1531
▁converting	-12.1532
▁deteriorat	-12.1535
▁stove	-12.1536
▁bubble	-12.1538
▁tags	-12.154
▁Nepal	-12.1543
▁imaging	-12.1544
▁undergoing	-12.1544
▁esteem	-12.1544
▁Mario	-12.1546
▁scrap	-12.1548
▁swap	-12.1548
▁shifting	-12.1549
anza	-12.155
▁cock	-12.1553
▁Wide	-12.1557
▁divorce	-12.1558
▁narrative	-12.1558
▁entrepreneurial	-12.1558
▁Index	-12.1559
▁donate	-12.1561
▁NT	-12.1561
▁worship	-12.1562
▁Cruz	-12.1562
▁payable	-12.1564
▁maternit	-12.1566
▁Case	-12.1566
▁Links	-12.1567
EM	-12.1569
▁emotion	-12.1569
▁steer	-12.1569
▁Horn	-12.1569
▁rulers	-12.157
▁Canc	-12.1578
etto	-12.1581
▁impair	-12.1585
▁communicating	-12.1586
▁astonishing	-12.1588
ische	-12.159
▁accede	-12.159
▁talents	-12.1591
▁stabiliz	-12.1592
▁Miles	-12.1594
▁Benz	-12.1595
mas	-12.1595
▁fertile	-12.1595
▁SD	-12.1596
▁Race	-12.1596
thren	-12.1599
UEN	-12.1599
▁corn	-12.16
hroughout	-12.1601
▁Romulan	-12.1601
▁counterfeiting	-12.1601
▁scattered	-12.1603
▁clash	-12.1606
92	-12.1607
▁repeating	-12.161
group	-12.1614
▁accuse	-12.1615
▁blessing	-12.1615
▁Dear	-12.1615
▁Twitter	-12.1615
▁dynamism	-12.1615
▁Actual	-12.1615
▁hull	-12.1616
▁Eurat	-12.1617
▁electro	-12.1619
▁fonts	-12.1621
▁Pop	-12.1621
▁ko	-12.1622
▁volcano	-12.1629
king	-12.163
▁enquiry	-12.1631
▁controllers	-12.1633
▁Think	-12.1637
php	-12.1641
▁drying	-12.1642
rat	-12.1646
ward	-12.1649
▁glasses	-12.1655
▁Indonesian	-12.1656
▁acquaint	-12.1658
▁wheelchair	-12.1658
▁clay	-12.1659
▁endeavours	-12.1662
▁cult	-12.1662
▁wilderness	-12.1673
▁hate	-12.1674
▁silk	-12.1676
einen	-12.1676
▁bypass	-12.1677
some	-12.1678
▁Orange	-12.1679
▁senses	-12.1681
win	-12.1682
▁Integration	-12.1687
▁ser	-12.1687
▁correspondence	-12.1687
lot	-12.1688
▁clone	-12.1689
ischen	-12.1689
▁shine	-12.1689
▁widen	-12.169
▁reinforcement	-12.1692
▁Simple	-12.1693
nica	-12.1697
AC	-12.1699
▁Equipment	-12.1702
▁Opportunit	-12.1702
▁lagoon	-12.1702
▁Sisko	-12.1702
▁queen	-12.1702
▁Horse	-12.1703
▁CFP	-12.1704
eau	-12.1704
▁Step	-12.1704
▁ju	-12.1705
▁maturit	-12.1705
▁Khan	-12.1705
▁wager	-12.1706
▁acres	-12.1707
▁Galicia	-12.1711
▁spoil	-12.1713
▁editions	-12.1715
▁supplements	-12.1715
▁Hannover	-12.1716
▁Guarantee	-12.1716
▁burst	-12.1717
▁governor	-12.1719
▁registry	-12.172
ario	-12.1722
kon	-12.1722
▁Gardena	-12.1723
AR	-12.1724
▁Armenia	-12.1726
kar	-12.1727
▁muscles	-12.1729
▁proclaimed	-12.173
▁vintage	-12.1731
▁Medina	-12.1731
gate	-12.1732
▁Style	-12.1732
UT	-12.1733
▁Connect	-12.1734
▁Armenian	-12.1735
▁easies	-12.1738
▁liberalis	-12.174
▁Protect	-12.1744
62	-12.1744
▁Syrian	-12.1747
▁deput	-12.1748
▁Historical	-12.1748
▁Linz	-12.1749
▁rides	-12.1749
▁validation	-12.1755
▁SilverFast	-12.176
▁slavery	-12.176
▁ATM	-12.1767
▁minerals	-12.1768
ele	-12.1769
▁intake	-12.177
rum	-12.1771
▁reciprocity	-12.1774
▁motif	-12.1774
▁confusing	-12.1774
▁DVDs	-12.1779
tt	-12.1779
▁dump	-12.1785
▁Always	-12.1789
▁reimbursement	-12.1789
▁acquir	-12.1791
▁Sta	-12.1791
▁explosive	-12.1794
▁jo	-12.18
▁tenth	-12.1808
▁Islamist	-12.1811
TOR	-12.1811
▁believ	-12.1813
▁Cor	-12.1815
▁battles	-12.1815
▁2.6	-12.1816
▁Daily	-12.1818
▁Nov	-12.1819
▁Bet	-12.1819
▁exchang	-12.1823
esque	-12.1823
▁beaten	-12.1825
▁Ve	-12.1825
▁Chad	-12.1827
▁broker	-12.1833
▁Kremlin	-12.1833
▁herbs	-12.1833
▁tranquillity	-12.1834
▁flooding	-12.1835
▁manifestation	-12.1835
▁outcomes	-12.1836
▁reactors	-12.1841
▁browsers	-12.1846
▁patches	-12.1847
▁poultry	-12.1848
▁Television	-12.1848
▁Display	-12.1848
▁pizza	-12.1848
▁compliant	-12.1848
▁Edward	-12.1848
▁performer	-12.1848
▁Communications	-12.185
▁viabilit	-12.1853
▁typ	-12.1853
▁modernise	-12.1861
▁simplifie	-12.1862
▁imminent	-12.1863
gue	-12.1863
▁enchant	-12.1863
▁ICC	-12.1865
CA	-12.1865
▁catching	-12.1872
▁potato	-12.1873
▁dip	-12.1873
▁forceful	-12.1874
▁testimony	-12.1877
▁holistic	-12.1877
▁Late	-12.1879
▁deplet	-12.188
▁orphan	-12.188
▁bind	-12.1882
▁Pin	-12.1882
▁greeting	-12.1883
▁Dom	-12.1886
▁heal	-12.1888
▁EDF	-12.1889
▁standardisation	-12.189
▁justifie	-12.189
▁catastrophic	-12.1892
▁encoding	-12.1892
▁bandwidth	-12.1892
▁flair	-12.1892
▁excise	-12.1892
▁tuning	-12.1892
▁bicycles	-12.1893
▁offshore	-12.1893
▁utilization	-12.1893
▁disseminat	-12.1894
▁advantageous	-12.1896
▁Fac	-12.1897
▁peculiar	-12.1898
87	-12.19
wan	-12.19
▁Guatemala	-12.1902
▁iz	-12.1903
né	-12.1904
▁bell	-12.1906
▁defensive	-12.1906
▁turbine	-12.1906
▁Category	-12.1906
▁equitabl	-12.1907
igen	-12.1907
▁interruption	-12.1909
▁dividend	-12.1909
eta	-12.1913
ów	-12.1915
▁dock	-12.1915
▁distribut	-12.1916
▁cons	-12.1919
▁theft	-12.1921
▁YouTube	-12.1922
▁orbit	-12.1923
avi	-12.1925
▁mega	-12.1926
▁tricks	-12.1926
pock	-12.1927
52	-12.1928
▁.....	-12.193
idad	-12.1931
COM	-12.1935
▁productions	-12.1936
▁Giovanni	-12.1936
▁Something	-12.1936
▁catalyst	-12.1937
▁Ry	-12.1937
▁fraction	-12.1937
gra	-12.194
▁Behold	-12.1941
▁supervis	-12.1943
▁beverage	-12.1944
▁WE	-12.1945
▁Somalia	-12.1945
▁Commons	-12.1946
▁Laser	-12.1946
aj	-12.1951
▁dilemma	-12.1951
▁Governor	-12.1952
▁handicap	-12.1954
▁Graz	-12.196
▁mathematical	-12.1966
▁combustion	-12.1966
▁consolidat	-12.1966
▁downturn	-12.1966
▁facilitates	-12.1967
▁cam	-12.1967
We	-12.1968
▁apt	-12.197
▁refresh	-12.1972
▁Mc	-12.1974
▁Columbia	-12.1976
▁absorptio	-12.1976
cer	-12.1977
▁undu	-12.1977
▁Swimming	-12.1981
▁bronze	-12.1981
akharov	-12.1981
▁Records	-12.1984
RI	-12.1988
▁fountain	-12.199
▁servant	-12.199
▁unter	-12.1991
▁Lage	-12.1991
▁lowering	-12.1992
▁strategically	-12.1992
ente	-12.1993
▁synergi	-12.1996
bol	-12.1996
▁prerogative	-12.1996
▁synthesis	-12.1996
▁unauthorized	-12.1996
▁Barack	-12.1996
▁honesty	-12.1997
▁Extreme	-12.1998
▁Million	-12.2
gone	-12.2002
▁Bob	-12.2003
▁summits	-12.2004
eller	-12.2007
▁cr	-12.2008
▁expectation	-12.2009
▁emperor	-12.201
▁unpleasant	-12.201
▁Kaiser	-12.2012
▁forgive	-12.2013
▁Compact	-12.202
lle	-12.2021
▁cove	-12.2021
▁Rad	-12.2022
▁Opening	-12.2022
It	-12.2024
nar	-12.2024
▁Sharon	-12.2026
vented	-12.2027
▁Email	-12.2027
▁LE	-12.2029
▁remainder	-12.2035
▁Manuel	-12.2036
▁prima	-12.2039
▁allegations	-12.204
▁extraordinari	-12.204
▁feasibilit	-12.204
▁Address	-12.204
▁1971	-12.2044
▁ecosystems	-12.2045
▁Jacob	-12.2047
dan	-12.2048
▁avant	-12.2048
▁Developer	-12.2052
01	-12.2052
▁pole	-12.2052
dem	-12.2053
▁escort	-12.2055
▁fingerprint	-12.2055
shire	-12.2057
94	-12.2058
▁noch	-12.2059
▁realism	-12.2065
like	-12.2067
▁graph	-12.207
▁Football	-12.2071
▁Provider	-12.2072
▁texture	-12.2074
▁Oliver	-12.2081
▁crown	-12.2084
▁expulsion	-12.2085
▁undeniabl	-12.2086
▁Nova	-12.2088
▁fixes	-12.2088
▁Students	-12.2088
▁Mercur	-12.2089
ments	-12.209
hor	-12.2092
▁drum	-12.2092
▁intensifie	-12.2092
▁navigate	-12.2095
▁computing	-12.21
▁replies	-12.2101
▁750	-12.2101
▁resignation	-12.2101
▁webpage	-12.2101
▁fierce	-12.2103
▁Cool	-12.2103
ados	-12.2105
▁summarise	-12.2105
▁EPA	-12.2107
tri	-12.2107
▁flesh	-12.2116
▁q	-12.2117
▁communal	-12.2117
▁panic	-12.2118
▁ch	-12.2125
▁electronically	-12.2126
▁scholars	-12.2127
▁tanker	-12.2127
▁Eye	-12.2129
▁Registration	-12.2131
▁identities	-12.2131
▁doorstep	-12.2131
XPress	-12.2132
▁proportional	-12.2133
▁bias	-12.2133
▁alien	-12.2135
▁analytical	-12.2136
▁yachts	-12.2141
▁voor	-12.2143
▁Approval	-12.2146
▁Certificate	-12.2147
amente	-12.2148
▁Engine	-12.2149
▁Scandinavian	-12.215
▁fence	-12.215
▁Eric	-12.2152
▁unload	-12.2153
▁Zen	-12.2154
ual	-12.2158
▁Kiev	-12.2158
▁Tech	-12.2159
▁fundamentalist	-12.2159
▁prestige	-12.2161
▁Luxury	-12.2161
▁perfection	-12.2161
▁Archive	-12.2162
low	-12.2164
▁1900	-12.2165
CI	-12.2166
mb	-12.2167
▁Romans	-12.2167
▁holdings	-12.2168
▁Guard	-12.2168
via	-12.217
▁infringe	-12.2171
▁orientat	-12.2173
▁dunes	-12.2173
▁Kar	-12.2174
▁wouldn	-12.2175
▁responsib	-12.2176
▁Nuremberg	-12.2176
▁ambiguit	-12.2176
▁biomass	-12.2176
▁inexpensive	-12.2176
▁loophole	-12.2176
▁hiding	-12.2176
ped	-12.2176
▁Lang	-12.2178
▁bother	-12.2178
mu	-12.2179
▁décor	-12.2181
sia	-12.2182
▁reads	-12.2184
▁colorful	-12.219
▁inventions	-12.219
aux	-12.219
▁reliably	-12.2191
▁entre	-12.2192
▁provincial	-12.2192
▁mainstreaming	-12.2195
itz	-12.2195
▁Polo	-12.2197
▁fr	-12.2197
▁implants	-12.2198
▁Alta	-12.2198
▁CSS	-12.2198
▁archipelago	-12.2207
▁plague	-12.2207
▁ozone	-12.2207
▁Ferrari	-12.2209
▁Options	-12.2209
▁utilise	-12.221
▁ritual	-12.2219
▁cigarette	-12.2219
▁2,000	-12.222
▁fiber	-12.2221
▁Voice	-12.2222
▁fool	-12.2224
pp	-12.2224
wer	-12.2225
▁suppose	-12.2225
▁standpoint	-12.2225
▁Give	-12.2227
▁interrupted	-12.2228
▁Operation	-12.2229
▁fundamentalism	-12.223
▁Fox	-12.2231
▁Navy	-12.2235
▁dev	-12.2235
▁Lithuanian	-12.2237
▁smuggling	-12.2237
▁improper	-12.2237
▁malware	-12.2237
▁extradition	-12.2237
ax	-12.2239
▁cigarettes	-12.224
▁zoo	-12.2243
▁kann	-12.2243
▁lab	-12.2244
▁GA	-12.2247
ves	-12.2249
ense	-12.2251
▁Convenient	-12.2252
▁haben	-12.2255
▁melt	-12.2257
IG	-12.2258
▁Document	-12.2264
▁shocking	-12.2266
▁magnitude	-12.2268
▁organiser	-12.2268
▁questionnaire	-12.2269
▁Copy	-12.2269
▁prop	-12.2269
gu	-12.2271
ET	-12.2272
▁Applications	-12.2273
zone	-12.2275
▁FM	-12.2276
TA	-12.2276
▁Motion	-12.2278
▁lava	-12.2281
0.000	-12.2281
▁gut	-12.2283
▁Reception	-12.2283
▁Kit	-12.2284
400	-12.2286
▁Manual	-12.2287
▁Fall	-12.229
▁ra	-12.229
▁rings	-12.229
▁delle	-12.229
▁collapsed	-12.2291
▁surprises	-12.2291
▁MEDA	-12.2293
lie	-12.2294
▁gel	-12.2295
▁tooth	-12.2298
▁dividing	-12.2298
▁rec	-12.2302
fline	-12.2305
▁Wa	-12.2312
▁piracy	-12.2314
▁Brandenburg	-12.2314
▁flagship	-12.2314
▁transposed	-12.2315
▁administrators	-12.2317
▁CIA	-12.2317
▁separat	-12.2318
▁Soon	-12.2319
▁practis	-12.2319
▁Julian	-12.232
fr	-12.2322
▁chemistr	-12.2323
320	-12.2324
▁DO	-12.2326
▁Need	-12.2326
▁Kazakhstan	-12.2329
▁rated	-12.2334
▁Delivery	-12.2338
CC	-12.2338
▁Grant	-12.2338
tr	-12.2342
▁supportive	-12.2343
▁harassment	-12.2345
▁evolving	-12.2345
rate	-12.2346
▁rod	-12.2347
▁lung	-12.2348
OT	-12.2351
▁Stream	-12.2354
cht	-12.2355
▁twist	-12.2355
▁digit	-12.2359
▁Cardiff	-12.236
▁mess	-12.2361
▁Block	-12.2364
▁Rapid	-12.2364
care	-12.2365
ches	-12.2372
▁Mile	-12.2372
▁este	-12.2372
▁Herman	-12.2374
▁Insurance	-12.2376
▁clearing	-12.2376
▁liberation	-12.2376
▁eradicat	-12.2376
▁Typical	-12.2376
▁tier	-12.2379
ami	-12.2386
▁foreseeabl	-12.2386
SO	-12.2387
▁WITH	-12.239
ström	-12.2391
▁Catalonia	-12.2391
▁sulphur	-12.2391
▁imposition	-12.2391
▁industrialis	-12.2393
▁clearance	-12.2396
▁excited	-12.2397
▁forge	-12.2399
▁om	-12.2401
▁Catalunya	-12.2407
▁vineyard	-12.2407
▁OEM	-12.2408
▁oneself	-12.2414
▁groves	-12.2415
▁gloss	-12.2417
▁fin	-12.2418
▁til	-12.2418
▁woody	-12.242
DS	-12.242
▁Eiffel	-12.2422
▁supreme	-12.2422
din	-12.2427
61	-12.2429
▁Include	-12.2431
ack	-12.2432
▁Angola	-12.2433
kan	-12.2435
▁redirect	-12.2437
▁Tag	-12.2437
▁prudent	-12.2438
▁extremism	-12.2438
▁Astrium	-12.2438
▁assassination	-12.2439
▁Electric	-12.2442
▁satisfying	-12.2443
teau	-12.245
▁nano	-12.2453
▁indefinite	-12.2453
▁FTP	-12.2454
▁vendor	-12.2457
▁Eden	-12.2458
ieren	-12.2462
▁2014	-12.2466
▁monumental	-12.2466
▁Fed	-12.2468
▁Tennis	-12.2469
▁proportionate	-12.247
▁hostilit	-12.2472
▁Campo	-12.2476
▁Archer	-12.2477
▁Hof	-12.2479
▁Audit	-12.2479
▁Bangladesh	-12.2479
▁incidence	-12.2485
▁voyage	-12.2485
lit	-12.2486
▁cottage	-12.2486
▁MA	-12.2497
▁Safe	-12.2497
▁salmon	-12.25
▁Previous	-12.25
▁Zagreb	-12.25
▁coincidence	-12.25
▁durability	-12.25
lock	-12.2506
▁Lind	-12.2508
▁Ste	-12.2509
ious	-12.2509
▁Focus	-12.2513
▁Infineon	-12.2516
▁Death	-12.2516
▁deadlock	-12.2516
▁disturbance	-12.2516
▁insect	-12.2518
▁accumulated	-12.2518
▁YOUR	-12.2521
ete	-12.2523
nom	-12.2524
▁inject	-12.2526
▁boulevard	-12.2532
▁revelation	-12.2532
▁equation	-12.2532
▁scientist	-12.2534
▁shameful	-12.2534
rk	-12.2539
cc	-12.254
▁stain	-12.254
▁Mind	-12.2541
▁convict	-12.2545
▁thesis	-12.2545
▁dass	-12.2547
▁Unter	-12.2547
▁cord	-12.2549
▁exacerbate	-12.255
▁span	-12.2555
dal	-12.2555
▁versu	-12.2558
▁Summar	-12.256
▁bacteria	-12.2562
▁Rotterdam	-12.2563
▁probe	-12.2564
▁flowing	-12.2565
▁corridors	-12.2565
▁deluxe	-12.2567
▁Em	-12.2569
TEC	-12.2573
▁aligned	-12.2574
▁prescrib	-12.2577
▁utiliti	-12.2579
▁fragmentation	-12.2581
▁laugh	-12.2583
ais	-12.2586
▁Thessalonik	-12.2587
▁chest	-12.2587
▁SME	-12.2588
Com	-12.2589
▁sender	-12.2591
▁float	-12.2591
▁cleansing	-12.2594
▁Lufthansa	-12.2595
▁erosion	-12.2595
▁tsunami	-12.2595
▁Pri	-12.2595
▁shipbuilding	-12.2595
▁freezing	-12.2595
▁pasta	-12.2598
▁Side	-12.2599
▁systemic	-12.2599
▁proportionalit	-12.26
▁tide	-12.2601
▁Pakistani	-12.2602
▁og	-12.2605
▁tick	-12.2607
▁Mars	-12.2607
aga	-12.2608
▁4.5	-12.2608
▁PayPal	-12.2611
▁Soundproof	-12.2611
▁rigour	-12.2611
▁probabilit	-12.2611
▁borrowing	-12.2611
adi	-12.2612
▁Rent	-12.2612
omé	-12.2614
▁Ly	-12.2615
▁arch	-12.2618
▁Offer	-12.2623
▁Champion	-12.2624
▁tra	-12.2624
ges	-12.2625
▁Membership	-12.2626
▁dictionary	-12.2627
▁scal	-12.2627
ntána	-12.2627
ute	-12.2631
▁html	-12.2633
▁Vin	-12.2634
▁cats	-12.2634
▁labell	-12.2635
int	-12.2636
▁roller	-12.2636
▁corrections	-12.2638
▁wonders	-12.264
▁Tan	-12.264
▁degradation	-12.2643
TH	-12.2643
▁flavours	-12.2645
site	-12.2647
rou	-12.2648
els	-12.2649
▁modernity	-12.265
GA	-12.265
▁anytime	-12.2651
07	-12.2651
▁hay	-12.2653
tified	-12.2654
▁Bach	-12.2654
▁Des	-12.2657
▁prescribe	-12.2658
▁urging	-12.2658
▁Genoa	-12.2658
tter	-12.2659
▁Ak	-12.2659
▁prospective	-12.266
▁dam	-12.266
▁Otto	-12.266
technik	-12.2661
oz	-12.2662
▁Imagine	-12.2662
▁statue	-12.2663
▁105	-12.2665
▁Bike	-12.2668
DE	-12.267
▁cheat	-12.2671
▁PCs	-12.2673
▁Coffee	-12.2674
▁attorney	-12.2674
▁merchandise	-12.2674
▁Dec	-12.2675
▁barcode	-12.2675
▁Ron	-12.2678
▁discard	-12.2679
▁priest	-12.268
took	-12.268
▁Bou	-12.2682
▁Milano	-12.2686
▁commented	-12.2688
▁chi	-12.269
▁whirlpool	-12.269
▁palette	-12.269
▁groundwater	-12.2691
▁100,000	-12.2691
▁Phone	-12.2694
▁align	-12.2695
▁Trail	-12.2697
▁Interest	-12.2698
▁warp	-12.2699
TO	-12.2699
▁marker	-12.2699
▁compositions	-12.27
▁masses	-12.27
▁Ru	-12.2703
▁persecut	-12.2706
▁Erasmus	-12.2706
▁complication	-12.2707
▁vom	-12.2708
igo	-12.2709
▁programmer	-12.271
▁trailer	-12.271
▁youngest	-12.2714
▁Espa	-12.2714
▁Concert	-12.2715
▁mergers	-12.2716
lé	-12.2716
▁manipulate	-12.2719
▁crowded	-12.2721
sse	-12.2722
▁Chirac	-12.2722
▁repent	-12.2722
ech	-12.2724
▁picking	-12.2727
▁Speak	-12.2728
▁grape	-12.2728
illo	-12.2729
är	-12.2731
▁aquaculture	-12.2734
▁ham	-12.2735
▁PA	-12.2735
▁balls	-12.2737
▁tendencies	-12.2738
▁malicious	-12.2738
▁Cambridge	-12.2738
▁Integrated	-12.2739
▁Publish	-12.274
▁etch	-12.274
dom	-12.2741
▁Dell	-12.2744
ram	-12.2744
▁vain	-12.2744
▁fond	-12.2744
▁mechanic	-12.2744
▁pleas	-12.2745
▁IF	-12.2748
▁Jim	-12.275
tolen	-12.2751
▁unequal	-12.2753
▁fraudulent	-12.2754
▁repeal	-12.2754
▁Prophet	-12.2754
▁cyclist	-12.2754
▁wreck	-12.2754
▁ré	-12.2755
▁mansion	-12.2755
▁doubled	-12.2758
▁emphatical	-12.2758
▁Turin	-12.2761
tive	-12.2761
lets	-12.2761
▁myth	-12.2765
▁polymer	-12.2769
▁1.8	-12.277
▁Prestige	-12.2771
▁Socrates	-12.2771
▁sliding	-12.2771
▁intercultural	-12.2771
▁legislature	-12.2771
▁Pod	-12.2773
▁expell	-12.2774
rian	-12.2775
▁shad	-12.2779
▁policymaker	-12.2784
▁ThyssenKrup	-12.2787
▁blatant	-12.2787
▁descent	-12.2787
▁unjustifi	-12.2788
▁TEN	-12.2789
▁Books	-12.2792
▁Gil	-12.2797
▁Challenge	-12.2798
▁conferr	-12.2799
▁stupid	-12.28
▁poison	-12.2801
▁yard	-12.2802
▁Alm	-12.2803
▁Arafat	-12.2803
▁gorgeous	-12.2803
inerary	-12.2804
▁Vel	-12.2804
▁entitlement	-12.2804
▁Cer	-12.2805
▁slides	-12.2805
▁subordinate	-12.2806
▁canyon	-12.2806
▁pause	-12.2808
▁foresee	-12.281
▁cit	-12.2812
▁editors	-12.2814
▁mold	-12.2819
▁diabetes	-12.2819
▁optic	-12.2819
sson	-12.2825
▁Mit	-12.2827
▁Designer	-12.2827
▁Carlo	-12.2834
▁conversations	-12.2835
▁likelihood	-12.2835
▁reciprocal	-12.2835
▁ventilation	-12.2835
▁overhaul	-12.2836
IE	-12.2836
▁pioneering	-12.2837
▁Standards	-12.2839
▁Ana	-12.2843
liche	-12.2843
▁cultivate	-12.2844
▁ARE	-12.2845
▁1800	-12.2846
▁mas	-12.2848
▁polls	-12.2849
▁bull	-12.2849
▁intentional	-12.2849
soft	-12.2849
▁indulge	-12.2851
▁redeem	-12.2851
▁Liechtenstein	-12.2851
▁kW	-12.2852
▁hungry	-12.2852
▁accumulation	-12.2852
▁blockade	-12.2854
▁crafts	-12.286
IO	-12.2865
mic	-12.2865
▁doom	-12.2866
▁Study	-12.2866
▁unveil	-12.2868
▁Essential	-12.2868
tig	-12.2869
▁eligibilit	-12.287
ní	-12.2872
▁pearl	-12.2878
vel	-12.2881
▁customised	-12.2881
lini	-12.2881
▁aluminum	-12.2881
▁Disney	-12.2884
▁feast	-12.2884
▁firmware	-12.2886
▁rally	-12.2888
▁shocks	-12.2888
▁jail	-12.2893
▁babi	-12.2893
▁verbal	-12.2893
▁nutritional	-12.2894
▁Pol	-12.2895
▁cab	-12.2896
▁archiv	-12.2896
▁Reservations	-12.2896
▁fascinate	-12.29
▁facult	-12.29
▁scholarship	-12.29
▁redesign	-12.2901
▁domination	-12.2904
▁exam	-12.2905
▁triumph	-12.2906
▁prophet	-12.2906
41	-12.2906
▁scientifically	-12.2913
▁acceleration	-12.2915
▁Satellite	-12.2917
▁naval	-12.2917
▁Strip	-12.2918
▁pointer	-12.2918
vent	-12.292
▁humidit	-12.292
▁Mega	-12.2922
▁guy	-12.2922
▁classroom	-12.2925
▁Down	-12.2925
▁choir	-12.2925
▁jewel	-12.2926
rmies	-12.2928
TV	-12.293
▁retir	-12.2932
▁notorious	-12.2933
▁wallpaper	-12.2933
▁equilibrium	-12.2933
▁uncover	-12.2934
▁metallic	-12.2934
lio	-12.2936
vol	-12.2937
▁tele	-12.294
▁Cave	-12.2943
▁uncontroll	-12.2943
▁Champs	-12.2944
▁Less	-12.2945
▁3.1	-12.2946
▁planes	-12.2949
▁untouched	-12.2949
▁Radisson	-12.2949
▁graveyard	-12.2949
▁Tribunal	-12.295
▁glue	-12.2951
▁plugins	-12.2953
350	-12.2955
▁lease	-12.2955
▁mod	-12.2956
▁aspire	-12.2957
ivo	-12.296
▁Gr	-12.2962
▁Increase	-12.2966
▁spectacle	-12.2966
▁Interior	-12.2966
▁bishop	-12.2966
▁deletion	-12.2968
▁Realty	-12.2968
▁Wherea	-12.2968
06	-12.2974
▁Tea	-12.2974
▁vocal	-12.2976
▁paste	-12.2976
Re	-12.2977
▁paradox	-12.298
▁endangered	-12.2981
▁canoe	-12.2982
▁5000	-12.2982
▁Tab	-12.2982
▁colored	-12.2982
▁Corbett	-12.2982
▁congestion	-12.2983
laga	-12.2983
▁ya	-12.2983
▁Coming	-12.2984
▁Designed	-12.2984
with	-12.2984
▁3.2	-12.2985
▁sch	-12.2986
▁implant	-12.2988
▁Flat	-12.2991
▁Picture	-12.2992
▁ft	-12.2995
84	-12.2996
▁demonstrator	-12.2997
▁tablet	-12.2998
▁Platz	-12.3
▁polio	-12.3001
▁mountainous	-12.3004
▁ERP	-12.3004
▁Duke	-12.3004
▁heater	-12.3005
part	-12.3005
▁peacekeep	-12.3008
▁monster	-12.3009
▁bonuse	-12.3012
gal	-12.3015
▁decommissioning	-12.3015
▁Pyrenees	-12.3015
▁Vatican	-12.3015
▁verdict	-12.3015
▁speculative	-12.3015
▁tuberculosis	-12.3015
▁exhaustive	-12.3016
▁differentiated	-12.3021
▁Improv	-12.3021
▁shipments	-12.3028
▁disks	-12.3029
▁diversifi	-12.3029
▁Dimension	-12.3032
▁spells	-12.3032
▁shareholder	-12.3032
▁ambient	-12.3036
▁Belarusian	-12.3037
▁preset	-12.3038
▁Uganda	-12.3044
eva	-12.3044
▁Rom	-12.3046
▁globalis	-12.3047
▁frequenci	-12.3048
▁hypocritical	-12.3048
▁Salvador	-12.3048
▁Vladimir	-12.3048
▁miniature	-12.3048
▁councils	-12.305
▁Tro	-12.305
▁influenc	-12.3051
▁BBC	-12.3053
ein	-12.3053
▁Sale	-12.3055
▁Measure	-12.3056
▁migrant	-12.3059
▁AN	-12.3061
▁canvas	-12.3063
▁fled	-12.3065
▁Ernst	-12.3065
▁delicacies	-12.3065
▁unsustainabl	-12.3065
▁saddle	-12.3067
dar	-12.3067
▁Off	-12.3067
▁specialty	-12.3068
▁lawn	-12.3073
▁encompasse	-12.3073
▁Season	-12.3076
▁advancement	-12.3076
▁Tours	-12.3078
▁memorial	-12.3081
▁Creat	-12.3081
▁Basilica	-12.3082
▁Dalai	-12.3082
▁Conil	-12.3082
▁Martini	-12.3082
▁roadmap	-12.3082
▁cliff	-12.3085
▁Interface	-12.3086
▁bra	-12.3086
▁specifie	-12.3087
▁catche	-12.3088
▁Label	-12.3089
▁perpetrat	-12.3091
▁breathing	-12.3091
▁Shine	-12.3095
▁contempt	-12.3098
▁delegates	-12.3101
gio	-12.3101
TI	-12.3101
▁EOS	-12.3101
▁utilisation	-12.3106
vit	-12.3107
▁Shoe	-12.3109
▁patron	-12.311
▁adjusting	-12.311
▁tant	-12.311
▁retire	-12.3113
▁Cho	-12.3113
▁Stadt	-12.3114
▁prescription	-12.3115
▁aftermath	-12.3115
▁moisture	-12.3115
▁CRM	-12.3116
▁GSP	-12.3117
▁unreasonable	-12.3117
▁suffice	-12.3117
una	-12.3118
PA	-12.3119
▁Menu	-12.3119
xi	-12.3124
▁ecosystem	-12.3127
▁rays	-12.3127
▁Alpes	-12.313
▁accent	-12.3131
▁calibration	-12.3132
▁3,000	-12.3132
iff	-12.3139
▁mins	-12.314
▁mesh	-12.314
▁Ur	-12.314
▁starv	-12.3141
▁gram	-12.3141
RS	-12.3148
▁Position	-12.3148
SA	-12.3149
▁Lukashenk	-12.3152
▁foreseen	-12.3153
ua	-12.3156
▁Rwanda	-12.316
▁borrow	-12.3163
▁virgin	-12.3165
▁matrix	-12.3165
▁Jesolo	-12.3165
▁CNC	-12.3167
bahn	-12.3177
▁cows	-12.3178
lands	-12.3179
hand	-12.318
▁WordPress	-12.3182
▁modulation	-12.3182
IM	-12.3183
▁1956	-12.3184
chassi	-12.3184
▁tranquility	-12.3186
▁Spend	-12.3186
▁Alan	-12.3188
▁bloody	-12.319
ct	-12.3191
▁pdf	-12.3191
▁amid	-12.3192
▁travels	-12.3192
▁genes	-12.3192
▁microphone	-12.3195
▁Touch	-12.3198
▁weld	-12.3198
▁Acrobat	-12.3199
▁decoupl	-12.3199
▁inefficient	-12.3199
▁Sicily	-12.3199
▁basketball	-12.3199
▁dried	-12.3199
▁Jones	-12.3203
SC	-12.3204
ery	-12.3205
▁Roger	-12.3206
rm	-12.3206
▁lapse	-12.3209
▁Sardinia	-12.3211
▁obstruct	-12.3214
▁sheer	-12.3215
,3	-12.3216
▁Persian	-12.3217
▁bathtub	-12.3217
▁toilets	-12.3218
▁interven	-12.3219
▁meditation	-12.322
gli	-12.3222
▁meta	-12.3224
▁Risk	-12.3224
▁grab	-12.3224
▁counsel	-12.3228
▁ensemble	-12.3229
▁mana	-12.3229
▁nonsense	-12.3232
▁underpin	-12.3233
▁Malm	-12.3235
▁gulf	-12.3239
▁Layer	-12.324
▁AV	-12.3243
▁Terme	-12.3246
▁gem	-12.3248
▁soundproof	-12.325
▁entertain	-12.325
▁unlock	-12.3251
▁Details	-12.3252
▁reap	-12.3254
▁NCC	-12.3255
▁adjourned	-12.3258
▁enclos	-12.3259
▁Algerian	-12.326
▁impacts	-12.3261
51	-12.3263
▁coral	-12.3263
▁cage	-12.3263
gl	-12.3266
▁paradigm	-12.3266
▁Eurojust	-12.3266
▁Kunst	-12.3267
▁Mat	-12.3268
1957	-12.3273
▁Zi	-12.3274
▁Mur	-12.3277
82	-12.3281
▁dire	-12.3281
59	-12.3281
▁NGO	-12.3281
▁Uzbekistan	-12.3283
▁Tell	-12.3283
▁greener	-12.3292
▁boil	-12.3293
▁Annan	-12.3294
71	-12.3297
lay	-12.3297
▁corridor	-12.3298
▁bits	-12.3299
▁Comfortable	-12.3304
▁1966	-12.3305
LA	-12.3306
▁refunds	-12.3306
▁sealed	-12.3308
▁taxis	-12.3308
▁modernis	-12.3309
bot	-12.3313
das	-12.3314
pol	-12.3315
▁doubl	-12.3315
▁therein	-12.3315
▁Dubrovnik	-12.3317
▁inconsistent	-12.3317
▁Kurds	-12.3317
▁redistribution	-12.3317
▁cleanliness	-12.3318
▁streamlin	-12.3318
wo	-12.3321
▁Fort	-12.3325
pass	-12.3328
▁neat	-12.3328
▁disco	-12.3333
▁hectare	-12.3334
▁Bristol	-12.3334
▁ancestor	-12.3334
▁Chat	-12.3334
▁arrow	-12.3334
▁humane	-12.3334
▁roam	-12.3335
▁1200	-12.3338
cre	-12.334
▁Saharan	-12.3341
▁concerted	-12.3343
▁hint	-12.3343
▁pointless	-12.3348
▁gran	-12.335
▁Orthodox	-12.3351
▁Practice	-12.3351
▁identifiable	-12.3351
▁crossroad	-12.3352
▁legislate	-12.3352
▁bail	-12.3353
▁dirt	-12.3354
isi	-12.3355
▁mapping	-12.3358
▁reside	-12.3364
▁atomic	-12.3365
▁Leban	-12.3368
▁rectify	-12.3368
▁wardrobe	-12.3368
mus	-12.3369
▁Evans	-12.3371
▁gray	-12.3371
▁altar	-12.3372
▁fade	-12.3377
▁Mag	-12.3384
▁Alicante	-12.3385
▁presume	-12.3386
▁touring	-12.3386
▁seafront	-12.3387
AP	-12.3388
▁arouse	-12.3388
phone	-12.3395
▁Perl	-12.3395
kind	-12.3396
▁DB	-12.3398
▁clouds	-12.3399
▁triangle	-12.3402
mor	-12.3403
▁multicultural	-12.3403
▁indicative	-12.3403
▁101	-12.3404
▁Dynamic	-12.3406
▁cordial	-12.3408
▁jeweller	-12.3413
play	-12.3417
▁Mike	-12.3418
▁SIM	-12.3419
▁Jarzembowski	-12.342
▁Poverty	-12.342
▁Defense	-12.342
▁115	-12.342
▁blessed	-12.3422
▁1965	-12.3422
▁seriousnes	-12.3422
▁builds	-12.3423
▁Circle	-12.3424
▁compelling	-12.3426
▁cabins	-12.3431
▁alquiler	-12.3433
▁Rei	-12.3433
▁Field	-12.3433
▁Glacier	-12.3437
▁Ankara	-12.3437
▁vicious	-12.3437
▁kilometre	-12.3437
▁webcam	-12.3438
Con	-12.3438
▁Mov	-12.3441
▁Auf	-12.3447
elecommunication	-12.3448
HARE	-12.3449
dic	-12.3454
▁Strategic	-12.3454
▁civic	-12.3454
▁aerial	-12.3455
▁presses	-12.3455
lenses	-12.3456
▁democratis	-12.3462
▁EEA	-12.3464
gg	-12.3465
not	-12.3466
sberg	-12.3466
ug	-12.3467
▁riot	-12.3467
▁circulat	-12.3468
▁sanitary	-12.3471
▁grassroot	-12.3471
▁Wallström	-12.3472
neath	-12.3473
▁Rhein	-12.3474
▁savour	-12.3476
lander	-12.3477
▁bu	-12.3478
▁Wir	-12.3479
▁Josef	-12.3479
▁pit	-12.348
▁hose	-12.348
base	-12.348
▁Body	-12.3483
▁Tomorrow	-12.3489
▁pandemic	-12.3489
▁repetition	-12.3489
▁volatility	-12.3489
▁synergy	-12.3489
▁Stadium	-12.3489
qu	-12.3491
▁witnesse	-12.3491
▁Pedro	-12.3491
▁Economics	-12.3492
▁fuck	-12.3492
▁endorsement	-12.3494
▁builder	-12.3495
▁cakes	-12.3497
▁offerings	-12.3498
▁Years	-12.3505
▁Vot	-12.3505
▁outsourcing	-12.3506
▁tribunal	-12.3506
▁cursor	-12.3508
fold	-12.3508
▁motorways	-12.3508
▁shout	-12.3509
▁Ground	-12.3509
sol	-12.3509
▁fingers	-12.351
PE	-12.3513
▁Min	-12.3513
ean	-12.3514
▁bays	-12.3514
▁revealing	-12.3516
▁apple	-12.3519
▁uploaded	-12.3521
ali	-12.3523
▁dawn	-12.3524
▁AB	-12.3524
▁renam	-12.3526
hood	-12.3527
IES	-12.3531
▁interrupt	-12.3531
uthenticity	-12.3532
▁Nephi	-12.3534
script	-12.3539
▁Centro	-12.3541
▁trialogue	-12.3541
all	-12.3541
▁correlation	-12.3541
▁paradoxical	-12.3544
▁Continue	-12.3544
▁Wave	-12.3545
▁proceeds	-12.3546
▁crush	-12.355
▁Present	-12.3552
▁liabilit	-12.3554
view	-12.3557
▁discredit	-12.3558
cion	-12.3559
▁awful	-12.3559
▁tan	-12.3559
▁pairs	-12.356
▁1948	-12.356
▁USE	-12.356
▁Buffet	-12.356
▁mediator	-12.3561
▁ambassador	-12.3561
▁Wal	-12.3562
▁Boot	-12.3566
▁bowl	-12.3567
▁flee	-12.3568
▁mathematics	-12.3576
▁coated	-12.3577
▁EBIT	-12.3578
▁deserved	-12.3578
▁toolbar	-12.3579
page	-12.3579
▁delegate	-12.3581
▁Bit	-12.3584
AD	-12.3587
band	-12.3588
▁stereo	-12.3589
▁slim	-12.3589
▁Sh	-12.3593
▁Racing	-12.3593
▁103	-12.3594
▁withstand	-12.3595
▁validate	-12.3598
born	-12.3599
DI	-12.3602
▁tribes	-12.3606
▁dinners	-12.3606
380	-12.3608
▁Promotion	-12.3608
▁BG	-12.3608
nu	-12.3609
▁blogs	-12.3609
▁Sen	-12.361
▁interdisciplin	-12.3611
▁alignment	-12.3611
▁companion	-12.3613
▁ter	-12.3614
▁preach	-12.3615
▁vitality	-12.362
▁conveyor	-12.3621
▁Halle	-12.3621
▁epic	-12.3625
▁tempo	-12.3626
▁kite	-12.3627
[...]
